{
  "</s>": 0,
  "<unk>": 1,
  ".": 2,
  ",": 3,
  "\u2581the": 4,
  "\u2581to": 5,
  "'": 6,
  "?": 7,
  "\u2581of": 8,
  "s": 9,
  "\u2581w": 10,
  "\u2581-": 11,
  "\u2581I": 12,
  "\u2581and": 13,
  "\u2581a": 14,
  "\u2581": 15,
  "\u2581in": 16,
  "\u2581i": 17,
  "\u2581z": 18,
  "a": 19,
  "\u2581you": 20,
  "\u2581do": 21,
  "\u2581na": 22,
  "y": 23,
  "\u2581si\u0119": 24,
  "m": 25,
  "\u2581nie": 26,
  "!": 27,
  "\u2581(": 28,
  "e": 29,
  "\u2581is": 30,
  "-": 31,
  "t": 32,
  "\u2581for": 33,
  ":": 34,
  "\u2581that": 35,
  "\u2581on": 36,
  "\u2581it": 37,
  ")": 38,
  "\u2581W": 39,
  "j": 40,
  "\u2581be": 41,
  "\u2581\"": 42,
  "\u2581o": 43,
  "\u2581\u017ce": 44,
  "\u2581jest": 45,
  "\u2581with": 46,
  "i": 47,
  "u": 48,
  "o": 49,
  "\u2581Nie": 50,
  "\u2581za": 51,
  "\u2581The": 52,
  "\u2581by": 53,
  "\u2581po": 54,
  "sz": 55,
  "\u2581this": 56,
  "\u2581are": 57,
  "\u2581not": 58,
  "\u2581You": 59,
  "\u2581was": 60,
  "\u0119": 61,
  "\u2581A": 62,
  "em": 63,
  "\u2581have": 64,
  "ing": 65,
  "ie": 66,
  "\u2581we": 67,
  "\u2581me": 68,
  "...": 69,
  "\u2581or": 70,
  "n": 71,
  "d": 72,
  "\u2581as": 73,
  "\u2581S": 74,
  "\u2581To": 75,
  "ch": 76,
  "\u2581od": 77,
  "na": 78,
  "\u2581your": 79,
  "\u0107": 80,
  ";": 81,
  "re": 82,
  "\u2581co": 83,
  "\u2581from": 84,
  "my": 85,
  "\u2581O": 86,
  "\u2581can": 87,
  "\u2581s": 88,
  "\u2581No": 89,
  "\u0105": 90,
  "\u2581my": 91,
  "\u2581It": 92,
  "\u2581C": 93,
  "\u2581at": 94,
  "nie": 95,
  "c": 96,
  "\u2581go": 97,
  "ka": 98,
  "ed": 99,
  "go": 100,
  "\u2581lub": 101,
  "\u2581all": 102,
  "\u2581dla": 103,
  "\u2581B": 104,
  "\u2581Po": 105,
  "\u2581jak": 106,
  "\u2581know": 107,
  "\u2581an": 108,
  "\u2581he": 109,
  "z": 110,
  "/": 111,
  "\u2581What": 112,
  "\u2581He": 113,
  "\u2581Z": 114,
  "\u2581We": 115,
  "\u2581Do": 116,
  "\u2581przez": 117,
  "ly": 118,
  "\u2581will": 119,
  "\u2581out": 120,
  "\u2581Co": 121,
  "\u2581P": 122,
  "\u2581what": 123,
  "\u2581r": 124,
  "\"": 125,
  "w": 126,
  "\u0142": 127,
  "\u2581L": 128,
  "\u2581one": 129,
  "\u2581u": 130,
  "\u2581up": 131,
  "\u2581tym": 132,
  "\u015b": 133,
  "\u00f3w": 134,
  "\u2581And": 135,
  "\u2581about": 136,
  "li": 137,
  "\u25811": 138,
  "\u2581oraz": 139,
  "\u2581ma": 140,
  "\u2581don": 141,
  "\u2581wy": 142,
  "cie": 143,
  "\u2581just": 144,
  "er": 145,
  "mi": 146,
  "b": 147,
  "\u2581mi": 148,
  "\u2581like": 149,
  "ll": 150,
  "\u2581mnie": 151,
  "\u2581which": 152,
  "\u2581but": 153,
  "\u2581Za": 154,
  "\u2581they": 155,
  "\u2581_": 156,
  "\u2581s\u0105": 157,
  "\u0142a": 158,
  "\u2581here": 159,
  "_": 160,
  "\u2581/": 161,
  "\u2581tego": 162,
  "\u2581p": 163,
  "\u2581has": 164,
  "\u2581so": 165,
  "\u2581get": 166,
  "\u2581T": 167,
  "\u2581no": 168,
  "\u2581there": 169,
  "\u2581In": 170,
  "\u2581tak": 171,
  "ny": 172,
  "in": 173,
  "ach": 174,
  "\u2581him": 175,
  "\u2581shall": 176,
  "\u2581right": 177,
  "\u2581Na": 178,
  "ki": 179,
  "\u2581did": 180,
  "\u2581przy": 181,
  "ce": 182,
  "ne": 183,
  "BAR": 184,
  "\u2581her": 185,
  "\u2581ale": 186,
  "k": 187,
  "\u2581Tak": 188,
  "\u2581This": 189,
  "\u2581if": 190,
  "\u2581H": 191,
  "ah": 192,
  "\u2581U": 193,
  "S": 194,
  "\u2581E": 195,
  "\u25812": 196,
  "ve": 197,
  "\u2581should": 198,
  "\u2581been": 199,
  ".\"": 200,
  "ej": 201,
  "\u2581his": 202,
  "\u2581by\u0107": 203,
  "or": 204,
  "g": 205,
  "\u2581Article": 206,
  "ni": 207,
  "\u2581were": 208,
  "\u2581ze": 209,
  "\u2581would": 210,
  "\u2581time": 211,
  "\u2581got": 212,
  "\u2581K": 213,
  "h": 214,
  "\u2581mo\u017ce": 215,
  "\u2581D": 216,
  "ami": 217,
  "\u2581That": 218,
  "\u2581more": 219,
  "\u2581F": 220,
  "\u2581G": 221,
  "\u2581tylko": 222,
  "\u2581us": 223,
  "\u2581their": 224,
  "\u2581other": 225,
  "A": 226,
  "\u2581want": 227,
  "\u2581ci": 228,
  "\u2581our": 229,
  "\u2581M": 230,
  "\u2581who": 231,
  "\u2581them": 232,
  "\u25813": 233,
  ").": 234,
  "C": 235,
  "\u2581So": 236,
  "nia": 237,
  "\u2581prze": 238,
  "\u2581European": 239,
  "\u2581pod": 240,
  "\u2581kt\u00f3re": 241,
  "\u2581think": 242,
  "le": 243,
  "\u2581may": 244,
  "\u2581art": 245,
  "p": 246,
  "\u2581ich": 247,
  "\u2581Oh": 248,
  "\u2581when": 249,
  "\u2581Regulation": 250,
  "on": 251,
  "al": 252,
  "\u2581b": 253,
  "\u2581R": 254,
  "\u2581But": 255,
  "\u2581Ye": 256,
  "\u0142o": 257,
  "\u2581Commission": 258,
  "),": 259,
  "es": 260,
  "\u2581any": 261,
  "\u2581Wy": 262,
  "\u2581now": 263,
  "\u2581had": 264,
  "iem": 265,
  "\u2581.": 266,
  "\u2581she": 267,
  "\u2581jego": 268,
  "\u2581into": 269,
  "\u2581see": 270,
  "\u25815": 271,
  "\u2581some": 272,
  "\u2581only": 273,
  "\u2581tu": 274,
  "r": 275,
  "\u2581Ale": 276,
  "l": 277,
  "\u2581b\u0119dzie": 278,
  "\u2581czy": 279,
  "\u2581also": 280,
  "\u2581its": 281,
  "\u2581could": 282,
  "\u2581need": 283,
  "\u25814": 284,
  "\u258110": 285,
  "\u2581back": 286,
  "by": 287,
  "ko": 288,
  "en": 289,
  "ych": 290,
  "\u2581Well": 291,
  "\u2581Member": 292,
  "\u2581ju\u017c": 293,
  "\u2581ten": 294,
  "\u2581Jak": 295,
  "\u2581jej": 296,
  "om": 297,
  "\u2581than": 298,
  "\u2581good": 299,
  "am": 300,
  "\u2581take": 301,
  "\u2581going": 302,
  "\u2581down": 303,
  "\u2581real": 304,
  "\u2581ci\u0119": 305,
  "\u2581If": 306,
  "\u2581ja": 307,
  "gon": 308,
  "\u2581Ch": 309,
  "\u2581'": 310,
  "ta": 311,
  "ci": 312,
  "\u2581dnia": 313,
  "B": 314,
  "ze": 315,
  "\u2581way": 316,
  "ek": 317,
  "\u2581people": 318,
  "\u2581aby": 319,
  "\u2581g": 320,
  "\u2581N": 321,
  "\u2581Ja": 322,
  "\u2581They": 323,
  "\u2581Prze": 324,
  "\u2581over": 325,
  "no": 326,
  "\u2581make": 327,
  "\u2581nr": 328,
  "W": 329,
  "\u2581where": 330,
  "\u2581c": 331,
  "ego": 332,
  "\u2581Od": 333,
  "\u2581ust": 334,
  "\u2581how": 335,
  "\u2581Ma": 336,
  "\u2581these": 337,
  "\u2581new": 338,
  "\u2581m": 339,
  "\u2581f": 340,
  "\u0142em": 341,
  "EC": 342,
  "owy": 343,
  "\u2581ty": 344,
  "be": 345,
  "i\u0119": 346,
  "ir": 347,
  "\u2581States": 348,
  "it": 349,
  "\u2581How": 350,
  "j\u0105": 351,
  "\u2581She": 352,
  "\u2581V": 353,
  "ry": 354,
  "\u2581does": 355,
  "to": 356,
  "owa": 357,
  "\u0144": 358,
  "\u2581jako": 359,
  "\u2581ta": 360,
  "\u0142am": 361,
  "\u2581Czy": 362,
  "\u2581bez": 363,
  "\u2581God": 364,
  "\u2581All": 365,
  "\u2581de": 366,
  "\u2581For": 367,
  "owe": 368,
  "\u2581come": 369,
  "WE": 370,
  "th": 371,
  "\u2581kt\u00f3ry": 372,
  "d\u017a": 373,
  "\u2581such": 374,
  "\u25816": 375,
  "\u2581by\u0142": 376,
  "\u2581man": 377,
  "\u2581co\u015b": 378,
  "\u2581first": 379,
  "P": 380,
  "\u2581two": 381,
  "\u0142e\u015b": 382,
  "\u2581use": 383,
  "\u2581je": 384,
  "ym": 385,
  "\u2581te": 386,
  "e\u015b": 387,
  "\u2581then": 388,
  "\u0142y": 389,
  "\u2581J": 390,
  "\u2581pan": 391,
  "U": 392,
  "\u2581must": 393,
  "\u2581say": 394,
  "\u2581those": 395,
  "\u2581sobie": 396,
  "\u2581very": 397,
  "ca": 398,
  "\u2581online": 399,
  "\u2581work": 400,
  "K": 401,
  "ku": 402,
  "\u2581There": 403,
  "li\u015bmy": 404,
  "\u2581r\u00f3wnie\u017c": 405,
  "D": 406,
  "\u2581bardzo": 407,
  "ty": 408,
  "E": 409,
  "\u2581under": 410,
  "\u2581Go": 411,
  "\u2581My": 412,
  "\u2581mam": 413,
  "\u2581je\u015bli": 414,
  "\u2581celu": 415,
  "\u2581nas": 416,
  "\u2581gdy": 417,
  "\u2581by\u0142o": 418,
  "\u2581bo": 419,
  "\u2581przed": 420,
  "\u2581tej": 421,
  "\u2581re": 422,
  "\u2581well": 423,
  "\u2581years": 424,
  "I": 425,
  "\u2581information": 426,
  "\u2581ni\u017c": 427,
  "dy": 428,
  "\u2581tam": 429,
  "M": 430,
  "\u2581nale\u017cy": 431,
  "\u2581e": 432,
  "\u25817": 433,
  "\u2581tych": 434,
  "\u2581roku": 435,
  "\u2581gra": 436,
  "owi": 437,
  "\u2581tell": 438,
  "\u2581[": 439,
  "\u2581said": 440,
  "\u2581system": 441,
  "ia": 442,
  "f": 443,
  "\u015b\u0107": 444,
  "\u2581something": 445,
  "\u2581Yes": 446,
  "wo": 447,
  "\u2581te\u017c": 448,
  "an": 449,
  "\u2581On": 450,
  "\u2581Je\u015bli": 451,
  "\u2581Przy": 452,
  "cz": 453,
  "\u017c": 454,
  "\u2581Ta": 455,
  "uje": 456,
  "\u2581Council": 457,
  "wa": 458,
  ",\"": 459,
  "\u2581Bo": 460,
  "po": 461,
  "]": 462,
  "\u2581made": 463,
  "\u2581Jest": 464,
  "\u2581teraz": 465,
  "za": 466,
  "\u2581mog\u0105": 467,
  "\u2581day": 468,
  "\u2581tak\u017ce": 469,
  "\u2581after": 470,
  "\u2581help": 471,
  "da": 472,
  "sza": 473,
  "\u2581too": 474,
  "\u2581Why": 475,
  "dzie": 476,
  "ma": 477,
  "k\u0119": 478,
  "H": 479,
  "je": 480,
  "\u2581&": 481,
  "\u2581lat": 482,
  "la": 483,
  "\u2581kt\u00f3rych": 484,
  "\u2581mo\u017cna": 485,
  "\u2581zgodnie": 486,
  "\u2581jestem": 487,
  "\u2581gu": 488,
  "\u258120": 489,
  "owa\u0107": 490,
  "2": 491,
  "\u2581sprawie": 492,
  "\u2581life": 493,
  "\u2581EU": 494,
  "\u2581before": 495,
  "\u2581love": 496,
  "\u2581j\u0105": 497,
  "\u2581d": 498,
  "\u2581k": 499,
  "\u2581used": 500,
  "\u2581mean": 501,
  "\u2581even": 502,
  "\u2581rozporz\u0105dzenia": 503,
  "\u2581because": 504,
  "\u2581off": 505,
  "\u25818": 506,
  "\u2581\u017ceby": 507,
  "T": 508,
  "at": 509,
  "ar": 510,
  "um": 511,
  "\u2581Komisji": 512,
  "\u2581am": 513,
  "do": 514,
  "\u2581jeste\u015b": 515,
  "uj\u0119": 516,
  "\u2581little": 517,
  "\u2581wszystko": 518,
  "mu": 519,
  "\u2581przypadku": 520,
  "3": 521,
  "\u2581never": 522,
  "\u2581Union": 523,
  "\u2581between": 524,
  "\u258115": 525,
  "bi": 526,
  "O": 527,
  "\u2581jeszcze": 528,
  "\u2581let": 529,
  "\u2581mu": 530,
  "N": 531,
  "us": 532,
  "uck": 533,
  "\u2581...": 534,
  "\u2581kiedy": 535,
  "\u2581same": 536,
  "\u2581roz": 537,
  "\u2581musi": 538,
  "\u258112": 539,
  "\u2581much": 540,
  "\u2581look": 541,
  "\u2581Thank": 542,
  "\u2581find": 543,
  "\u2581wi\u0119cej": 544,
  "ment": 545,
  "\u2581Re": 546,
  "\u2581Mam": 547,
  "\u2581gdzie": 548,
  "st": 549,
  "\u2581wszystkich": 550,
  "one": 551,
  "\u2581through": 552,
  "\u2581Come": 553,
  "\u2581De": 554,
  "\u2581most": 555,
  "is": 556,
  "et": 557,
  "ro": 558,
  "zy": 559,
  "te": 560,
  "\u2581ciebie": 561,
  "\u2581Don": 562,
  "\u2581file": 563,
  "\u2581Let": 564,
  "n\u0105": 565,
  "G": 566,
  "\u2581spos\u00f3b": 567,
  "gi": 568,
  "ers": 569,
  "\u2581Jeste\u015b": 570,
  "\u2581Mr": 571,
  "cy": 572,
  "bra": 573,
  "\u2581place": 574,
  "od": 575,
  "\u2581free": 576,
  "ic": 577,
  "\u2581robi": 578,
  "owych": 579,
  "\u2581Mi": 580,
  "\u2581by\u0142a": 581,
  "\u258130": 582,
  "\u2581doing": 583,
  "\u2581Mo\u017ce": 584,
  "el": 585,
  "\u2581following": 586,
  "\u2581still": 587,
  "de": 588,
  "\u2581set": 589,
  "x": 590,
  "lo": 591,
  "il": 592,
  "\u25819": 593,
  "\u2581thing": 594,
  "\u2581nad": 595,
  "\u2581dobrze": 596,
  "\u258119": 597,
  "prawd\u0119": 598,
  "\u2581products": 599,
  "F": 600,
  "\u2581da": 601,
  "\u2581nam": 602,
  "\u017a": 603,
  "\u2581last": 604,
  "\u2581innych": 605,
  "\u2581mog\u0119": 606,
  "\u2581wi\u0119c": 607,
  "L": 608,
  "\u2581give": 609,
  "\u2581part": 610,
  "\u2581why": 611,
  "\u2581tutaj": 612,
  "\u2581Now": 613,
  "\u2581Where": 614,
  "man": 615,
  "\u2581long": 616,
  "si": 617,
  "\u2581year": 618,
  "\u2581\u017cycie": 619,
  "\u2581world": 620,
  "\u258118": 621,
  "\u2581Rady": 622,
  "ga": 623,
  "\u2581case": 624,
  "R": 625,
  "\u2581pracy": 626,
  "pra": 627,
  "\u2581Community": 628,
  "ys": 629,
  "\u2581As": 630,
  "\u25811.": 631,
  "\u2581Is": 632,
  "\u2581Ro": 633,
  "\u2581Artyku\u0142": 634,
  "\u2581Musi": 635,
  "dzi": 636,
  "\u2581being": 637,
  "\u2581Jestem": 638,
  "ol": 639,
  "\u2581market": 640,
  "ra": 641,
  "\u2581Ko": 642,
  "\u2581night": 643,
  "\u2581Da": 644,
  "\u2581pani": 645,
  "\u2581hotel": 646,
  "ur": 647,
  "\u25810": 648,
  "amp": 649,
  "\u2581mi\u0119dzy": 650,
  "\u2581State": 651,
  "up": 652,
  "\u2581name": 653,
  "\u2581again": 654,
  "im": 655,
  "\u2581Komisja": 656,
  "\u2581Just": 657,
  "\u2581kt\u00f3ra": 658,
  "\u2581Your": 659,
  "\u2581May": 660,
  "\u2581order": 661,
  "ba": 662,
  "\u2581Directive": 663,
  "\u2581data": 664,
  "\u2581UE": 665,
  "\u2581many": 666,
  "\u2581without": 667,
  "wi": 668,
  "\u2581masz": 669,
  "\u2581own": 670,
  "\u2581Who": 671,
  "ska": 672,
  "\u2581t": 673,
  "ad": 674,
  "\u2581Look": 675,
  "\u2581measures": 676,
  "ant": 677,
  "\u2581nic": 678,
  "\u2581home": 679,
  "\u2581dzieci": 680,
  "\u2581wszystkie": 681,
  "sta": 682,
  "\u2581zakresie": 683,
  "\u2581problem": 684,
  "\u2581within": 685,
  "\u2581every": 686,
  "\u2581each": 687,
  "\u2581An": 688,
  "raz": 689,
  "\u2581Unii": 690,
  "\u2581Not": 691,
  "\u017ce": 692,
  "\u2581domu": 693,
  "\u2581number": 694,
  "un": 695,
  "\u2581sure": 696,
  "\u2581better": 697,
  "czy": 698,
  "nych": 699,
  "\u2581Prosz\u0119": 700,
  "\u2581My\u015bl": 701,
  "\u258111": 702,
  "\u2581nim": 703,
  "\u2581czas": 704,
  "\u2581things": 705,
  "\u2581When": 706,
  "wie": 707,
  "\u2581nawet": 708,
  "\u2581ludzi": 709,
  "J": 710,
  "ler": 711,
  "ton": 712,
  "\u2581three": 713,
  "\u2581Dr": 714,
  "\u2581call": 715,
  "\u2581accordance": 716,
  "tu": 717,
  "co": 718,
  "the": 719,
  "\u2581pi": 720,
  "\u2581Sp": 721,
  "\u2581put": 722,
  "\u2581sorry": 723,
  "\u2581away": 724,
  "rze": 725,
  "ter": 726,
  "\u2581pa\u0144stwa": 727,
  "\u2581around": 728,
  "\u2581Mar": 729,
  "\u2581great": 730,
  "ak": 731,
  "\u015bmy": 732,
  "ona": 733,
  "\u2581Annex": 734,
  "\u2581Ho": 735,
  "a\u0142em": 736,
  "wy": 737,
  "est": 738,
  "\u2581anything": 739,
  "\u2581Al": 740,
  "\u2581games": 741,
  "\u2581thought": 742,
  "\u2581Are": 743,
  "\u258113": 744,
  "\u258116": 745,
  "\u2581per": 746,
  "\u2581both": 747,
  "\u2581zrobi\u0107": 748,
  "\u2581mamy": 749,
  "id": 750,
  "\u2581talk": 751,
  "\u2581point": 752,
  "\u2581m\u00f3j": 753,
  "bo": 754,
  "\u2581particular": 755,
  "\u2581pomocy": 756,
  "1": 757,
  "\u2581Can": 758,
  "plik": 759,
  "\u2581another": 760,
  "nik": 761,
  "\u2581porz\u0105dku": 762,
  "\u2581Dlaczego": 763,
  "\u2581car": 764,
  "\u258117": 765,
  "\u2581*": 766,
  "\u2581found": 767,
  "\u2581nich": 768,
  "\u2581best": 769,
  "\u2581maj\u0105": 770,
  "\u2581mg": 771,
  "\u2581odniesieniu": 772,
  "\u2581l": 773,
  "\u2581lot": 774,
  "di": 775,
  "\u015bci": 776,
  "ck": 777,
  "\u2581dotycz\u0105ce": 778,
  "\u2581m\u00f3wi": 779,
  "ony": 780,
  "ja": 781,
  "\u2581times": 782,
  "\u2581kt\u00f3rym": 783,
  "\u2581II": 784,
  "\u2581informacji": 785,
  "\u258114": 786,
  "\u2581area": 787,
  "owego": 788,
  "os": 789,
  "pa": 790,
  "tel": 791,
  "\u2581kt\u00f3rzy": 792,
  "\u2581ramach": 793,
  "\u2581Te": 794,
  "\u2581services": 795,
  "\u2581means": 796,
  "a\u0142": 797,
  "\u2581EUR": 798,
  "\u2581always": 799,
  "\u2581h": 800,
  "\u2581mia\u0142": 801,
  "\u2581czasu": 802,
  "\u2581im": 803,
  "\u2581available": 804,
  "owej": 805,
  "Y": 806,
  "pi": 807,
  "\u2581danych": 808,
  "\u2581play": 809,
  "son": 810,
  "\u2581Ty": 811,
  "\u2581THE": 812,
  "\u266a": 813,
  "ke": 814,
  "a\u0107": 815,
  "as": 816,
  "\u2581high": 817,
  "acja": 818,
  "\u2581provided": 819,
  "ation": 820,
  "\u2581Dobrze": 821,
  "\u2581takie": 822,
  "\u2581told": 823,
  "\u258125": 824,
  "\u2581chcesz": 825,
  "\u2581jednak": 826,
  "\u2581temu": 827,
  "\u2581Car": 828,
  "szy": 829,
  "\u2581Jo": 830,
  "\u2581un": 831,
  "\u2581produkt\u00f3w": 832,
  "\u2581end": 833,
  "\u2581La": 834,
  "k\u0105": 835,
  "ian": 836,
  "\u2581przedsi\u0119biorstw": 837,
  "k\u00f3w": 838,
  "\u2581national": 839,
  "\u2581Or": 840,
  "\u2581kind": 841,
  "\u2581Dz": 842,
  "\u2581provide": 843,
  "owanie": 844,
  "\u2581Europejskiej": 845,
  "o\u015b\u0107": 846,
  "\u2581Le": 847,
  "\u2581product": 848,
  "\u2581level": 849,
  "\u2581albo": 850,
  "\u2581countries": 851,
  "Z": 852,
  "\u258124": 853,
  "\u2581Be": 854,
  "\u00f3": 855,
  "able": 856,
  "uj": 857,
  "\u2581Pa": 858,
  "rz": 859,
  "\u2581application": 860,
  "and": 861,
  "\u2581\u015brodk\u00f3w": 862,
  "\u2581might": 863,
  "\u2581money": 864,
  "\u2581rzecz": 865,
  "\u2581referred": 866,
  "\u2581regard": 867,
  "dz": 868,
  "zi": 869,
  "\u2581mo\u017cesz": 870,
  "\u2581Good": 871,
  "\u2581including": 872,
  "\u2581days": 873,
  "\u2581conditions": 874,
  "\u2581chodzi": 875,
  "\u2581plan": 876,
  "\u2581Su": 877,
  "sko": 878,
  "\u2581during": 879,
  "v": 880,
  "\u2581fa": 881,
  "\u2581public": 882,
  "\u2581Gdzie": 883,
  "\u2581Mo": 884,
  "\u2581powiedzie\u0107": 885,
  "ier": 886,
  "we": 887,
  "10": 888,
  "\u2581different": 889,
  "\u2581rynku": 890,
  "=": 891,
  "ps": 892,
  "\u2581wiele": 893,
  "\u2581b\u0119d\u0105": 894,
  "\u2581old": 895,
  "\u2581ona": 896,
  "\u2581period": 897,
  "\u2581open": 898,
  "\u2581Pro": 899,
  "\u2581powiedzia\u0142": 900,
  "\u2581believe": 901,
  "\u2581important": 902,
  "\u25812.": 903,
  "\u2581course": 904,
  "\u2581sp": 905,
  "\u2581bardziej": 906,
  "\u2581keep": 907,
  "\u2581ever": 908,
  "\u2581Kto": 909,
  "ho": 910,
  "\u2581please": 911,
  "ul": 912,
  "ow\u0105": 913,
  "\u2581raz": 914,
  "ion": 915,
  "ity": 916,
  "\u2581won": 917,
  "zu": 918,
  "\u2581strony": 919,
  "\u258121": 920,
  "\u2581ki": 921,
  "\u2581os\u00f3b": 922,
  "\u2581New": 923,
  "\u2581mo": 924,
  "ok": 925,
  "\u2581Kiedy": 926,
  "\u2581prostu": 927,
  "\u2581Nic": 928,
  "\u2581gry": 929,
  "\u00f3j": 930,
  "\u2581Get": 931,
  "\u2581By": 932,
  "\u2581financial": 933,
  "\u2581chc\u0119": 934,
  "\u2581person": 935,
  "\u2581Did": 936,
  "\u2581done": 937,
  "\u2581swoje": 938,
  "\u2581feel": 939,
  "\u2581kto": 940,
  "\u2581family": 941,
  "\u2581razy": 942,
  "ski": 943,
  "\u2581podczas": 944,
  "\u2581Europe": 945,
  "\u2581#": 946,
  "\u2581house": 947,
  "\u2581already": 948,
  "\u2581prawda": 949,
  "\u2581zosta\u0142": 950,
  "nym": 951,
  "tor": 952,
  "\u2581zosta\u0107": 953,
  "ha": 954,
  "\u2581temat": 955,
  "\u2581while": 956,
  "\u2581care": 957,
  "\u2581str": 958,
  "\u2581support": 959,
  "\u2581miejsce": 960,
  "\u2581against": 961,
  "\u2581kocha": 962,
  "j\u0119": 963,
  "\u2581Dzi\u0119k": 964,
  "\u2581podstawie": 965,
  "der": 966,
  "o\u015bci": 967,
  "\u2581Decision": 968,
  "\u2581100": 969,
  "iz": 970,
  "\u2581Je": 971,
  "\u2581razem": 972,
  "ard": 973,
  "\u2581necessary": 974,
  "\u2581star": 975,
  "niu": 976,
  "\u2581together": 977,
  "ner": 978,
  "\u2581zawsze": 979,
  "\u2581business": 980,
  "\u2581dzia\u0142ania": 981,
  "\u2581my\u015bli": 982,
  "per": 983,
  "\u2581big": 984,
  "X": 985,
  "body": 986,
  "\u2581informacje": 987,
  "\u2581n": 988,
  "lu": 989,
  "\u2581Dzi\u0119kuj\u0119": 990,
  "\u2581room": 991,
  "\u258122": 992,
  "\u2581possible": 993,
  "\u258150": 994,
  "\u2581Ka": 995,
  "\u2581wiesz": 996,
  "\u2581related": 997,
  "\u2581mie\u0107": 998,
  "\u2581t\u0119": 999,
  "\u2581nothing": 1000,
  "\u2581ani": 1001,
  "\u2581rules": 1002,
  "\u2581water": 1003,
  "\u2581left": 1004,
  "\u2581everything": 1005,
  "cze": 1006,
  "\u2581inne": 1007,
  "\u2581ka": 1008,
  "\u2581Y": 1009,
  "ist": 1010,
  "\u2581kt\u00f3rej": 1011,
  "\u2581girl": 1012,
  "\u2581dni": 1013,
  "\u2581zrobi": 1014,
  "i\u0107": 1015,
  "fer": 1016,
  "\u2581program": 1017,
  "ator": 1018,
  "\u2581today": 1019,
  "ary": 1020,
  "enia": 1021,
  "\u2581Parliament": 1022,
  "\u258131": 1023,
  "ine": 1024,
  "\u2581Ha": 1025,
  "\u2581show": 1026,
  "ow": 1027,
  "\u2581account": 1028,
  "\u2581zrobi\u0142": 1029,
  "\u2581ko": 1030,
  "\u2581came": 1031,
  "\u25812005": 1032,
  "\u2581Bez": 1033,
  "\u2581next": 1034,
  "\u2581ob": 1035,
  "ang": 1036,
  "\u2581second": 1037,
  "\u2581Ten": 1038,
  "\u2581cz\u0142onkowskie": 1039,
  "\u2581szczeg\u00f3lno\u015bci": 1040,
  "\u2581pa\u0144stw": 1041,
  "\u2581(1)": 1042,
  "\u2581czym": 1043,
  "mo": 1044,
  "\u2581Then": 1045,
  "\u2581Cz": 1046,
  "\u2581jeden": 1047,
  "\u2581Please": 1048,
  "\u2581rzeczy": 1049,
  "\u2581taken": 1050,
  "ex": 1051,
  "\u2581nigdy": 1052,
  "\u2581Ex": 1053,
  "\u2581dziewczyn": 1054,
  "The": 1055,
  "\u25812006": 1056,
  "\u2581siebie": 1057,
  "\u2581chce": 1058,
  "ill": 1059,
  "\u2581At": 1060,
  "\u2581takich": 1061,
  "\u2581niego": 1062,
  "\u2581country": 1063,
  "\u2581by\u0142y": 1064,
  "\u2581dotycz\u0105cych": 1065,
  "\u2581lit": 1066,
  "\u2581development": 1067,
  "\u2581ago": 1068,
  "\u2581cz\u0119\u015bci": 1069,
  "\u2581since": 1070,
  "\u2581hand": 1071,
  "\u2581dyrektywy": 1072,
  "\u25812009": 1073,
  "\u2581zwi\u0105zanych": 1074,
  "\u2581control": 1075,
  "\u2581non": 1076,
  "pl": 1077,
  "\u2581report": 1078,
  "\u2581certain": 1079,
  "\u2581start": 1080,
  "lan": 1081,
  "\u2581Committee": 1082,
  "sh": 1083,
  "\u2581whole": 1084,
  "\u2581change": 1085,
  "\u2581children": 1086,
  "owym": 1087,
  "nego": 1088,
  "\u2581aid": 1089,
  "\u2581Kon": 1090,
  "00": 1091,
  "\u2581\u017cycia": 1092,
  "\u2581pro": 1093,
  "\u2581troch\u0119": 1094,
  "\u2581One": 1095,
  "\u2581Sam": 1096,
  "\u2581Ci": 1097,
  "zna": 1098,
  "\u2581stanie": 1099,
  "\u2581called": 1100,
  "ies": 1101,
  "4": 1102,
  "\u2581service": 1103,
  "art": 1104,
  "\u2581least": 1105,
  "ung": 1106,
  "ster": 1107,
  "\u2581wrong": 1108,
  "\u2581form": 1109,
  "\u2581decyzji": 1110,
  "\u2581Ra": 1111,
  "\u2581powinien": 1112,
  "\u2581wanted": 1113,
  "\u2581stop": 1114,
  "\u2581bit": 1115,
  "\u25812010": 1116,
  "\u2581la": 1117,
  "\u2581men": 1118,
  "\u2581authorities": 1119,
  "\u2581until": 1120,
  "\u2581body": 1121,
  "\u2581moje": 1122,
  "\u2581Pan": 1123,
  "enie": 1124,
  "ick": 1125,
  "\u2581dwa": 1126,
  "\u25811,": 1127,
  "V": 1128,
  "\u2581rozporz\u0105dzenie": 1129,
  "\u2581praw": 1130,
  "ut": 1131,
  "\u2581sz": 1132,
  "\u25812004": 1133,
  "ujemy": 1134,
  "\u2581coming": 1135,
  "\u2581try": 1136,
  "\u2581film": 1137,
  "\u2581miejsca": 1138,
  "\u2581working": 1139,
  "\u2581+": 1140,
  "owania": 1141,
  "sa": 1142,
  "\u2581third": 1143,
  "\u25812012": 1144,
  "\u2581Pod": 1145,
  "tw\u00f3r": 1146,
  "oba": 1147,
  "\u2581ensure": 1148,
  "a\u0142am": 1149,
  "\u2581Teraz": 1150,
  "\u25812011": 1151,
  "\u2581twoje": 1152,
  "\u2581leave": 1153,
  "\u2581Sz": 1154,
  "ate": 1155,
  "\u2581list": 1156,
  "\u2581type": 1157,
  "EU": 1158,
  "\u2581kt\u00f3rego": 1159,
  "\u2581date": 1160,
  "\u2581having": 1161,
  "\u2581M\u00f3wi": 1162,
  "age": 1163,
  "ive": 1164,
  "\u0142u": 1165,
  "\u2581company": 1166,
  "gu": 1167,
  "\u258123": 1168,
  "\u2581months": 1169,
  "\u2581view": 1170,
  "\u2581sta\u0142o": 1171,
  "sze": 1172,
  "\u2581bad": 1173,
  "\u2581poniewa\u017c": 1174,
  "zie": 1175,
  "\u25812013": 1176,
  "\u2581Gra": 1177,
  "\u2581happened": 1178,
  "\u2581using": 1179,
  "\u2581w\u0142a\u015bnie": 1180,
  "\u2581understand": 1181,
  "ent": 1182,
  "\u2581John": 1183,
  "\u2581prawa": 1184,
  "\u015bcie": 1185,
  "ish": 1186,
  "era": 1187,
  "cza": 1188,
  "\u2581mo\u017cemy": 1189,
  "\u2581Har": 1190,
  "ver": 1191,
  "\u2581ask": 1192,
  "\u2581ku": 1193,
  "\u2581kilka": 1194,
  "\u2581live": 1195,
  "lay": 1196,
  "kolwiek": 1197,
  "\u2581someone": 1198,
  "\u2581Mog": 1199,
  "\u2581wygl\u0105da": 1200,
  "anie": 1201,
  "\u2581Je\u017celi": 1202,
  "\u2581us\u0142ug": 1203,
  "\u2581samo": 1204,
  "\u2581hear": 1205,
  "\u2581enough": 1206,
  "isz": 1207,
  "\u2581di": 1208,
  "\u2581cz\u0142onkowskich": 1209,
  "\u2581blood": 1210,
  "\u2581given": 1211,
  "\u2581stosowania": 1212,
  "\u2581systemu": 1213,
  "\u2581looking": 1214,
  "\u2581mowa": 1215,
  "\u2581stay": 1216,
  "\u2581Tu": 1217,
  "\u2581law": 1218,
  "\u2581Add": 1219,
  "\u2581warto\u015bci": 1220,
  "\u2581price": 1221,
  "\u2581based": 1222,
  "\u2581tob\u0105": 1223,
  "\u2581job": 1224,
  "\u2581sh": 1225,
  "\u25813.": 1226,
  "\u25814.": 1227,
  "\u2581du": 1228,
  "\u2581paragraph": 1229,
  "\u2581v": 1230,
  "ita": 1231,
  "\u2581Europejskiego": 1232,
  "\u2581human": 1233,
  "\u2581taking": 1234,
  "\u2581dead": 1235,
  "\u2581ye": 1236,
  "\u2581took": 1237,
  "kiem": 1238,
  "\u2581X": 1239,
  "\u2581Jesus": 1240,
  "\u2581Bo\u017ce": 1241,
  "owo": 1242,
  "gra": 1243,
  "wan": 1244,
  "\u2581test": 1245,
  "\u2581patients": 1246,
  "robi": 1247,
  "all": 1248,
  "\u25812008": 1249,
  "\u2581hell": 1250,
  "\u2581Here": 1251,
  "\u2581requirements": 1252,
  "j\u0105c": 1253,
  "UE": 1254,
  "\u2581ochrony": 1255,
  "\u2581mn\u0105": 1256,
  "ina": 1257,
  "\u2581policy": 1258,
  "asz": 1259,
  "pe": 1260,
  "\u2581appropriate": 1261,
  "\u2581risk": 1262,
  "\u2581common": 1263,
  "\u2581full": 1264,
  "\u2581basis": 1265,
  "\u2581trying": 1266,
  "\u2581Hi": 1267,
  "\u25812007": 1268,
  "sy": 1269,
  "ot": 1270,
  "\u2581mind": 1271,
  "\u2581poprzez": 1272,
  "\u2581special": 1273,
  "\u2581km": 1274,
  "\u2581Se": 1275,
  "\u2581b\u0119d\u0119": 1276,
  "\u2581dalej": 1277,
  "\u2581ludzie": 1278,
  "\u2581else": 1279,
  "\u2581school": 1280,
  "\u2581father": 1281,
  "\u2581With": 1282,
  "\u2581few": 1283,
  "\u2581talking": 1284,
  "\u2581hard": 1285,
  "\u2581dr": 1286,
  "\u2581produktu": 1287,
  "\u2581Tylko": 1288,
  "cia": 1289,
  "\u2581Wszystko": 1290,
  "\u2581prosz\u0119": 1291,
  "pie": 1292,
  "\u2581power": 1293,
  "va": 1294,
  "ran": 1295,
  "part": 1296,
  "fa": 1297,
  "\u2581OF": 1298,
  "\u2581went": 1299,
  "\u2581Musz": 1300,
  "\u2581kill": 1301,
  "\u2581sam": 1302,
  "\u2581.\"": 1303,
  "\u2581interest": 1304,
  "\u2581therefore": 1305,
  "\u258127": 1306,
  "\u2581Me": 1307,
  "\u2581fine": 1308,
  "ob": 1309,
  "\u2581Some": 1310,
  "kon": 1311,
  "\u2581met": 1312,
  "\u258128": 1313,
  "\u2581dane": 1314,
  "uh": 1315,
  "\u2581czasie": 1316,
  "\u2581head": 1317,
  "\u2581czego": 1318,
  "\u017cy": 1319,
  "\u2581si": 1320,
  "sk": 1321,
  "\u2581production": 1322,
  "\u2581getting": 1323,
  "\u2581uwzgl\u0119dniaj\u0105c": 1324,
  "\u2581zosta\u0142y": 1325,
  "me": 1326,
  "\u2581mother": 1327,
  "\u2581energy": 1328,
  "\u2581Man": 1329,
  "\u2581See": 1330,
  "\u2581\u015brodki": 1331,
  "EEC": 1332,
  "\u2581These": 1333,
  "\u2581yet": 1334,
  "\u2581Home": 1335,
  "ts": 1336,
  "\u2581Bar": 1337,
  "\u2581Str": 1338,
  "ana": 1339,
  "\u2581heart": 1340,
  "\u2581pre": 1341,
  "\u2581game": 1342,
  "\u2581access": 1343,
  "\u2581zwi\u0105zku": 1344,
  "\u2581kto\u015b": 1345,
  "\u2581dzia\u0142a\u0144": 1346,
  "\u2581Roz": 1347,
  "\u2581economic": 1348,
  "com": 1349,
  "\u2581moim": 1350,
  "\u2581able": 1351,
  "\u2581provisions": 1352,
  "EWG": 1353,
  "owa\u0142": 1354,
  "ling": 1355,
  "\u2581(2)": 1356,
  "\u2581Twoj": 1357,
  "\u2581Pa\u0144stwa": 1358,
  "ii": 1359,
  "op": 1360,
  "ell": 1361,
  "min": 1362,
  "\u2581mm": 1363,
  "\u2581bezpiecze\u0144stwa": 1364,
  "\u2581meet": 1365,
  "\u2581pana": 1366,
  "\u2581social": 1367,
  "ri": 1368,
  "\u2581Because": 1369,
  "by\u015b": 1370,
  "rzy": 1371,
  "ks": 1372,
  "land": 1373,
  "\u2581Ba": 1374,
  "\u2581pliku": 1375,
  "\u2581transport": 1376,
  "\u2581question": 1377,
  "si\u0119": 1378,
  "ap": 1379,
  "\u2581seen": 1380,
  "\u258129": 1381,
  "n\u0119": 1382,
  "\u2581concerned": 1383,
  "\u2581St": 1384,
  "\u2581idea": 1385,
  "\u2581wait": 1386,
  "\u2581Pe": 1387,
  "pt": 1388,
  "\u2581friend": 1389,
  "\u2581bring": 1390,
  "\u2581Of": 1391,
  "\u2581son": 1392,
  "ud": 1393,
  "\u2581specific": 1394,
  "\u2581force": 1395,
  "owany": 1396,
  "\u2581quality": 1397,
  "\u2581saw": 1398,
  "\u2581Ju\u017c": 1399,
  "\u2581protection": 1400,
  "czek": 1401,
  "ujesz": 1402,
  "ley": 1403,
  "\u258126": 1404,
  "\u2581close": 1405,
  "\u2581taki": 1406,
  "\u2581Ob": 1407,
  "\u2581matter": 1408,
  "\u2581Gu": 1409,
  "\u2581pacjent\u00f3w": 1410,
  "\u2581wielu": 1411,
  "\u2022": 1412,
  "\u2581Bu": 1413,
  "\u25812015": 1414,
  "\u2581Lo": 1415,
  "\u258140": 1416,
  "\u2581Ca": 1417,
  "\u2581light": 1418,
  "\u2581oznacza": 1419,
  "\u2581powinna": 1420,
  "\u2581Con": 1421,
  "\u2581Chc\u0119": 1422,
  "\u2581food": 1423,
  "\u2581less": 1424,
  "\u2581bar": 1425,
  "ren": 1426,
  "ning": 1427,
  "\u2581Dan": 1428,
  "\u2581side": 1429,
  "\u2581Any": 1430,
  "\u2581remember": 1431,
  "\u2581dzi\u0119ki": 1432,
  "\u2581needs": 1433,
  "\u2581powinny": 1434,
  "\u2581zosta\u0142a": 1435,
  "io": 1436,
  "\u2581niej": 1437,
  "bierz": 1438,
  "\u2581yourself": 1439,
  "tra": 1440,
  "\u2581je\u017celi": 1441,
  "dow": 1442,
  "\u2581jeste\u015bmy": 1443,
  "\u2581x": 1444,
  "\u2581respect": 1445,
  "ible": 1446,
  "\u2581En": 1447,
  "\u2581niniejszego": 1448,
  "\u2581=": 1449,
  "\u2581pomoc": 1450,
  "\u2581Our": 1451,
  "\u2581dzie\u0144": 1452,
  "less": 1453,
  "\u2581once": 1454,
  "\u2581chcia\u0142": 1455,
  "\u2581moja": 1456,
  "\u2581city": 1457,
  "z\u0119": 1458,
  "\u2581minut": 1459,
  "\u2581Having": 1460,
  "\u2581value": 1461,
  "\u2581Treaty": 1462,
  "\u2581map": 1463,
  "\u2581ni\u0105": 1464,
  "\u2581million": 1465,
  "ania": 1466,
  "\u2581zostanie": 1467,
  "\u2581stronie": 1468,
  "\u2581apply": 1469,
  "\u2581Star": 1470,
  "Po": 1471,
  "ka\u017c": 1472,
  "\u2581check": 1473,
  "\u2581zmiany": 1474,
  "Nie": 1475,
  "end": 1476,
  "\u2581lu": 1477,
  "actually": 1478,
  "\u2581air": 1479,
  "\u2581Poland": 1480,
  "\u2581far": 1481,
  "*": 1482,
  "\u2581le": 1483,
  "\u2581wszystkim": 1484,
  "nej": 1485,
  "\u2581decision": 1486,
  "\u2581Win": 1487,
  "\u2581boy": 1488,
  "\u2581Sta": 1489,
  "\u2581euro": 1490,
  "\u2581activities": 1491,
  "\u2581run": 1492,
  "\u2581Dla": 1493,
  "\u2581treatment": 1494,
  "\u2581small": 1495,
  "\u2581security": 1496,
  "\u2581TV": 1497,
  "he": 1498,
  "\u25812014": 1499,
  "ber": 1500,
  "\u2581fact": 1501,
  "\u2581subject": 1502,
  "\u2581cel\u00f3w": 1503,
  "\u2581mocy": 1504,
  "\u2581lata": 1505,
  "emu": 1506,
  "\u2581sound": 1507,
  "men": 1508,
  "\u2581fun": 1509,
  "uj\u0105": 1510,
  "\u2581swoj\u0105": 1511,
  "\u2581December": 1512,
  "\u2581further": 1513,
  "\u2581line": 1514,
  "m\u00f3c": 1515,
  "\u2581tw\u00f3j": 1516,
  "ph": 1517,
  "\u2581Pi": 1518,
  "\u2581przyk\u0142ad": 1519,
  "\u2581wtedy": 1520,
  "\u2581played": 1521,
  "\u2581cz\u0119\u015b\u0107": 1522,
  "\u2581Right": 1523,
  "mail": 1524,
  "\u2581Chyba": 1525,
  "\u2581miejscu": 1526,
  "\u2581Widzi": 1527,
  "\u2581noc": 1528,
  "\u2581programu": 1529,
  "my\u015bl": 1530,
  "\u2581nice": 1531,
  "\u2581However": 1532,
  "bie": 1533,
  "ness": 1534,
  "\u2581my\u015bl": 1535,
  "\u2581trzy": 1536,
  "\u2581Vi": 1537,
  "\u2581par": 1538,
  "\u2581later": 1539,
  "\u2581moment": 1540,
  "pro": 1541,
  "se": 1542,
  "\u2581phone": 1543,
  "\u2581rozwoju": 1544,
  "\u2581mia\u0142a": 1545,
  "\u2581pkt": 1546,
  "\u2581dniu": 1547,
  "\u2581group": 1548,
  "ali": 1549,
  "daj": 1550,
  "\u2581ex": 1551,
  "rad": 1552,
  "kr": 1553,
  "owane": 1554,
  "\u2581hours": 1555,
  "\u2581Hotel": 1556,
  "ure": 1557,
  "\u2581produkcji": 1558,
  "\u2581ds": 1559,
  "strze": 1560,
  "\u2581By\u0142": 1561,
  "\u2581b\u0119dziesz": 1562,
  "\u2581kontroli": 1563,
  "\u2581Pre": 1564,
  "mm": 1565,
  "\u2581dw\u00f3ch": 1566,
  "\u2581uwag\u0119": 1567,
  "\u2581heard": 1568,
  "ello": 1569,
  "\u2581above": 1570,
  "mar": 1571,
  "\u2581whether": 1572,
  "ker": 1573,
  "con": 1574,
  "\u2581\u015awi": 1575,
  "\u2581dlaczego": 1576,
  "\u25812003": 1577,
  "\u2581Ju": 1578,
  "\u2581making": 1579,
  "\u2581swoich": 1580,
  "\u2581ka\u017cdego": 1581,
  "\u2581wszyscy": 1582,
  "\u2581wam": 1583,
  "\u25812,": 1584,
  "mer": 1585,
  "\u2581Wa": 1586,
  "esz": 1587,
  "ec": 1588,
  "\u2581amount": 1589,
  "\u2581says": 1590,
  "vah": 1591,
  "\u2581widzia\u0142": 1592,
  "\u2581present": 1593,
  "\u2581woman": 1594,
  "\u2581minutes": 1595,
  "s\u0142uch": 1596,
  "ous": 1597,
  "\u2581ci\u0105gu": 1598,
  "\u2581\u015b": 1599,
  "acji": 1600,
  "\u2581management": 1601,
  "\u2581takiego": 1602,
  "ite": 1603,
  "tic": 1604,
  "ED": 1605,
  "bit": 1606,
  "\u2581saying": 1607,
  "\u2581jako\u015bci": 1608,
  "\u2581\u017b": 1609,
  "owie": 1610,
  "\u2581United": 1611,
  "les": 1612,
  "\u2581young": 1613,
  "nic": 1614,
  "\u2581pierwszy": 1615,
  "\u2581III": 1616,
  "\u2581Polish": 1617,
  "line": 1618,
  "\u2581ponad": 1619,
  "\u2581baby": 1620,
  "y\u0107": 1621,
  "\u2581Panie": 1622,
  "ery": 1623,
  "\u2581Nigdy": 1624,
  "\u2581future": 1625,
  "\u2581dzi\u015b": 1626,
  "\u2581hope": 1627,
  "\u2581become": 1628,
  "\u2581Jeho": 1629,
  "\u2581nadal": 1630,
  "\u2581applicable": 1631,
  "\u2581example": 1632,
  "fi": 1633,
  "\u2581Agreement": 1634,
  "\u2581cannot": 1635,
  "\u2581relevant": 1636,
  "\u2581Kar": 1637,
  "\u2581knew": 1638,
  "\u2581ca\u0142e": 1639,
  "\u2581Parlamentu": 1640,
  "\u2581znale\u017a\u0107": 1641,
  "\u2581general": 1642,
  "\u2581friends": 1643,
  "\u2581process": 1644,
  "\u2581oni": 1645,
  "awi": 1646,
  "\u2581przepis\u00f3w": 1647,
  "\u2581face": 1648,
  "\u2581mojego": 1649,
  "\u2581niekt\u00f3rych": 1650,
  "\u2581July": 1651,
  "for": 1652,
  "\u2581polityki": 1653,
  "\u2581President": 1654,
  "\u2581powodu": 1655,
  "\u2581move": 1656,
  "\u2581poza": 1657,
  "\u2581cz": 1658,
  "\u2581total": 1659,
  "\u2581procedure": 1660,
  "\u2581four": 1661,
  "\u2581health": 1662,
  "\u2581international": 1663,
  "\u2581true": 1664,
  "\u2581costs": 1665,
  "bu": 1666,
  "\u2581Christ": 1667,
  "ane": 1668,
  "ris": 1669,
  "\u2581al": 1670,
  "\u2581Real": 1671,
  "\u2581znaczy": 1672,
  "zek": 1673,
  "\u2581Nale\u017cy": 1674,
  "\u2581sw\u00f3j": 1675,
  ");": 1676,
  "gl\u0105da": 1677,
  "\u2581implementation": 1678,
  "\u2581Have": 1679,
  "\u2581razie": 1680,
  "\u2581rights": 1681,
  "\u2581Ver": 1682,
  "tro": 1683,
  "\u2581s\u0142ownik": 1684,
  "\u2581\u015a": 1685,
  "\u2581st": 1686,
  "\u2581dlatego": 1687,
  "\u2581death": 1688,
  "tan": 1689,
  "\u2581za\u0142\u0105czniku": 1690,
  "\u2581Li": 1691,
  "\u2581Di": 1692,
  "30": 1693,
  "nes": 1694,
  "\u2581either": 1695,
  "ci\u0105\u017c": 1696,
  "\u2581ca\u0142y": 1697,
  "\u2581Boga": 1698,
  "\u2581action": 1699,
  "\u2581ok": 1700,
  "\u2581San": 1701,
  "\u2581zobaczy\u0107": 1702,
  "\u2581Jego": 1703,
  "\u2581lepiej": 1704,
  "\u2581a\u017c": 1705,
  "sty": 1706,
  "ance": 1707,
  "\u2581kt\u00f3r\u0105": 1708,
  "\u2581key": 1709,
  "\u2581Ru": 1710,
  "\u2581El": 1711,
  "\u2581dobry": 1712,
  "dane": 1713,
  "\u2581Jeh": 1714,
  "ada": 1715,
  "\u2581systems": 1716,
  "\u2581typu": 1717,
  "\u2581Un": 1718,
  "night": 1719,
  "ig": 1720,
  "\u2581legal": 1721,
  "su": 1722,
  "\u2581musz\u0105": 1723,
  "\u2581Ni": 1724,
  "ep": 1725,
  "ack": 1726,
  "\u2581telefon": 1727,
  "\u2581Dlatego": 1728,
  "\u2581takim": 1729,
  "\u2581\u015bwiecie": 1730,
  "\u2581Mamy": 1731,
  "\u2581wife": 1732,
  "\u2581cost": 1733,
  "\u2581grudnia": 1734,
  "\u2581makes": 1735,
  "\u2581language": 1736,
  "\u2581situation": 1737,
  "\u2581dzieje": 1738,
  "\u00ea": 1739,
  "ag": 1740,
  "\u2581mojej": 1741,
  "\u2581zbyt": 1742,
  "\u2581five": 1743,
  "\u2581B\u00f3g": 1744,
  "\u2581rok": 1745,
  "yl": 1746,
  "w\u00f3j": 1747,
  "\u2581opinion": 1748,
  "tka": 1749,
  "\u2581chyba": 1750,
  "\u2581panie": 1751,
  "\u2581kim": 1752,
  "\u2581single": 1753,
  "\u2581required": 1754,
  "\u2581znajduje": 1755,
  "\u2581local": 1756,
  "\u2581ready": 1757,
  "\u2581After": 1758,
  "ono": 1759,
  "\u2581du\u017co": 1760,
  "los": 1761,
  "ten": 1762,
  "\u2581energii": 1763,
  "\u2581swoim": 1764,
  "\u2581morning": 1765,
  "\u2581warunki": 1766,
  "wied": 1767,
  "\u2581His": 1768,
  "c\u0105": 1769,
  "\u2581June": 1770,
  "\u2581jednego": 1771,
  "pad": 1772,
  "Dz": 1773,
  "\u2581Powiedzia\u0142": 1774,
  "\u2581OJ": 1775,
  "jcie": 1776,
  "\u2581osoby": 1777,
  "\u2581p\u00f3\u017aniej": 1778,
  "ful": 1779,
  "\u2581die": 1780,
  "\u2581nowych": 1781,
  "\u2581badania": 1782,
  "\u2581killed": 1783,
  "ac": 1784,
  "\u2581trade": 1785,
  "\u2581wiedzie\u0107": 1786,
  "\u2581clear": 1787,
  "\u2581jakie": 1788,
  "lor": 1789,
  "\u2581pay": 1790,
  "\u2581guess": 1791,
  "\u2581Si": 1792,
  "lar": 1793,
  "\u2581Park": 1794,
  "und": 1795,
  "\u2581C\u00f3\u017c": 1796,
  "\u2581prawo": 1797,
  "\u2581centrum": 1798,
  "any": 1799,
  "gar": 1800,
  "\u2581turn": 1801,
  "Q": 1802,
  "li\u015bcie": 1803,
  "\u2581alone": 1804,
  "bli": 1805,
  "\u2581safety": 1806,
  "\u2581jednym": 1807,
  "\u2581extension": 1808,
  "\u2581syn": 1809,
  "\u2581krwi": 1810,
  "\u2581Oczywi\u015bcie": 1811,
  "\u2581samym": 1812,
  "\u2581nasze": 1813,
  "\u2581r\u00f3\u017cnych": 1814,
  "hi": 1815,
  "\u2581read": 1816,
  "\u2581kon": 1817,
  "\u2581Chcia\u0142": 1818,
  "\u2581fire": 1819,
  "\u2581wzgl\u0119du": 1820,
  "so": 1821,
  "5": 1822,
  "mie": 1823,
  "ug": 1824,
  "ru": 1825,
  "\u2581szybko": 1826,
  "unt": 1827,
  "lin": 1828,
  "\u2581spa": 1829,
  "\u2581results": 1830,
  "\u2581established": 1831,
  "\u2581reason": 1832,
  "\u2581cen": 1833,
  "\u2581lecz": 1834,
  "\u2581concerning": 1835,
  "\u2581Ar": 1836,
  "\u2581miasta": 1837,
  "\u2581bada\u0144": 1838,
  "ymi": 1839,
  "\u2581areas": 1840,
  "\u2581mo\u017cliwo\u015bci": 1841,
  "ab": 1842,
  "\u2581Jan": 1843,
  "ss": 1844,
  "\u2581oceny": 1845,
  "\u258160": 1846,
  "lik": 1847,
  "\u2581authority": 1848,
  "wia": 1849,
  "6": 1850,
  "cer": 1851,
  "\u2581jaki": 1852,
  "gan": 1853,
  "\u2581office": 1854,
  "\u2581considered": 1855,
  "iel": 1856,
  "\u2581week": 1857,
  "wa\u0142": 1858,
  "\u2581sytuacji": 1859,
  "\u2581experience": 1860,
  "ste": 1861,
  "wal": 1862,
  "\u2581soon": 1863,
  "\u2581women": 1864,
  "\u2581deal": 1865,
  "res": 1866,
  "ik": 1867,
  "\u2581wsp\u00f3\u0142pracy": 1868,
  "\u2581swojej": 1869,
  "ice": 1870,
  "\u2581spraw": 1871,
  "\u2581sieci": 1872,
  "lub": 1873,
  "\u2581potem": 1874,
  "\u2581Her": 1875,
  "\u2581Mo\u017cesz": 1876,
  "\u2581oferuje": 1877,
  "\u2581pomi\u0119dzy": 1878,
  "cja": 1879,
  "\u2581industry": 1880,
  "In": 1881,
  "\u2581known": 1882,
  "\u2581kobiet": 1883,
  "\u2581moj\u0105": 1884,
  "\u2581lost": 1885,
  "\u2581M\u00f3j": 1886,
  "\u2581prett": 1887,
  "\u2581low": 1888,
  "r\u00f3b": 1889,
  "ger": 1890,
  "\u2581cut": 1891,
  "\u2581programme": 1892,
  "\u2581kraju": 1893,
  "\u2581aktualizacji": 1894,
  "\u2581hu": 1895,
  "\u2581Art": 1896,
  "han": 1897,
  "\u2581zasady": 1898,
  "\u2581project": 1899,
  "\u2581gdyby": 1900,
  "\u2581stanowi": 1901,
  "\u2581cooperation": 1902,
  "\u2581musz\u0119": 1903,
  "\u2581More": 1904,
  "\u2581translated": 1905,
  "\u2581wieku": 1906,
  "\u25812016": 1907,
  "\u2581problems": 1908,
  "ge": 1909,
  "\u2581dzia\u0142alno\u015bci": 1910,
  "kie": 1911,
  "du": 1912,
  "\u2581state": 1913,
  "\u2581town": 1914,
  "\u2581amended": 1915,
  "tek": 1916,
  "\u2581wcze\u015bniej": 1917,
  "\u2581main": 1918,
  "\u2581Pu": 1919,
  "\u2581Ok": 1920,
  "ucha": 1921,
  "\u2581(3)": 1922,
  "\u2581Take": 1923,
  "zw": 1924,
  "AL": 1925,
  "\u2581Air": 1926,
  "\u2581technical": 1927,
  "\u2581miesi\u0119cy": 1928,
  "\u2581naszych": 1929,
  "acje": 1930,
  "\u2581st\u0105d": 1931,
  "\u2581ml": 1932,
  "\u2581adopted": 1933,
  "tal": 1934,
  "war": 1935,
  "\u2581English": 1936,
  "\u2581okresie": 1937,
  "nu": 1938,
  "\u2581pr": 1939,
  "\u2581cho": 1940,
  "\u2581sob\u0105": 1941,
  "\u2581najbardziej": 1942,
  "our": 1943,
  "\u2581Every": 1944,
  "staw": 1945,
  "\u2581Spraw": 1946,
  "50": 1947,
  "\u2581research": 1948,
  "\u2581Am": 1949,
  "\u2581Paul": 1950,
  "ft": 1951,
  "\u2581bi": 1952,
  "\u2581Nasz": 1953,
  "\u2581innymi": 1954,
  "\u2581ka\u017cdym": 1955,
  "gen": 1956,
  "eli": 1957,
  "jmy": 1958,
  "\u2581updates": 1959,
  "\u2581easy": 1960,
  "\u2581ch\u0142o": 1961,
  "of": 1962,
  "\u2581Bardzo": 1963,
  "\u2581increase": 1964,
  "\u2581jedynie": 1965,
  "\u2581cases": 1966,
  "\u2581ka\u017cdej": 1967,
  "\u2581beautiful": 1968,
  "\u2581przyjaciel": 1969,
  "\u25812002": 1970,
  "\u2581meeting": 1971,
  "\u2581others": 1972,
  "\u2581party": 1973,
  "naj": 1974,
  "\u2581Ga": 1975,
  "owa\u0142a": 1976,
  "ez": 1977,
  "\u2581gave": 1978,
  "ide": 1979,
  "\u2581laid": 1980,
  "\u2581sector": 1981,
  "\u2581nowe": 1982,
  "\u2581model": 1983,
  "\u2581wants": 1984,
  "\u2581October": 1985,
  "\u2581myself": 1986,
  "\u2581m\u00f3wi\u0142": 1987,
  "\u2581zawiera": 1988,
  "kry": 1989,
  "\u2581word": 1990,
  "\u2581doctor": 1991,
  "\u2581Dad": 1992,
  "\u2581companies": 1993,
  "\u2581page": 1994,
  "\u2581Ser": 1995,
  "a\u017c": 1996,
  "\u2581January": 1997,
  "\u2581EN": 1998,
  "km": 1999,
  "\u2581pytanie": 2000,
  "\u2581cz\u0119sto": 2001,
  "\u2581include": 2002,
  "a\u0142a": 2003,
  "\u2581final": 2004,
  "c\u0119": 2005,
  "\u2581wniosek": 2006,
  "eks": 2007,
  "\u2581half": 2008,
  "eni": 2009,
  "\u2581ile": 2010,
  "\u2581S\u0105": 2011,
  "gt": 2012,
  "\u2581przet\u0142umaczon": 2013,
  "\u2581contact": 2014,
  "rod": 2015,
  "\u2581Aby": 2016,
  "\u00f3\u017c": 2017,
  "\u2581Ben": 2018,
  "\u2581zatem": 2019,
  "\u2581late": 2020,
  "rac": 2021,
  "\u2581robi\u0107": 2022,
  "\u2581Sa": 2023,
  "\u2581due": 2024,
  "\u2581gone": 2025,
  "\u2581rest": 2026,
  "\u2581Ze": 2027,
  "\u2581thereof": 2028,
  "\u2581i\u017c": 2029,
  "\u2581existing": 2030,
  "\u2581trzeba": 2031,
  "use": 2032,
  "\u2581Char": 2033,
  "\u2581innego": 2034,
  "\u25815.": 2035,
  "\u2581private": 2036,
  "ase": 2037,
  "\u2581address": 2038,
  "\u2581en": 2039,
  "\u2581dziedzinie": 2040,
  "\u2581okres": 2041,
  "\u2581nast\u0119puj\u0105ce": 2042,
  "dziel": 2043,
  "\u0142a\u015bnie": 2044,
  "\u2581field": 2045,
  "\u2581ka\u017cdy": 2046,
  "\u2581door": 2047,
  "\u2581jedno": 2048,
  "\u2581uwa\u017ca": 2049,
  "den": 2050,
  "\u2581nadziej\u0119": 2051,
  "ou": 2052,
  "eniu": 2053,
  "\u2581anyone": 2054,
  "\u2581win": 2055,
  "\u2581result": 2056,
  "\u2581grupy": 2057,
  "\u2581darmo": 2058,
  "\u2581poziomie": 2059,
  "room": 2060,
  "\u2581t\u0105": 2061,
  "\u2581asked": 2062,
  "\u2581b\u0119dziemy": 2063,
  "\u2581current": 2064,
  "\u2581dobra": 2065,
  "tion": 2066,
  "\u2581Wsp\u00f3lnoty": 2067,
  "\u2581czeka": 2068,
  "\u2581Republic": 2069,
  "\u2581zastosowanie": 2070,
  "\u2581bed": 2071,
  "\u2581dost\u0119pne": 2072,
  "\u2581m\u00f3g\u0142": 2073,
  "\u2581okre\u015blonych": 2074,
  "vo": 2075,
  "\u2581jaki\u015b": 2076,
  "\u2581powinni": 2077,
  "\u2581training": 2078,
  "\u2581offer": 2079,
  "her": 2080,
  "\u2581d\u0142ugo": 2081,
  "\u2581brother": 2082,
  "\u2581prices": 2083,
  "\u2581Nawet": 2084,
  "\u2581Niech": 2085,
  "\u2581child": 2086,
  "no\u015b\u0107": 2087,
  "szed\u0142": 2088,
  "uk": 2089,
  "r\u00f3": 2090,
  "zd": 2091,
  "king": 2092,
  "\u2581niniejszej": 2093,
  "\u2581Stan": 2094,
  "cu": 2095,
  "\u2581Mia\u0142": 2096,
  "\u2581B\u0119dzie": 2097,
  "\u2581happy": 2098,
  "\u2581happen": 2099,
  "\u2581effect": 2100,
  "nika": 2101,
  "\u2581musimy": 2102,
  "\u2581Zobacz": 2103,
  "\u2581walk": 2104,
  "\u2581book": 2105,
  "\u2581directly": 2106,
  "\u2581site": 2107,
  "\u2581naszej": 2108,
  "\u2581Lord": 2109,
  "\u2581ha": 2110,
  "\u2581thinking": 2111,
  "\u2581Wszystkie": 2112,
  "\u2581najmniej": 2113,
  "\u2581Ste": 2114,
  "kami": 2115,
  "\u2581members": 2116,
  "\u2581words": 2117,
  "\u2581lipca": 2118,
  "\u2581competent": 2119,
  "\u2581\u20ac": 2120,
  "\u2581Like": 2121,
  "str": 2122,
  "\u2581zabaw": 2123,
  "tak": 2124,
  "\u2581kur": 2125,
  "mawia": 2126,
  "\u2581pal": 2127,
  "kar": 2128,
  "\u2581godzin": 2129,
  "04": 2130,
  "\u2581standard": 2131,
  "\u2581equipment": 2132,
  "\u2581(\"": 2133,
  "\u2581personal": 2134,
  "\u2581rate": 2135,
  "rt": 2136,
  "pis": 2137,
  "\u2581additional": 2138,
  "ause": 2139,
  "\u2581details": 2140,
  "\u2581zwi\u0105zane": 2141,
  "\u2581hit": 2142,
  "\u2581building": 2143,
  "\u2581natural": 2144,
  "\u2581dzisiaj": 2145,
  "\u2581dziw": 2146,
  "\u2581levels": 2147,
  "\u2581inside": 2148,
  "\u2581position": 2149,
  "t\u00f3w": 2150,
  "\u2581naszego": 2151,
  "\u00e9": 2152,
  "\u2581Rozporz\u0105dzenie": 2153,
  "\u2581past": 2154,
  "\u2581code": 2155,
  "\u2581living": 2156,
  "sen": 2157,
  "19": 2158,
  "acj\u0119": 2159,
  "\u2581ho": 2160,
  "\u2581outside": 2161,
  "ting": 2162,
  "czyn": 2163,
  "\u2581wish": 2164,
  "\u2581upon": 2165,
  "\u2581pewno": 2166,
  "$": 2167,
  "\u2581truth": 2168,
  "\u2581comes": 2169,
  "\u2581pu": 2170,
  "gad": 2171,
  "\u2581czerwca": 2172,
  "\u2581tyle": 2173,
  "\u2581wiedzia\u0142": 2174,
  "\u25813,": 2175,
  "\u2581mieszka": 2176,
  "\u2581according": 2177,
  "ight": 2178,
  "\u2581kg": 2179,
  "\u2581started": 2180,
  "+": 2181,
  "\u2581kogo\u015b": 2182,
  "\u25812000": 2183,
  "\u2581Window": 2184,
  "ko\u0144cz": 2185,
  "\u2581located": 2186,
  "lot": 2187,
  "red": 2188,
  "\u2581nimi": 2189,
  "ff": 2190,
  "out": 2191,
  "\u2581hurt": 2192,
  "\u2581potrzeb": 2193,
  "\u2581twoja": 2194,
  "ence": 2195,
  "\u2581ro": 2196,
  "\u2581oko\u0142o": 2197,
  "\u2581needed": 2198,
  "\u2581Gdy": 2199,
  "\u2581odpowiedzi": 2200,
  "sie": 2201,
  "\u2581idzie": 2202,
  "\u2581Data": 2203,
  "\u2581wed\u0142ug": 2204,
  "\u2581cz\u0142owieka": 2205,
  "\u2581Komisj\u0119": 2206,
  "\u2581li": 2207,
  "way": 2208,
  "\u2581Tell": 2209,
  "\u2581front": 2210,
  "\u2581Hu": 2211,
  "ng": 2212,
  "ien": 2213,
  "\u2581pomoc\u0105": 2214,
  "baw": 2215,
  "\u2581short": 2216,
  "\u2581zar\u00f3wno": 2217,
  "\u2581Hol": 2218,
  "\u2581safe": 2219,
  "j\u0105cych": 2220,
  "\u2581sprzeda\u017cy": 2221,
  "\u2581dose": 2222,
  "tri": 2223,
  "\u2581probably": 2224,
  "\u2581mo\u017cliwe": 2225,
  "\u2581thank": 2226,
  "bi\u0142": 2227,
  "\u2581bezpo\u015brednio": 2228,
  "\u2581terms": 2229,
  "\u2581wa\u017cne": 2230,
  "ium": 2231,
  "\u2581content": 2232,
  "tter": 2233,
  "owana": 2234,
  "\u2581cz\u0142owiek": 2235,
  "\u2581zdj\u0119cia": 2236,
  "\u2581pieni\u0105dze": 2237,
  "ole": 2238,
  "\u2581zanim": 2239,
  "\u2581proposal": 2240,
  "\u2581powie": 2241,
  "grywa": 2242,
  "\u2581firmy": 2243,
  "\u2581large": 2244,
  "gas": 2245,
  "\u2581Frank": 2246,
  "\u2581rodzaju": 2247,
  "int": 2248,
  "\u2581request": 2249,
  "ich": 2250,
  "\u2581offers": 2251,
  "\u2581nazywa": 2252,
  "\u2581effects": 2253,
  "\u2581powinno": 2254,
  "\u2581USA": 2255,
  "zo": 2256,
  "\u2581everyone": 2257,
  "\u2581Spo": 2258,
  "\u2581goods": 2259,
  "\u2581sent": 2260,
  "are": 2261,
  "Do": 2262,
  "\u2581Ponadto": 2263,
  "\u2581Court": 2264,
  "\u2581j": 2265,
  "\u2581drzwi": 2266,
  "\u2581zarz\u0105dzania": 2267,
  "\u2581jakim": 2268,
  "\u2581przeciwko": 2269,
  "\u2581establishing": 2270,
  "patrz": 2271,
  "\u2581From": 2272,
  "\u2581sub": 2273,
  "\u2581containing": 2274,
  "\u2581music": 2275,
  "\u2581fight": 2276,
  "\u2581history": 2277,
  "\u2581jakie\u015b": 2278,
  "\u2581szuka": 2279,
  "\u2581\u015bwietn": 2280,
  "Na": 2281,
  "\u2581przepisy": 2282,
  "\u2581sta": 2283,
  "\u2581pas": 2284,
  "\u2581among": 2285,
  "\u2581jedn\u0105": 2286,
  "nt": 2287,
  "\u015br\u00f3d": 2288,
  "\u2581Ri": 2289,
  "To": 2290,
  "\u2581su": 2291,
  "\u2581age": 2292,
  "\u2581eyes": 2293,
  "\u2581Christian": 2294,
  "\u2581post": 2295,
  "\u2581g\u0142up": 2296,
  "\u2581pi\u0119kn": 2297,
  "\u2581weeks": 2298,
  "ale": 2299,
  "OJ": 2300,
  "\u2581points": 2301,
  "rog": 2302,
  "\u2581website": 2303,
  "\u2581przypadkach": 2304,
  "\u2581zostawi": 2305,
  "\u2581przeciw": 2306,
  "ajcie": 2307,
  "\u2581though": 2308,
  "\u2581leku": 2309,
  "uka": 2310,
  "):": 2311,
  "\u2581Lot": 2312,
  "bi\u0107": 2313,
  "\u2581Show": 2314,
  "\u2581material": 2315,
  "\u2581exactly": 2316,
  "py": 2317,
  "\u2581brought": 2318,
  "\u2581March": 2319,
  "\u2581Pani": 2320,
  "sto": 2321,
  "\u2581taka": 2322,
  "\u2581hands": 2323,
  "nki": 2324,
  "\u2581France": 2325,
  "\u2581Per": 2326,
  "\u2581works": 2327,
  "pu": 2328,
  "\u2581kids": 2329,
  "\u2581przyjaci\u00f3\u0142": 2330,
  "\u2581punkt": 2331,
  "\u2581knows": 2332,
  "\u2581stuff": 2333,
  "e\u0144": 2334,
  "05": 2335,
  "\u2581size": 2336,
  "\u2581study": 2337,
  "\u2581investment": 2338,
  "20": 2339,
  "\u2581\u015bwiata": 2340,
  "\u2581cm": 2341,
  "\u2581koszt\u00f3w": 2342,
  "\u2581ceny": 2343,
  "\u2581carried": 2344,
  "\u2581purpose": 2345,
  "ham": 2346,
  "\u2581Free": 2347,
  "\u2581sprawy": 2348,
  "\u2581pokoju": 2349,
  "\u2581color": 2350,
  "\u2581team": 2351,
  "\u2581swojego": 2352,
  "\u2581individual": 2353,
  "\u2581\u015bwiat": 2354,
  "\u2581Wszyscy": 2355,
  "\u2581Bi": 2356,
  "\u2581chwili": 2357,
  "\u2581class": 2358,
  "\u2581wody": 2359,
  "\u2581Mor": 2360,
  "\u2581anti": 2361,
  "\u2581hold": 2362,
  "\u2581Dar": 2363,
  "\u2581Mat": 2364,
  "ron": 2365,
  "\u2581byli": 2366,
  "\u2581General": 2367,
  "ong": 2368,
  "day": 2369,
  "\u2581framework": 2370,
  "\u2581World": 2371,
  "\u2581Bra": 2372,
  "\u2581opinii": 2373,
  "\u2581chance": 2374,
  "\u2581Stop": 2375,
  "\u2581zosta\u0142o": 2376,
  "\u2581yes": 2377,
  "\u2581con": 2378,
  "\u2581basic": 2379,
  "\u2581koniec": 2380,
  "\u2581table": 2381,
  "\u2581serious": 2382,
  "\u2581ziemi": 2383,
  "chodzi": 2384,
  "pal": 2385,
  "\u2581longer": 2386,
  "\u2581listen": 2387,
  "\u2581land": 2388,
  "\u2581agreement": 2389,
  "ated": 2390,
  "\u2581ko\u0144cu": 2391,
  "\u2581okre\u015blone": 2392,
  "\u2581Du": 2393,
  "\u2581bu": 2394,
  "\u2581persons": 2395,
  "\u2581zwierz\u0105t": 2396,
  "\u2581firm": 2397,
  "\u2581mniej": 2398,
  "\u00f3l": 2399,
  "\u2581System": 2400,
  "\u2581cha": 2401,
  "\u2581six": 2402,
  "\u2581wp\u0142yw": 2403,
  "\u2581adres": 2404,
  "\u2581go\u015bci": 2405,
  "port": 2406,
  "15": 2407,
  "\u2581September": 2408,
  "\u2581bath": 2409,
  "stan": 2410,
  "\u2581twoim": 2411,
  "ani": 2412,
  "gg": 2413,
  "\u2581kole": 2414,
  "0": 2415,
  "\u2581jednej": 2416,
  "\u2581us\u0142ugi": 2417,
  "las": 2418,
  "prze": 2419,
  "\u2581share": 2420,
  "\u2581stycznia": 2421,
  "\u2581wniosku": 2422,
  "ix": 2423,
  "\u2581200": 2424,
  "\u2581Other": 2425,
  "\u2581send": 2426,
  "\u2581along": 2427,
  "\u2581jak\u0105": 2428,
  "\u2581powiedzia\u0142a": 2429,
  "About": 2430,
  "\u2581nocy": 2431,
  "\u2581almost": 2432,
  "vi": 2433,
  "\u2581drodze": 2434,
  "\u2581nasz": 2435,
  "\u2581poziom": 2436,
  "kom": 2437,
  "\u2581resources": 2438,
  "03": 2439,
  "ser": 2440,
  "\u2581April": 2441,
  "\u2581war": 2442,
  "tur": 2443,
  "\u2581region": 2444,
  "\u2581dziecko": 2445,
  "\u2581produkty": 2446,
  "\u2581spo": 2447,
  "time": 2448,
  "\u2581Strona": 2449,
  "\u2581udzia\u0142": 2450,
  "\u2581Bank": 2451,
  "\u2581mo\u017cliwo\u015b\u0107": 2452,
  "\u2581supposed": 2453,
  "que": 2454,
  "\u2581shot": 2455,
  "\u2581America": 2456,
  "\u2581reference": 2457,
  "\u2581Ne": 2458,
  "\u2581kilku": 2459,
  "roz": 2460,
  "\u2581dobre": 2461,
  "\u2581znaczenie": 2462,
  "wiedzi": 2463,
  "\u2581s\u0142owa": 2464,
  "\u2581tobie": 2465,
  "top": 2466,
  "ors": 2467,
  "\u2581top": 2468,
  "lf": 2469,
  "\u2581racj\u0119": 2470,
  "\u2581potrzeby": 2471,
  "\u2581kup": 2472,
  "ns": 2473,
  "\u2581tomorrow": 2474,
  "\u2581centre": 2475,
  "\u2581$": 2476,
  "\u2581average": 2477,
  "\u2581cross": 2478,
  "\u2581responsible": 2479,
  "\u2581addition": 2480,
  "\u2581received": 2481,
  "\u2581section": 2482,
  "\u2581evidence": 2483,
  "\u2581black": 2484,
  "\u2581news": 2485,
  "\u2581ran": 2486,
  "\u2581dis": 2487,
  "\u2581covered": 2488,
  "7": 2489,
  "\u2581minute": 2490,
  "og": 2491,
  "\u2581pomys\u0142": 2492,
  "lon": 2493,
  "\u2581issue": 2494,
  "\u2581assessment": 2495,
  "illa": 2496,
  "\u2581looks": 2497,
  "\u2581kraj\u00f3w": 2498,
  "\u2581police": 2499,
  "\u2581wobec": 2500,
  "\u2581active": 2501,
  "ans": 2502,
  "\u2581cover": 2503,
  "\u2581sex": 2504,
  "br": 2505,
  "see": 2506,
  "\u2581Br": 2507,
  "ti": 2508,
  "\u2581lo": 2509,
  "\u2581Peter": 2510,
  "\u2581below": 2511,
  "\u2581Cz\u0142onkowskie": 2512,
  "\u2581weight": 2513,
  "\u2581Group": 2514,
  "\u2581effective": 2515,
  "\u2581latach": 2516,
  "\u2581dzia\u0142a": 2517,
  "\u2581capital": 2518,
  "ura": 2519,
  "gr": 2520,
  "8": 2521,
  "ock": 2522,
  "\u2581performance": 2523,
  "\u2581included": 2524,
  "\u2581enter": 2525,
  "\u2581procedures": 2526,
  "\u258190": 2527,
  "\u2581City": 2528,
  "\u2581examples": 2529,
  "ind": 2530,
  "ise": 2531,
  "\u2581November": 2532,
  "\u2581Whereas": 2533,
  "bor": 2534,
  "\u2581several": 2535,
  "\u2581Jasn": 2536,
  "\u2581Sch": 2537,
  "\u2581dwie": 2538,
  "\u2581innym": 2539,
  "\u2581kolor": 2540,
  "\u2581story": 2541,
  "skie": 2542,
  "\u2581eat": 2543,
  "\u2581Qu": 2544,
  "\u2581return": 2545,
  "\u2581worry": 2546,
  "i\u0142": 2547,
  "\u2581pracownik\u00f3w": 2548,
  "\u2581near": 2549,
  "\u2581pocz\u0105tku": 2550,
  "\u2581mar": 2551,
  "\u2581imi\u0119": 2552,
  "\u2581mog\u0142a": 2553,
  "cznie": 2554,
  "\u2581Komitetu": 2555,
  "\u2581Internet": 2556,
  "\u2581widzi": 2557,
  "\u00f3r": 2558,
  "\u2581Michael": 2559,
  "\u2581search": 2560,
  "\u2581Trzy": 2561,
  "\u2581Kingdom": 2562,
  "\u2581inter": 2563,
  "\u2581super": 2564,
  "\u2581Poniewa\u017c": 2565,
  "\u2581Niniejsze": 2566,
  "ero": 2567,
  "\u2581Jeszcze": 2568,
  "\u2581kom": 2569,
  "j\u0105ce": 2570,
  "\u25812017": 2571,
  "\u2581Germany": 2572,
  "\u2581Rada": 2573,
  "\u2581impact": 2574,
  "\u2581umowy": 2575,
  "no\u015bci": 2576,
  "\u2581range": 2577,
  "\u2581Mom": 2578,
  "\u2581ryzyka": 2579,
  "\u2581behind": 2580,
  "\u2581Will": 2581,
  "\u258180": 2582,
  "\u2581organizacji": 2583,
  "nka": 2584,
  "\u2581prac": 2585,
  "\u2581pami\u0119ta": 2586,
  "\u2581operation": 2587,
  "\u2581figure": 2588,
  "\u2581stosowane": 2589,
  "\u2581TO": 2590,
  "\u2581Mon": 2591,
  "\u2581travel": 2592,
  "bar": 2593,
  "\u2581wy\u0142\u0105cznie": 2594,
  "\u2581m\u00f3wi\u0107": 2595,
  "\u2581maximum": 2596,
  "pak": 2597,
  "\u2581obecnie": 2598,
  "cz\u0105": 2599,
  "\u25816.": 2600,
  "\u2581numer": 2601,
  "\u2581zapewnienia": 2602,
  "spo": 2603,
  "\u2581Europejsk\u0105": 2604,
  "\u2581projects": 2605,
  "\u2581International": 2606,
  "lic": 2607,
  "\u2581Jakie": 2608,
  "\u2581Wal": 2609,
  "\u2581AND": 2610,
  "\u2581often": 2611,
  "\u2581nowego": 2612,
  "tle": 2613,
  "\u2581S\u0142ysz": 2614,
  "\u2581month": 2615,
  "\u2581Cha": 2616,
  "\u2581trust": 2617,
  "\u2581patrz": 2618,
  "\u2581Listen": 2619,
  "\u2581\u017cadnych": 2620,
  "\u2581Kra": 2621,
  "\u2581okolicy": 2622,
  "\u2581organ": 2623,
  "\u2581Kat": 2624,
  "\u2581trzech": 2625,
  "\u2581hair": 2626,
  "\u2581imieniu": 2627,
  "how": 2628,
  "\u2581Gre": 2629,
  "\u2581issues": 2630,
  "\u2581act": 2631,
  "\u2581David": 2632,
  "\u2581similar": 2633,
  "12": 2634,
  "\u2581por": 2635,
  "\u2581added": 2636,
  "\u2581Zawsze": 2637,
  "fe": 2638,
  "\u2581tax": 2639,
  "\u2581zasad": 2640,
  "\u2581drive": 2641,
  ".00": 2642,
  "\u2581solution": 2643,
  "\u2581EESC": 2644,
  "\u2581Give": 2645,
  "\u2581miejsc": 2646,
  "\u2581\u017cyciu": 2647,
  "\u2581capacity": 2648,
  "\u2581b\u0105d\u017a": 2649,
  "\u2581white": 2650,
  "niki": 2651,
  "\u2581prac\u0119": 2652,
  "\u2581review": 2653,
  "\u2581Che": 2654,
  "\u2581apartment": 2655,
  "\u2581environment": 2656,
  "\u0142ad": 2657,
  "\u2581provides": 2658,
  "\u2581gas": 2659,
  "\u2581dictionary": 2660,
  "\u2581changes": 2661,
  "\u2581warto\u015b\u0107": 2662,
  "\u2581Sha": 2663,
  "\u2581Prac": 2664,
  "\u2581High": 2665,
  "low": 2666,
  "\u2581sleep": 2667,
  "\u2581\u015brodowiska": 2668,
  "\u2581naszym": 2669,
  "\u2581ilo\u015bci": 2670,
  "\u2581trakcie": 2671,
  "\u2581animals": 2672,
  "s\u0142ug": 2673,
  "\u2581questions": 2674,
  "pan": 2675,
  "\u2581stosuje": 2676,
  "stra": 2677,
  "\u2581computer": 2678,
  "hu": 2679,
  "\u2581zmian": 2680,
  "\u2581pa\u017adziernika": 2681,
  "\u2581sense": 2682,
  "jon": 2683,
  "ven": 2684,
  "\u2581Ke": 2685,
  "\u2581lead": 2686,
  "\u2581finansowych": 2687,
  "\u2581Tra": 2688,
  "\u2581projekt": 2689,
  "\u00c5": 2690,
  "\u2581Zgodn": 2691,
  "\u2581allow": 2692,
  "\u2581\u017cyje": 2693,
  "ash": 2694,
  "\u2581Rozumie": 2695,
  "\u2581watch": 2696,
  "i\u0119k": 2697,
  "\u2581warunk\u00f3w": 2698,
  "\u2581held": 2699,
  "\u2581Fa": 2700,
  "\u2581zdrowia": 2701,
  "\u2581speak": 2702,
  "\u2581standards": 2703,
  "\u2581software": 2704,
  "\u2581institutions": 2705,
  "\u2581maj\u0105c": 2706,
  "\u2581luck": 2707,
  "\u2581nature": 2708,
  "\u2581realizacji": 2709,
  "\u2581Gdyby": 2710,
  "lat": 2711,
  "\u2581design": 2712,
  "hol": 2713,
  "da\u0107": 2714,
  "\u2581buy": 2715,
  "\u2581Q": 2716,
  "\u2581sprawdzi\u0107": 2717,
  "\u2581granted": 2718,
  "\u2581\u015bmierci": 2719,
  "\u2581pe\u0142ni": 2720,
  "\u2581Op": 2721,
  "hose": 2722,
  "quite": 2723,
  "\u2581floor": 2724,
  "\u2581wraz": 2725,
  "\u2581bank": 2726,
  "j\u0105cy": 2727,
  "\u2581pa\u0144stwach": 2728,
  "\u2581prawie": 2729,
  "\u2581Tro": 2730,
  "\u25814,": 2731,
  "\u2581import": 2732,
  "ever": 2733,
  "\u2581300": 2734,
  "eu": 2735,
  "arz": 2736,
  "\u2581break": 2737,
  "\u2581purposes": 2738,
  "\u2581died": 2739,
  "\u2581involved": 2740,
  "\u2581knowledge": 2741,
  "\u2581continue": 2742,
  "\u2581Komitet": 2743,
  "Za": 2744,
  "now": 2745,
  "\u2581lives": 2746,
  "\u2581minimum": 2747,
  "shi": 2748,
  "tar": 2749,
  "\u2581000": 2750,
  "\u2581ojciec": 2751,
  "\u2581sea": 2752,
  "\u2581maja": 2753,
  "pp": 2754,
  "k\u0105d": 2755,
  "\u2581various": 2756,
  "\u2581increased": 2757,
  "\u2581scar": 2758,
  "hot": 2759,
  "\u2581konieczne": 2760,
  "ple": 2761,
  "ism": 2762,
  "\u2581Han": 2763,
  "\u2581IV": 2764,
  "cje": 2765,
  "jecha\u0142": 2766,
  "2,": 2767,
  "\u2581rodziny": 2768,
  "\u2581budget": 2769,
  "\u2581wchodzi": 2770,
  "\u2581drink": 2771,
  "\u2581Luc": 2772,
  "\u2581Great": 2773,
  "\u2581leczenia": 2774,
  "\u2581pa\u0144stwo": 2775,
  "ugh": 2776,
  "\u2581pick": 2777,
  "sch": 2778,
  "air": 2779,
  "\u2581Nothing": 2780,
  "\u2581couple": 2781,
  "i\u0105": 2782,
  "\u2581[1],": 2783,
  "\u2581ad": 2784,
  "mon": 2785,
  "leg": 2786,
  "\u0142e": 2787,
  "ni\u0119": 2788,
  "aw": 2789,
  "\u2581space": 2790,
  "zel": 2791,
  "\u2581twojej": 2792,
  "mat": 2793,
  "\u2581growth": 2794,
  "\u2581himself": 2795,
  "\u2581save": 2796,
  "\u2581rozporz\u0105dzeniem": 2797,
  "\u00bf": 2798,
  "nk": 2799,
  "\u2581Help": 2800,
  "\u2581cel": 2801,
  "\u2581kar": 2802,
  "\u2581Potrzeb": 2803,
  "\u2581parts": 2804,
  "\u2581stand": 2805,
  "i\u0119cej": 2806,
  "\u2581Kr": 2807,
  "ino": 2808,
  "\u2581parties": 2809,
  "18": 2810,
  "\u2581wspania\u0142": 2811,
  "\u2581potential": 2812,
  "\u2581paper": 2813,
  "\u2581activity": 2814,
  "\u2581South": 2815,
  "\u2581transportu": 2816,
  "\u25812001": 2817,
  "\u2581goes": 2818,
  "\u2581drugiej": 2819,
  "vin": 2820,
  "\u2581wydaje": 2821,
  "\u2581Up": 2822,
  "\u2581Czas": 2823,
  "\u00c4": 2824,
  "\u2581First": 2825,
  "\u2581road": 2826,
  "\u2581answer": 2827,
  "\u2581event": 2828,
  "\u2581credit": 2829,
  "\u2581hot": 2830,
  "usza": 2831,
  "ins": 2832,
  "mierz": 2833,
  "owali": 2834,
  "ize": 2835,
  "\u2581animal": 2836,
  "row": 2837,
  "owanych": 2838,
  "\u2581follow": 2839,
  "niec": 2840,
  "\u2581poni\u017cej": 2841,
  "\u2581inny": 2842,
  "ov": 2843,
  "\u2581pursuan": 2844,
  "\u2581objectives": 2845,
  "\u2581higher": 2846,
  "\u2581daughter": 2847,
  "\u2581oczy": 2848,
  "\u2581Moja": 2849,
  "tem": 2850,
  "\u2581cia\u0142a": 2851,
  "\u2581Lub": 2852,
  "\u2581Book": 2853,
  "\u2581paid": 2854,
  "oni": 2855,
  "prac": 2856,
  "\u2581strong": 2857,
  "jazd": 2858,
  "16": 2859,
  "\u2581kategorii": 2860,
  "\u2581Articles": 2861,
  "\u2581By\u0142a": 2862,
  "25": 2863,
  "\u2581Brussels": 2864,
  "\u2581husband": 2865,
  "\u2581German": 2866,
  "\u2581serca": 2867,
  "ros": 2868,
  "\u2581wymaga": 2869,
  "rza": 2870,
  "wierz": 2871,
  "szcz": 2872,
  "\u2581sklep": 2873,
  "\u2581parents": 2874,
  "bry": 2875,
  "\u2581Jezus": 2876,
  "Ma": 2877,
  "14": 2878,
  "\u2581role": 2879,
  "\u2581se": 2880,
  "\u2581competition": 2881,
  "\u2581obraz": 2882,
  "\u2581text": 2883,
  "\u2581political": 2884,
  "\u2581czego\u015b": 2885,
  "\u2581criteria": 2886,
  "\u2581Pr": 2887,
  "ety": 2888,
  "11": 2889,
  "bal": 2890,
  "\u2581Pen": 2891,
  "\u2581wysoko\u015bci": 2892,
  "\u2581Tom": 2893,
  "\u2581Sk\u0105d": 2894,
  "\u2581created": 2895,
  "\u2581especially": 2896,
  "iec": 2897,
  "\u2581replaced": 2898,
  "\u2581system\u00f3w": 2899,
  "kt": 2900,
  "\u2581radio": 2901,
  "\u2581Read": 2902,
  "\u2581za\u0142\u0105cznika": 2903,
  "\u2581message": 2904,
  "\u2581jakby": 2905,
  "ili": 2906,
  "\u2581legislation": 2907,
  "\u2581potrzebuje": 2908,
  "\u2581ca\u0142o\u015bci": 2909,
  "\u2581m\u00f3g\u0142by": 2910,
  "skim": 2911,
  "\u2581takes": 2912,
  "\u2581Ah": 2913,
  "\u2581hour": 2914,
  "\u2581perfect": 2915,
  "\u2581video": 2916,
  "\u2581odpowiednie": 2917,
  "\u2581status": 2918,
  "ast": 2919,
  "rusz": 2920,
  "\u2581War": 2921,
  "\u2581wraca": 2922,
  "\u2581posiada": 2923,
  "\u2581normal": 2924,
  "\u2581across": 2925,
  "\u2581significant": 2926,
  "\u2581500": 2927,
  "\u2581lose": 2928,
  "tki": 2929,
  "\u2581ca\u0142ym": 2930,
  "\u2581Em": 2931,
  "\u2581odpowiednio": 2932,
  "zen": 2933,
  "\u258145": 2934,
  "\u2581by\u0142em": 2935,
  "90": 2936,
  "\u2581February": 2937,
  "\u2581central": 2938,
  "\u2581dost\u0119p": 2939,
  "\u2581Mis": 2940,
  "\u2581government": 2941,
  "\u2581Lu": 2942,
  "\u2581martw": 2943,
  "\u2581learn": 2944,
  "bin": 2945,
  "\u2581early": 2946,
  "kach": 2947,
  "sz\u0105": 2948,
  "\u2581wypadku": 2949,
  "cent": 2950,
  "\u2581para": 2951,
  "set": 2952,
  "owa\u0142em": 2953,
  "\u00b1": 2954,
  "\u2581Ku": 2955,
  "\u2581Naj": 2956,
  "\u2581Wi": 2957,
  "99": 2958,
  "\u2581obrotu": 2959,
  "\u2581education": 2960,
  "form": 2961,
  "\u258135": 2962,
  "\u2581CN": 2963,
  "net": 2964,
  "\u2581sentences": 2965,
  "\u2581protect": 2966,
  "\u2581musia\u0142": 2967,
  "nn": 2968,
  "biera": 2969,
  "\u2581istnieje": 2970,
  "\u2581pain": 2971,
  "\u2581Mrs": 2972,
  "mes": 2973,
  "cker": 2974,
  "\u2581tried": 2975,
  "\u2581Mu": 2976,
  "dzenie": 2977,
  "\u2581moc": 2978,
  "\u2581nowy": 2979,
  "\u2581cause": 2980,
  "led": 2981,
  "\u2581procedury": 2982,
  "\u2581zapewni\u0107": 2983,
  "\u2581marca": 2984,
  "\u2581pierwsze": 2985,
  "\u2581Sk": 2986,
  "\u2581(4)": 2987,
  "\u258132": 2988,
  "\u2581vehicle": 2989,
  "\u2581entry": 2990,
  "\u2581nast\u0119pnie": 2991,
  "\u2581roli": 2992,
  "\u2581EKES": 2993,
  "\u2581Jack": 2994,
  "\u2581Ki": 2995,
  "ory": 2996,
  "\u2581moich": 2997,
  "\u2581Tel": 2998,
  "\u2581National": 2999,
  "\u2581American": 3000,
  "\u2581Nikt": 3001,
  "\u2581defined": 3002,
  "\u2581program\u00f3w": 3003,
  "dal": 3004,
  "\u2581produkt": 3005,
  "\u2581Dal": 3006,
  "\u2581nikt": 3007,
  "\u2581earth": 3008,
  "\u2581internal": 3009,
  "\u2581wszelkie": 3010,
  "\u2581substancji": 3011,
  "\u2581create": 3012,
  "\u2581wrze\u015bnia": 3013,
  "\u2581dotyczy": 3014,
  "right": 3015,
  "\u2581p\u00f3\u0142": 3016,
  "\u2581chwil\u0119": 3017,
  "rs": 3018,
  "\u2581drogi": 3019,
  "\u2581Ros": 3020,
  "\u2581limit": 3021,
  "qui": 3022,
  "\u2581ponownie": 3023,
  "\u2581wear": 3024,
  "ens": 3025,
  "ally": 3026,
  "ments": 3027,
  "\u2581mln": 3028,
  "\u2581gro": 3029,
  "ID": 3030,
  "eg": 3031,
  "robot": 3032,
  "u\u017cy": 3033,
  "\u2581however": 3034,
  "\u2581major": 3035,
  "\u2581Th": 3036,
  "\u2581Gi": 3037,
  "24": 3038,
  "\u2581zda\u0144": 3039,
  "\u2581waste": 3040,
  "\u2581Ab": 3041,
  "\u2581Information": 3042,
  "ele": 3043,
  "\u2581Even": 3044,
  "\u2581dok\u0142adnie": 3045,
  "\u2581Does": 3046,
  "\u2581Znajd": 3047,
  "\u2581nast\u0119puje": 3048,
  "\u2581Jaki": 3049,
  "\u2581imports": 3050,
  "\u2581analysis": 3051,
  "\u2581choice": 3052,
  "\u2581mogli": 3053,
  "\u2581niniejszym": 3054,
  "\u2581pewien": 3055,
  "\u2581Europie": 3056,
  "kin": 3057,
  "\u2581payment": 3058,
  "\u2581Bibli": 3059,
  "\u2581mine": 3060,
  "\u2581Min": 3061,
  "r\u0119cz": 3062,
  "\u0142\u0105cz": 3063,
  "\u2581Przed": 3064,
  "\u2581Gar": 3065,
  "\u2581fr": 3066,
  "\u2581partner": 3067,
  "niem": 3068,
  "wiesz": 3069,
  "\u2581Red": 3070,
  "\u2581relating": 3071,
  "\u2581jakiego": 3072,
  "\u2581chcia\u0142a": 3073,
  "\u2581podr\u00f3\u017c": 3074,
  "\u2581accommodation": 3075,
  "\u2581Pa\u0144stwo": 3076,
  "\u2581g\u0142os": 3077,
  "\u2581applied": 3078,
  "\u2581sweet": 3079,
  "\u2581murder": 3080,
  "\u2581girls": 3081,
  "17": 3082,
  "aj\u0105": 3083,
  "\u2581Live": 3084,
  "\u2581postaci": 3085,
  "\u2581afraid": 3086,
  "\u2581uwadze": 3087,
  "\u2581decyzj\u0119": 3088,
  "iv": 3089,
  "\u2581running": 3090,
  "\u2581oil": 3091,
  "praw": 3092,
  "let": 3093,
  "\u2581kiedy\u015b": 3094,
  "\u2581submitted": 3095,
  "\u2581hate": 3096,
  "\u2581spraw\u0119": 3097,
  "cal": 3098,
  "\u2581waiting": 3099,
  "\u2581ones": 3100,
  "dra": 3101,
  "\u2581supply": 3102,
  "wer": 3103,
  "dam": 3104,
  "sta\u0142": 3105,
  "\u2581tro": 3106,
  "\u2581znajdzie": 3107,
  "\u2581problemy": 3108,
  "\u2581Two": 3109,
  "\u2581lie": 3110,
  "\u2581Central": 3111,
  "\u2581society": 3112,
  "\u00b6": 3113,
  "\u2581m\u0119\u017cczyzn": 3114,
  "c\u00f3w": 3115,
  "\u2581designed": 3116,
  "ING": 3117,
  "\u2581poziomu": 3118,
  "\u258170": 3119,
  "ake": 3120,
  "\u2581sama": 3121,
  "rozmawia\u0107": 3122,
  "\u2581ni": 3123,
  "09": 3124,
  "\u2581NA": 3125,
  "\u2581decided": 3126,
  "\u2581Centrum": 3127,
  "\u2581Mo\u017cemy": 3128,
  "\u2581niez": 3129,
  "80": 3130,
  "term": 3131,
  "\u25810,": 3132,
  "czki": 3133,
  "\u2581studies": 3134,
  "\u2581network": 3135,
  "\u2581regards": 3136,
  "\u2581szczeg\u00f3lnie": 3137,
  "\u2581values": 3138,
  "\u2581programmes": 3139,
  "\u2581intended": 3140,
  "\u2581Przez": 3141,
  "\u2581double": 3142,
  "\u2581PLN": 3143,
  "\u2581Apart": 3144,
  "friend": 3145,
  "\u2581przyj": 3146,
  "\u2581rather": 3147,
  "\u2581uwagi": 3148,
  "jecha\u0107": 3149,
  "\u2581fully": 3150,
  "cz\u0119": 3151,
  "ering": 3152,
  "\u2581base": 3153,
  "\u2581pull": 3154,
  "\u2581approach": 3155,
  "gli": 3156,
  "\u2581listopada": 3157,
  "\u2581twoj\u0105": 3158,
  "\u2581Since": 3159,
  "\u2581EC": 3160,
  "if": 3161,
  "\u2581technology": 3162,
  "\u0142by": 3163,
  "k\u0142ad": 3164,
  "\u2581ca\u0142\u0105": 3165,
  "win": 3166,
  "\u2581WE": 3167,
  "eck": 3168,
  "alog": 3169,
  "\u2581direct": 3170,
  "\u2581export": 3171,
  "ture": 3172,
  "nale": 3173,
  "\u2581attention": 3174,
  "\u2581step": 3175,
  "\u2581red": 3176,
  "\")": 3177,
  "\u2581(1": 3178,
  "\u2581materials": 3179,
  "\u2581sit": 3180,
  "\u2581rozporz\u0105dzeniu": 3181,
  "\u2581kwietnia": 3182,
  "\u2581czuje": 3183,
  "\u2581pressure": 3184,
  "\u2581widok": 3185,
  "06": 3186,
  "lad": 3187,
  "ble": 3188,
  "dan": 3189,
  "\u2581bodies": 3190,
  "\u2581actions": 3191,
  "gle": 3192,
  "01": 3193,
  "\u2581Val": 3194,
  "n\u0105\u0107": 3195,
  "\u2581wynosi": 3196,
  "\u2581Ad": 3197,
  "\u2581Mal": 3198,
  "\u2581ostatnio": 3199,
  "\u2581VI": 3200,
  "\u2581trouble": 3201,
  "sk\u0105": 3202,
  "\u2581sign": 3203,
  "\u2581projektu": 3204,
  "\u2581Kur": 3205,
  "\u2581rozmawia": 3206,
  "\u2581complete": 3207,
  "wa\u017c": 3208,
  "\u2581spok\u00f3j": 3209,
  "szukiwa": 3210,
  "\u2581zostan\u0105": 3211,
  "\u2581j\u0119zyk": 3212,
  "\u2581krajowych": 3213,
  "\u25811999": 3214,
  "\u2581stron": 3215,
  "\u2581Shi": 3216,
  "\u2581wsparcia": 3217,
  "\u2581entire": 3218,
  "\u2581Tri": 3219,
  "\u2581French": 3220,
  "anta": 3221,
  "\u2581pozycji": 3222,
  "13": 3223,
  "\u2581problem\u00f3w": 3224,
  "stwo": 3225,
  "nicy": 3226,
  "\u2581Kim": 3227,
  "\u2581pozwala": 3228,
  "\u2581organy": 3229,
  "\u2581komputer": 3230,
  "\u2581Would": 3231,
  "\u2581koszty": 3232,
  "\u2581Uwa\u017ca": 3233,
  "\u2581seems": 3234,
  "\u2581sto": 3235,
  "\u2581George": 3236,
  "por": 3237,
  "\u2581Tam": 3238,
  "\u2581uda": 3239,
  "\u2581bud": 3240,
  "\u2581gun": 3241,
  "\u2581telling": 3242,
  "\u2581fast": 3243,
  "\u2581zw\u0142aszcza": 3244,
  "\u2581married": 3245,
  "\u2581ko\u0144ca": 3246,
  "1/": 3247,
  "not": 3248,
  "\u2581my\u015bl\u0119": 3249,
  "\u017ca": 3250,
  "can": 3251,
  "\u2581\u017cywo": 3252,
  "\u2581czemu": 3253,
  "czka": 3254,
  "\u2581trzecich": 3255,
  "\u2581Aktualn": 3256,
  "\u2581Economic": 3257,
  "\u25812018": 3258,
  "\u2581Moje": 3259,
  "\u2581specified": 3260,
  "\u2581mieli": 3261,
  "\u2581pierwszym": 3262,
  "\u2581whatever": 3263,
  "\u2581Journal": 3264,
  "\u2581themselves": 3265,
  "\u2581transfer": 3266,
  "\u2581wygra": 3267,
  "alny": 3268,
  "\u2581ryzyko": 3269,
  "Ch": 3270,
  "\u2581groups": 3271,
  "\u2581monitoring": 3272,
  "\u2581rooms": 3273,
  "9": 3274,
  "bb": 3275,
  "\u2581Sea": 3276,
  "\u2581CO": 3277,
  "\u2581powy\u017cej": 3278,
  "\u2581\u015arodki": 3279,
  "\u2581mal": 3280,
  "\u2581mis": 3281,
  "par": 3282,
  "ating": 3283,
  "\u2581ch\u0142opc": 3284,
  "\u2581Polska": 3285,
  "\u2581member": 3286,
  "ward": 3287,
  "\u2581korzy\u015bci": 3288,
  "ord": 3289,
  "\u2581anymore": 3290,
  "szuka": 3291,
  "\u2581associated": 3292,
  "\u2581choose": 3293,
  "\u2581min": 3294,
  "zer": 3295,
  "\u2581Plan": 3296,
  "\u2581numbers": 3297,
  "\u2581dar": 3298,
  "\u2581parking": 3299,
  "\u2581wsp\u00f3lnego": 3300,
  "\u2581wzrostu": 3301,
  "\u2581Pal": 3302,
  "by\u015bmy": 3303,
  "ball": 3304,
  "\u2581investigation": 3305,
  "\u2581listed": 3306,
  "\u2581skin": 3307,
  "ica": 3308,
  "els": 3309,
  "\u2581York": 3310,
  "sion": 3311,
  "wr\u00f3ci\u0107": 3312,
  "Co": 3313,
  "HIS": 3314,
  "\u2581thanks": 3315,
  "\u2581wzgl\u0119dem": 3316,
  "\u2581forward": 3317,
  "\u2581China": 3318,
  "\u2581powiedz": 3319,
  "\u2581Contact": 3320,
  "get": 3321,
  "\u2581charge": 3322,
  "wali": 3323,
  "\u2581rozw\u00f3j": 3324,
  "LL": 3325,
  "\u2581poli": 3326,
  "\u2581kont": 3327,
  "\u2581da\u0142": 3328,
  "\u2581improve": 3329,
  "40": 3330,
  "\u2581potrafi": 3331,
  "cami": 3332,
  "Mo": 3333,
  "\u2581sk": 3334,
  "\u2581duty": 3335,
  "\u2581zaczyna": 3336,
  "\u2581samego": 3337,
  "\u2581Official": 3338,
  "\u2581languages": 3339,
  "\u2581picture": 3340,
  "\u2581published": 3341,
  "You": 3342,
  "org": 3343,
  "ette": 3344,
  "bel": 3345,
  "\u2581environmental": 3346,
  "\u2581zdanie": 3347,
  "\u2581Sal": 3348,
  "fr": 3349,
  "\u2581planet": 3350,
  "\u2581r\u00f3\u017cne": 3351,
  "ather": 3352,
  "\u2581largest": 3353,
  "van": 3354,
  "60": 3355,
  "\u2581foot": 3356,
  "car": 3357,
  "\u2581civil": 3358,
  "\u2581Angel": 3359,
  "\u2581ground": 3360,
  "\u2581g\u0142\u00f3wna": 3361,
  "\u2581regional": 3362,
  "tyka": 3363,
  "\u2581YOU": 3364,
  "\u2581disease": 3365,
  "\u0142od": 3366,
  "\u2581mie\u015bcie": 3367,
  "\u2581House": 3368,
  "\u2581wina": 3369,
  "stanie": 3370,
  "yt": 3371,
  "\u2581visit": 3372,
  "czu": 3373,
  "\u2581flight": 3374,
  "\u2581IT": 3375,
  "\u2581Social": 3376,
  "vel": 3377,
  "\u2581Kom": 3378,
  "mel": 3379,
  "\u2581Zo": 3380,
  "ola": 3381,
  "\u2581pa": 3382,
  "\u2581niezb\u0119dne": 3383,
  "\u2581Fo": 3384,
  "\u2581developed": 3385,
  "\u2581instytucji": 3386,
  "\u2581Mag": 3387,
  "\u2581s\u0142ucha": 3388,
  "\u2581fixed": 3389,
  "\u2581godziny": 3390,
  "\u2581rozumiem": 3391,
  "dze": 3392,
  "\u2581exchange": 3393,
  "wod": 3394,
  "\u2581Jer": 3395,
  "\u2581self": 3396,
  "\u2581fair": 3397,
  "owski": 3398,
  "000": 3399,
  "ara": 3400,
  "\u2581forget": 3401,
  "czeka\u0107": 3402,
  "\u2581Cz\u0142onkowskich": 3403,
  "\u2581fishing": 3404,
  "\u2581Close": 3405,
  "\u2581annual": 3406,
  "EL": 3407,
  "bro": 3408,
  "ret": 3409,
  "cen": 3410,
  "alne": 3411,
  "\u2581pieni\u0119dzy": 3412,
  "\u2581y": 3413,
  "old": 3414,
  "\u2581EEA": 3415,
  "rb": 3416,
  "\u2581towards": 3417,
  "twor": 3418,
  "tom": 3419,
  "b\u00f3j": 3420,
  "\u2581liczby": 3421,
  "\u258136": 3422,
  "\u2581zastosowania": 3423,
  "\u2581bomb": 3424,
  "\u2581typ": 3425,
  "\u2581agent": 3426,
  "\u2581jedna": 3427,
  "vis": 3428,
  "tk": 3429,
  "\u2581machine": 3430,
  "ci\u0105g": 3431,
  "\u2581zapewnia": 3432,
  "czoraj": 3433,
  "\u2581EUROPEAN": 3434,
  "EN": 3435,
  "\u2581Mac": 3436,
  "sam": 3437,
  "\u2581contract": 3438,
  "\u2581wyniki": 3439,
  "\u2581producent\u00f3w": 3440,
  "\u2581events": 3441,
  "\u2581stron\u0119": 3442,
  "\u2581Gal": 3443,
  "\u2581szal": 3444,
  "\u2581wiadomo\u015bci": 3445,
  "\u2581cook": 3446,
  "skiej": 3447,
  "\u2581\u015bmie": 3448,
  "\u2581ulic": 3449,
  "\u2581towar\u00f3w": 3450,
  "\u2581feeling": 3451,
  "\u2581measure": 3452,
  "\u2581zamierza": 3453,
  "\u2581Only": 3454,
  "off": 3455,
  "\u2581Pla": 3456,
  "\u2581Chi": 3457,
  "\u2581Father": 3458,
  "\u2581Traktatu": 3459,
  "\u2581otworzy\u0107": 3460,
  "\u2581sister": 3461,
  "\u2581giving": 3462,
  "\u2581Czech": 3463,
  "\u2581inaczej": 3464,
  "\u2581markets": 3465,
  "\u2581whose": 3466,
  "\u2581dost\u0119pu": 3467,
  "\u2581Agency": 3468,
  "DL": 3469,
  "\u2581alive": 3470,
  "nd": 3471,
  "\u2581brak": 3472,
  "\u2581handlu": 3473,
  "pier": 3474,
  "burg": 3475,
  "\u2581da\u0107": 3476,
  "ER": 3477,
  "\u2581EOG": 3478,
  "32": 3479,
  "\u2581cele": 3480,
  "\u2581dog": 3481,
  "\u2581j\u0119zyku": 3482,
  "\u2581Sir": 3483,
  "\u2581nowo": 3484,
  "\u2581itself": 3485,
  "\u2581West": 3486,
  "\u2581IN": 3487,
  "\u2581North": 3488,
  "\u2581shown": 3489,
  "\u2581worked": 3490,
  "\u2581beginning": 3491,
  "\u2581celem": 3492,
  "\u2581\u017c": 3493,
  "ES": 3494,
  "dd": 3495,
  "\u2581post\u0119powania": 3496,
  "\u2581calls": 3497,
  "\u2581instruments": 3498,
  "\u2581staff": 3499,
  "kre": 3500,
  "\u2581Therefore": 3501,
  "\u2581property": 3502,
  "\u0142\u00f3\u017c": 3503,
  "\u2581interested": 3504,
  "23": 3505,
  "\u2581Euro": 3506,
  "\u015bni": 3507,
  "act": 3508,
  "czenia": 3509,
  "dzi\u0142": 3510,
  "rocz": 3511,
  "\u2581by\u0142oby": 3512,
  "cj\u0119": 3513,
  "\u0142aby": 3514,
  "\u2581ojca": 3515,
  "\u2581kol": 3516,
  "skiego": 3517,
  "chod\u017a": 3518,
  "\u2581Europy": 3519,
  "bra\u0107": 3520,
  "\u2581Um": 3521,
  "lep": 3522,
  "\u2581kr\u00f3l": 3523,
  "\u2581fall": 3524,
  "\u2581Cor": 3525,
  "\u2581reported": 3526,
  "stal": 3527,
  "\u2581wonder": 3528,
  "\u258133": 3529,
  "45": 3530,
  "ew": 3531,
  "\u2581playing": 3532,
  "tr": 3533,
  "\u2581[...]": 3534,
  "\u2581mon": 3535,
  "ycie": 3536,
  "\u2581emisji": 3537,
  "\u2581eye": 3538,
  "\u2581obejmuje": 3539,
  "\u2581pewni": 3540,
  "\u00f3d": 3541,
  "\u2581showing": 3542,
  "IT": 3543,
  "\u2581greater": 3544,
  "No": 3545,
  "\u2581limited": 3546,
  "\u2581do\u015b\u0107": 3547,
  "\u2581znowu": 3548,
  "pol": 3549,
  "\u2581liczba": 3550,
  "winien": 3551,
  "\u2581practice": 3552,
  "\u2581Ge": 3553,
  "\u2581Which": 3554,
  "\u2581welcome": 3555,
  "BI": 3556,
  "\u2581simple": 3557,
  "\u2581agricultural": 3558,
  "\u2581court": 3559,
  "Re": 3560,
  "\u2581sprawa": 3561,
  "\u2581enjoy": 3562,
  "\u2581ship": 3563,
  "\u2581types": 3564,
  "\u2581sektora": 3565,
  "kur": 3566,
  "log": 3567,
  "\u2581maszyn": 3568,
  "\u2581sal": 3569,
  "dr": 3570,
  "pen": 3571,
  "sku": 3572,
  "\u2581jutro": 3573,
  "\u258148": 3574,
  "\u2581w\u0142a\u015bciwe": 3575,
  "\u2581cool": 3576,
  "ya": 3577,
  "\u2581origin": 3578,
  "\u25812019": 3579,
  "cji": 3580,
  "\u2581benefit": 3581,
  "\u2581Australia": 3582,
  "\u2581facilities": 3583,
  "\u2581Szyb": 3584,
  "\u2581proposed": 3585,
  "\u2581panu": 3586,
  "czenie": 3587,
  "liz": 3588,
  "\u2581gar": 3589,
  "\u2581equal": 3590,
  "\u2581Zjednoczone": 3591,
  "\u2581creating": 3592,
  "on\u0105": 3593,
  "\u2581Lin": 3594,
  "\u2581Albo": 3595,
  "\u2581\u0142\u00f3\u017ck": 3596,
  "\u2581Pr\u00f3b": 3597,
  "\u2581People": 3598,
  "ey": 3599,
  "\u2581condition": 3600,
  "\u2581sales": 3601,
  "\u2581administrative": 3602,
  "\u2581kwestii": 3603,
  "\u2581miss": 3604,
  "\u2581Son": 3605,
  "ata": 3606,
  "\u2581Port": 3607,
  "\u2581Ka\u017cdy": 3608,
  "\u2581dam": 3609,
  "\u2581Strip": 3610,
  "\u2581device": 3611,
  "\u2581p\u0142atno\u015bci": 3612,
  "\u2581particularly": 3613,
  "\u2581thus": 3614,
  "\u2581document": 3615,
  "ios": 3616,
  "\u2581Keep": 3617,
  "st\u0119p": 3618,
  "ano": 3619,
  "\u2581etc": 3620,
  "\u2581Traktat": 3621,
  "d\u017acie": 3622,
  "\u2581Map": 3623,
  "\u2581documents": 3624,
  "\u2581Europejska": 3625,
  "\u2581Czego": 3626,
  "hr": 3627,
  "\u2581professional": 3628,
  "\u2581idealn": 3629,
  "\u2581linii": 3630,
  "\u2581center": 3631,
  "ial": 3632,
  "\u2581August": 3633,
  "\u2581medical": 3634,
  "\u2581assistance": 3635,
  "IN": 3636,
  "\u2581citizens": 3637,
  "gro": 3638,
  "\u2581Bur": 3639,
  "\u00ed": 3640,
  "uff": 3641,
  "\u2581dawki": 3642,
  "1,": 3643,
  "\u2581airport": 3644,
  "\u2581150": 3645,
  "danie": 3646,
  "\u2581strategii": 3647,
  "\u2581]": 3648,
  "3,": 3649,
  "trzy": 3650,
  "22": 3651,
  "\u2581clean": 3652,
  "\u2581develop": 3653,
  "\u2581fish": 3654,
  "\u2581reports": 3655,
  "02": 3656,
  "\u2581Part": 3657,
  "\u2581\u017cadne": 3658,
  "uf": 3659,
  "\u2581difficult": 3660,
  "CH": 3661,
  "\u2581rezerw": 3662,
  "uzzle": 3663,
  "\u2581original": 3664,
  "bre": 3665,
  "ect": 3666,
  "\u2581recommended": 3667,
  "\u2581B\u0119d\u0119": 3668,
  "\u2581trans": 3669,
  "\u2581carry": 3670,
  "ized": 3671,
  "\u2581proces": 3672,
  "\u2581plant": 3673,
  "\u2581box": 3674,
  "\u2581progress": 3675,
  "\u2581widzenia": 3676,
  "au": 3677,
  "har": 3678,
  "\u2581tymi": 3679,
  "\u2581unit": 3680,
  "\u2581podoba": 3681,
  "chen": 3682,
  "21": 3683,
  "\u2581b\u0142\u0105d": 3684,
  "\u2581decyzja": 3685,
  "\u2581miasto": 3686,
  "\u2581technologii": 3687,
  "\u2581Check": 3688,
  "\u2581drugi": 3689,
  "\u2581\u017cadnego": 3690,
  "gaz": 3691,
  "nik\u00f3w": 3692,
  "n\u0119\u0142a": 3693,
  "\u2581ahead": 3694,
  "\u2581photos": 3695,
  "\u2581zasob\u00f3w": 3696,
  "nica": 3697,
  "\u2581format": 3698,
  "\u2581wzrost": 3699,
  "\u2581funds": 3700,
  "\u2581DO": 3701,
  "owymi": 3702,
  "sta\u0107": 3703,
  "\u2581media": 3704,
  "\u2581implementing": 3705,
  "\u2581vehicles": 3706,
  "\u2581Call": 3707,
  "\u2581files": 3708,
  "kr\u0119": 3709,
  "\u2581Polski": 3710,
  "\u2581detailed": 3711,
  "\u2581Mo\u017cna": 3712,
  "dro": 3713,
  "\u2581niech": 3714,
  "\u2581Jednak": 3715,
  "\u2581takiej": 3716,
  "@": 3717,
  "\u2581port": 3718,
  "\u2581prowadzi": 3719,
  "pr\u00f3buj": 3720,
  "d\u017c": 3721,
  "\u2581czyli": 3722,
  "\u2581Kor": 3723,
  "\u2581urz\u0105dzenia": 3724,
  "\u2581nasz\u0105": 3725,
  "eb": 3726,
  "load": 3727,
  "\u2581follows": 3728,
  "\u2581Par": 3729,
  "\u2581Paris": 3730,
  "\u2581policies": 3731,
  "epi": 3732,
  "\u2581response": 3733,
  "\u2581del": 3734,
  "\u2581operations": 3735,
  "pe\u0142ni": 3736,
  "\u2581np": 3737,
  "puszcz": 3738,
  "\u2581Points": 3739,
  "wol": 3740,
  "\u2581zmieni\u0107": 3741,
  "\u2581collection": 3742,
  "\u2581reviews": 3743,
  "\u2581term": 3744,
  "arka": 3745,
  "\u2581Dzie\u0144": 3746,
  "\u2581contains": 3747,
  "\u2581approved": 3748,
  "\u2581worth": 3749,
  "\u2581Pana": 3750,
  "\u2581przysz\u0142o\u015bci": 3751,
  "\u2581m\u00f3wi\u0119": 3752,
  "run": 3753,
  "\u00e1": 3754,
  "ktyw": 3755,
  "sp": 3756,
  "\u2581dys": 3757,
  "\u2581des": 3758,
  "\u2581blow": 3759,
  "\u2581employment": 3760,
  "\u2581lutego": 3761,
  "\u2581strategy": 3762,
  "aries": 3763,
  "\u2581nor": 3764,
  "\u2581regarding": 3765,
  "nymi": 3766,
  "\u2581faith": 3767,
  "\u2581applications": 3768,
  "\u2581Post": 3769,
  "gn": 3770,
  "\u2581currently": 3771,
  "\u2581marketing": 3772,
  "\u2581changed": 3773,
  "\u2581reasons": 3774,
  "\u2581lower": 3775,
  "\u2581masy": 3776,
  "\u2581samoch\u00f3d": 3777,
  "\u2581wyniku": 3778,
  "\u2581Com": 3779,
  "\u2581rozumie": 3780,
  "\u2581zgodne": 3781,
  "\u2581100%": 3782,
  "len": 3783,
  "\u2581reduce": 3784,
  "\u2581everybody": 3785,
  "czk\u0119": 3786,
  "\u2581brat": 3787,
  "\u2581sun": 3788,
  "\u2581Szko": 3789,
  "\u2581aplikacji": 3790,
  "\u2581Europejski": 3791,
  "uj\u0105c": 3792,
  "\u0142ych": 3793,
  "\u2581kobiety": 3794,
  "\u2581sko\u0144czy": 3795,
  "\u2581matters": 3796,
  "\u2581receive": 3797,
  "ping": 3798,
  "\u2581immediately": 3799,
  "dding": 3800,
  "\u2581formie": 3801,
  "wi\u0119ksza": 3802,
  "\u2581leaving": 3803,
  "\u2581operating": 3804,
  "\u0161": 3805,
  "val": 3806,
  "bat": 3807,
  "Wy": 3808,
  "28": 3809,
  "\u2581allowed": 3810,
  "\u2581producers": 3811,
  "fik": 3812,
  "\u2581bus": 3813,
  "\u2581principle": 3814,
  "\u2581official": 3815,
  "\u2581places": 3816,
  "\u2581seem": 3817,
  "\u2581ca\u0142kowicie": 3818,
  "\u2581odpowied\u017a": 3819,
  "\u2581urz\u0105dze\u0144": 3820,
  "70": 3821,
  "\u2581kogo": 3822,
  "\u2581Pami\u0119ta": 3823,
  "\u2581daily": 3824,
  "owaniu": 3825,
  "\u2581Inne": 3826,
  "\u2581powierzchni": 3827,
  "\u2581US": 3828,
  "\u2581obu": 3829,
  "spa": 3830,
  "\u2581Ya": 3831,
  "ox": 3832,
  "czy\u0107": 3833,
  "\u2581znalaz\u0142": 3834,
  "\u2581built": 3835,
  "\u2581grup": 3836,
  "\u2581bro\u0144": 3837,
  "\u2581ryb": 3838,
  "\u2581Mark": 3839,
  "\u2581god": 3840,
  "ted": 3841,
  "\u2581wiemy": 3842,
  "\u2581pochodzenia": 3843,
  "ls": 3844,
  "\u2581blisko": 3845,
  "\u2581Office": 3846,
  "szcz\u0119\u015bliw": 3847,
  "\u2581Au": 3848,
  "ries": 3849,
  "\u2581reach": 3850,
  "\u2581terytorium": 3851,
  "\u2581daje": 3852,
  "ort": 3853,
  "ala": 3854,
  "\u2581Centre": 3855,
  "iff": 3856,
  "\u2581meaning": 3857,
  "\u2581okresu": 3858,
  "licz": 3859,
  "ras": 3860,
  "\u2581global": 3861,
  "prowadz": 3862,
  "\u2581host": 3863,
  "ile": 3864,
  "ni\u0107": 3865,
  "\u2581promise": 3866,
  "\u2581completely": 3867,
  "ring": 3868,
  "\u2581speed": 3869,
  "ped": 3870,
  "\u2581peace": 3871,
  "\u2581spirit": 3872,
  "\u2581error": 3873,
  "\u2581version": 3874,
  "?\"": 3875,
  "cki": 3876,
  "\u2581trzyma": 3877,
  "\u2581Management": 3878,
  "US": 3879,
  "\u2581method": 3880,
  "\u2581plus": 3881,
  "\u2581Wien": 3882,
  "\u2581cell": 3883,
  "kowe": 3884,
  "\u2581became": 3885,
  "\u2581log": 3886,
  "\u2581letter": 3887,
  "ust": 3888,
  "don": 3889,
  "\u2581przegl\u0105d": 3890,
  "lie": 3891,
  "\u2581Adam": 3892,
  "dzia\u0142": 3893,
  "\u2581shows": 3894,
  "\u2581processing": 3895,
  "\u2581Er": 3896,
  "\u2581u\u017cywa": 3897,
  "\u2581issued": 3898,
  "\u25817.": 3899,
  "\u2581expected": 3900,
  "\u2581g\u0142owy": 3901,
  "\u2581Ed": 3902,
  "\u2581kept": 3903,
  "\u2581download": 3904,
  "\u2581powietrza": 3905,
  "ela": 3906,
  "\u2581sprzeda": 3907,
  "ric": 3908,
  "\u2581quickly": 3909,
  "}": 3910,
  "\u2581communication": 3911,
  "\u2581approval": 3912,
  "\u2581publication": 3913,
  "\u258110.": 3914,
  "\u258100": 3915,
  "pad\u0142": 3916,
  "\u2581sick": 3917,
  "\u2581dia": 3918,
  "\u2581Mel": 3919,
  "\u2581dzwon": 3920,
  "dzia\u0142a": 3921,
  "\u2581board": 3922,
  "\u2581chcemy": 3923,
  "tyn": 3924,
  "\u2581ju": 3925,
  "\u2581niekt\u00f3re": 3926,
  "\u2581weather": 3927,
  "\u2581pojazd\u00f3w": 3928,
  "\u2581patient": 3929,
  "\u2581dzia\u0142alno\u015b\u0107": 3930,
  "\u2581SA": 3931,
  "\u2581\u017cona": 3932,
  "\u2581stupid": 3933,
  "\u2581danego": 3934,
  "\u2581auto": 3935,
  "AT": 3936,
  "\u258175": 3937,
  "\u2581pok\u00f3j": 3938,
  "\u2581Brak": 3939,
  "\u2581touch": 3940,
  "\u2581stosowanie": 3941,
  "\u2581sugar": 3942,
  "ear": 3943,
  "\u2581lek": 3944,
  "play": 3945,
  "\u2581prezent": 3946,
  "\u2581um\u00f3w": 3947,
  "\u2581szko\u0142y": 3948,
  "cka": 3949,
  "\u2581opportunity": 3950,
  "\u2581rozwi\u0105zania": 3951,
  "\u2581krajach": 3952,
  "\u2581rozszerzenia": 3953,
  "\u2581og\u00f3le": 3954,
  "\u2581context": 3955,
  "\u2581odpowiednich": 3956,
  "\u2581pomy\u015bl": 3957,
  "\u2581modern": 3958,
  "\u2581przede": 3959,
  "\u2581odpowiada": 3960,
  "\u2581Host": 3961,
  "\u00f5": 3962,
  "\u2581dream": 3963,
  "\u2581card": 3964,
  "\u2581pary": 3965,
  "\u2581projekt\u00f3w": 3966,
  "\u2581martwi": 3967,
  "\u2581Street": 3968,
  "RE": 3969,
  "\u2581stock": 3970,
  "m\u00f3wi": 3971,
  "\u2581\u00b0": 3972,
  "\u2581przynajmniej": 3973,
  "\u2581users": 3974,
  "\u2581realize": 3975,
  "\u2581stanowi\u0105": 3976,
  "\u2581function": 3977,
  "\u2581wyj\u0105tkiem": 3978,
  "lip": 3979,
  "zywa": 3980,
  "\u0142\u0105": 3981,
  "\u2581cz\u0142onk\u00f3w": 3982,
  "\u2581Patrz": 3983,
  "ses": 3984,
  "\u2581stara": 3985,
  "OK": 3986,
  "\u2581happens": 3987,
  "\u2581movi": 3988,
  "\u2581turned": 3989,
  "31": 3990,
  "asse": 3991,
  "\u2581m\u00f3wi\u0105c": 3992,
  "t\u0105": 3993,
  "\u2581pozna\u0107": 3994,
  "\u2581guarantee": 3995,
  "\u2581Business": 3996,
  "\u2581connection": 3997,
  "nal": 3998,
  "\u2581zatrudnienia": 3999,
  "bior": 4000,
  "\u2581HAS": 4001,
  "\u2581gwiazd": 4002,
  "\u2581loss": 4003,
  "\u2581Special": 4004,
  "\u00b0": 4005,
  "\u2581bl": 4006,
  "\u2581inwestycji": 4007,
  "\u2581mi\u0142o\u015b\u0107": 4008,
  "\u2581warunkach": 4009,
  "\u2581rz\u0105d": 4010,
  "\u2581Program": 4011,
  "\u2581dinner": 4012,
  "\u2581previous": 4013,
  "\u2581Act": 4014,
  "\u2581zostaje": 4015,
  "\u2581mil": 4016,
  "\u2581Airport": 4017,
  "\u2581\u015brodka": 4018,
  "\u2581chc\u0105": 4019,
  "\u2581op": 4020,
  "\u2581\u017car": 4021,
  "-3": 4022,
  "\u2581wasze": 4023,
  "\u2581cold": 4024,
  "dni": 4025,
  "\u2581sprawozdania": 4026,
  "\u2581principles": 4027,
  "\u2581tra": 4028,
  "\u2581News": 4029,
  "\u0105t": 4030,
  "\u2581honor": 4031,
  "dol": 4032,
  "\u2581fakt": 4033,
  "\u25811/": 4034,
  "ip": 4035,
  "aria": 4036,
  "\u2581mass": 4037,
  "\u2581Chodzi": 4038,
  "\u258137": 4039,
  "\u2581tak\u0105": 4040,
  "\u2581notice": 4041,
  "\u2581Board": 4042,
  "\u2581explain": 4043,
  "ee": 4044,
  "\u2581du\u017ce": 4045,
  "\u2581blue": 4046,
  "\u25811:": 4047,
  "\u2581Wil": 4048,
  "fu": 4049,
  "\u2581Oto": 4050,
  "\u2581shoot": 4051,
  "\u2581Make": 4052,
  "\u2581boys": 4053,
  "bezpiecz": 4054,
  "tre": 4055,
  "\u2581znacznie": 4056,
  "{": 4057,
  "dzenia": 4058,
  "27": 4059,
  "\u2581consider": 4060,
  "\u2581asking": 4061,
  "\u2581positive": 4062,
  "\u2581wr\u00f3ci\u0142": 4063,
  "\u2581\u015bmier\u0107": 4064,
  "\u2581stan": 4065,
  "del": 4066,
  "\u2581economy": 4067,
  "\u2581u\u017cycia": 4068,
  "\u2581scheme": 4069,
  "\u2581stosowa\u0107": 4070,
  "\u2581wall": 4071,
  "\u2581species": 4072,
  "\u2581organisations": 4073,
  "\u2581przywozu": 4074,
  "ciu": 4075,
  "\u2581except": 4076,
  "\u2581construction": 4077,
  "\u2581decisions": 4078,
  "\u2581Jezusa": 4079,
  "\u2581temperature": 4080,
  "\u2581pytania": 4081,
  "\u2581mia\u0142o": 4082,
  "wa\u0107": 4083,
  "hy": 4084,
  "\u258134": 4085,
  "\u2581provision": 4086,
  "\u2581agree": 4087,
  "\u2581Men": 4088,
  "bl": 4089,
  "\u2581br": 4090,
  "\u2581doktor": 4091,
  "\u2581sometimes": 4092,
  "\u2581territory": 4093,
  "\u2581felt": 4094,
  "\u2581opis": 4095,
  "\u2581missing": 4096,
  "\u2581ogl\u0105da": 4097,
  "\u2581tygodni": 4098,
  "\u2581klimat": 4099,
  "onych": 4100,
  "\u2581zde": 4101,
  "\u2581polsk": 4102,
  "\u2581Italy": 4103,
  "\u2581mi\u0142o\u015bci": 4104,
  "\u2581Mer": 4105,
  "\u2581spo\u0142ecze\u0144stwa": 4106,
  "ella": 4107,
  "\u2581Was": 4108,
  "\u2581Down": 4109,
  "\u2581hospital": 4110,
  "\u2581engine": 4111,
  "\u2581najlepsze": 4112,
  "p\u0142atn": 4113,
  "sis": 4114,
  "\u258138": 4115,
  "uj\u0105ce": 4116,
  "\u2581jobs": 4117,
  "\u2581obj\u0119te": 4118,
  "\u2581mentioned": 4119,
  "\u2581otrzymuje": 4120,
  "stwa": 4121,
  "hop": 4122,
  "\u2581dniem": 4123,
  "hal": 4124,
  "-2": 4125,
  "\u2581rano": 4126,
  "yn": 4127,
  "\u2581Service": 4128,
  "\u2581wiadomo\u015b\u0107": 4129,
  "\u2581administration": 4130,
  "\u2581imprez": 4131,
  "\u2581According": 4132,
  "\u2581pyta": 4133,
  "itch": 4134,
  "\u2581klasy": 4135,
  "\u2581decide": 4136,
  "\u2581Dziennik": 4137,
  "\u2581presented": 4138,
  "/2004": 4139,
  "dyn": 4140,
  "ization": 4141,
  "ship": 4142,
  "\u2581Ludzie": 4143,
  "its": 4144,
  "\u2581record": 4145,
  "san": 4146,
  "\u2581Cal": 4147,
  "\u2581inform": 4148,
  "Pro": 4149,
  "pet": 4150,
  "\u2581tytu\u0142u": 4151,
  "\u2581\u0141a": 4152,
  "\u2581pracuje": 4153,
  "\u2581finansowe": 4154,
  "\u2581publicznych": 4155,
  "\u2581Development": 4156,
  "\u2581holding": 4157,
  "\u0119ta": 4158,
  "29": 4159,
  "\u2581source": 4160,
  "\u2581wszelkich": 4161,
  "2/": 4162,
  "\u2581u\u017cytkownik\u00f3w": 4163,
  "\u2581rol\u0119": 4164,
  "\u2581kwoty": 4165,
  "\u2581reform": 4166,
  "\u2581pobli\u017cu": 4167,
  "\u2581methods": 4168,
  "\u2581pi\u0119\u0107": 4169,
  "\u2581twarz": 4170,
  "\u00ae": 4171,
  "\u2581wyboru": 4172,
  "\u2581\u017ale": 4173,
  "try": 4174,
  "\u2581zgodno\u015bci": 4175,
  "\u2581mission": 4176,
  "\u2581Log": 4177,
  "\u2581station": 4178,
  "\u2581tre": 4179,
  "wil": 4180,
  "abym": 4181,
  "np": 4182,
  "What": 4183,
  "lam": 4184,
  "\u2581stosunku": 4185,
  "\u2581rates": 4186,
  "\u2581cztery": 4187,
  "It": 4188,
  "ace": 4189,
  "\u2581King": 4190,
  "y\u0142": 4191,
  "\u2581Nice": 4192,
  "\u2581external": 4193,
  "\u2581Dam": 4194,
  "\u2581materia\u0142\u00f3w": 4195,
  "\u2581objective": 4196,
  "OR": 4197,
  "\u2581interesting": 4198,
  "08": 4199,
  "TA": 4200,
  "\u2581punktu": 4201,
  "\u2581write": 4202,
  "\u2581avoid": 4203,
  "aty": 4204,
  "\u2581born": 4205,
  "\u2581relationship": 4206,
  "\u2581by\u015b": 4207,
  "\u2581com": 4208,
  "\u2581innej": 4209,
  "\u2581charakter": 4210,
  "je\u017cd\u017ca": 4211,
  "\u2581prevent": 4212,
  "\u2581remain": 4213,
  "lem": 4214,
  "pr\u00f3bowa\u0107": 4215,
  "\u2581location": 4216,
  "\u2581s\u0142ysza\u0142": 4217,
  "\u2581stage": 4218,
  "48": 4219,
  "\u2581click": 4220,
  "\u2581clearly": 4221,
  "\u2581unless": 4222,
  "\u2581zapomni": 4223,
  "\u2581Hold": 4224,
  "\u2581organisation": 4225,
  "\u2581obywateli": 4226,
  "\u2581siedzi": 4227,
  "\u2581crisis": 4228,
  "\u2581elements": 4229,
  "\u2581procesu": 4230,
  "\u2581milk": 4231,
  "\u2581responsibility": 4232,
  "We": 4233,
  "q": 4234,
  "\u2581Cena": 4235,
  "\u2581likely": 4236,
  "\u2581expenditure": 4237,
  "95": 4238,
  "hcia\u0142bym": 4239,
  "p\u00f3\u0142": 4240,
  "rat": 4241,
  "ux": 4242,
  "\u2581Podczas": 4243,
  "\u2581Pra": 4244,
  "\u2581klucz": 4245,
  "\u2581climate": 4246,
  "\u2581finansowania": 4247,
  "\u2581sch": 4248,
  "ants": 4249,
  "\u2581ne": 4250,
  "\u2581bio": 4251,
  "\u2581ostatnich": 4252,
  "\u2581ser": 4253,
  "\u2581wsp\u00f3\u0142": 4254,
  "\u2581sort": 4255,
  "\u2581cz\u0119\u015bci\u0105": 4256,
  "w\u0119": 4257,
  "49": 4258,
  "\u2581produced": 4259,
  "\u2581Inter": 4260,
  "\u2581dzia\u0142anie": 4261,
  "\u2581obj\u0119tych": 4262,
  "\u20ac": 4263,
  "\u2581pictures": 4264,
  "\u2581providing": 4265,
  "\u2581zestaw": 4266,
  "\u2581klient\u00f3w": 4267,
  "\u2581kierunku": 4268,
  "\u2581essential": 4269,
  "\u2581mark": 4270,
  "verything": 4271,
  "\u2581magazyn": 4272,
  "\u2581wiedzy": 4273,
  "\u2581Bal": 4274,
  "\u2581broni": 4275,
  "MS": 4276,
  "\u2581amending": 4277,
  "44": 4278,
  "\u2581sport": 4279,
  "\u2581akapit": 4280,
  "\u2581osoba": 4281,
  "\u2581przyj\u0119cia": 4282,
  "\u0119cia": 4283,
  "\u2581Put": 4284,
  "\u2581category": 4285,
  "\u2581van": 4286,
  "77": 4287,
  "\u2581Pa\u0144stw": 4288,
  "\u2581przemys\u0142u": 4289,
  "\u0105c": 4290,
  "\u2581brain": 4291,
  "\u0144ski": 4292,
  "\u2581instrument": 4293,
  "\u2581weekend": 4294,
  "\u2581insurance": 4295,
  "\u2581stanu": 4296,
  "\u2581moving": 4297,
  "\u2581oczywi\u015bcie": 4298,
  "\u2581injection": 4299,
  "\u2581village": 4300,
  "lec": 4301,
  "\u2581kuchni": 4302,
  "\u2581ca\u0142ego": 4303,
  "\u2581secret": 4304,
  "\u2581obszarze": 4305,
  "\u2581require": 4306,
  "\u2581gdy\u017c": 4307,
  "\u2581wynik\u00f3w": 4308,
  "\u2581s\u0105dzi": 4309,
  "\u2581treated": 4310,
  "OS": 4311,
  "\u2581Fund": 4312,
  "\u2581finally": 4313,
  "pre": 4314,
  "\u2581Berlin": 4315,
  "ev": 4316,
  "\u2581Dur": 4317,
  "\u2581wp\u0142ywu": 4318,
  "\u2581uses": 4319,
  "\u2581ekran": 4320,
  "star": 4321,
  "\u2581multi": 4322,
  "\u2581Bogu": 4323,
  "\u2581calling": 4324,
  "\u25818.": 4325,
  "\u2581sektorze": 4326,
  "\u0119ci": 4327,
  "anda": 4328,
  "osta": 4329,
  "\u2581widz\u0119": 4330,
  "\u2581metody": 4331,
  "\u2581electronic": 4332,
  "/2006": 4333,
  "\u2581ways": 4334,
  "\u2581ADOPT": 4335,
  "ld": 4336,
  "DE": 4337,
  "przy": 4338,
  "26": 4339,
  "RO": 4340,
  "\u2581pole": 4341,
  "bierze": 4342,
  "\u258139": 4343,
  "TM": 4344,
  "\u2581\u017cywno\u015bci": 4345,
  "\u2581chocia\u017c": 4346,
  "\u2581gives": 4347,
  "\u2581written": 4348,
  "\u2581sta\u0107": 4349,
  "rot": 4350,
  "\u2581napraw": 4351,
  "\u2581Ostatni": 4352,
  "35": 4353,
  "\u2581Could": 4354,
  "\u2581substances": 4355,
  "\u2581g\u00f3ry": 4356,
  "5/": 4357,
  "ame": 4358,
  "\u2581europejskich": 4359,
  "\u2581writing": 4360,
  "De": 4361,
  "\u2581customs": 4362,
  "\u2581add": 4363,
  "\u2581Jako": 4364,
  "\u2581Mart": 4365,
  "\u2581determined": 4366,
  "\u2581whom": 4367,
  "%": 4368,
  "\u2581pomaga": 4369,
  "\u2581prepared": 4370,
  "\u2581terminie": 4371,
  "\u2581cz\u0142onkowskiego": 4372,
  "rea": 4373,
  "\u2581indicated": 4374,
  "nos": 4375,
  "\u2581s\u0142od": 4376,
  "ett": 4377,
  "\u2581przepisami": 4378,
  "\u2581w\u0142adze": 4379,
  "\u2581workers": 4380,
  "\u25812:": 4381,
  "\u2581jaka": 4382,
  "\u2581zosta": 4383,
  "\u2581grand": 4384,
  "\u2581pla\u017c": 4385,
  "kla": 4386,
  "ott": 4387,
  "\u2581scope": 4388,
  "\u258150%": 4389,
  "\u2581London": 4390,
  "tru": 4391,
  "39": 4392,
  "\u2581pozna": 4393,
  "\u2581web": 4394,
  "\u2581till": 4395,
  "\u2581Camp": 4396,
  "\u2581caused": 4397,
  "lak": 4398,
  "\u2581commercial": 4399,
  "t\u0119": 4400,
  "\u2581Decyzja": 4401,
  "\u2581piece": 4402,
  "\u2581mouth": 4403,
  "pon": 4404,
  "\u00f1": 4405,
  "\u2581Informacje": 4406,
  "aj": 4407,
  "\u2581dopiero": 4408,
  "\u2581PL": 4409,
  "\u2581natychmiast": 4410,
  "ari": 4411,
  "\u2581przeznaczone": 4412,
  "\u2581opened": 4413,
  "\u2581wykonania": 4414,
  "\u2581analizy": 4415,
  "\u2581COM": 4416,
  "\u2581described": 4417,
  "\u2581usually": 4418,
  "\u2581consumption": 4419,
  "pi\u0119t": 4420,
  "czy\u0142": 4421,
  "\u2581\u0142atwo": 4422,
  "hel": 4423,
  "\u2581poszczeg\u00f3lnych": 4424,
  "gram": 4425,
  "\u2581stopniu": 4426,
  "\u2581via": 4427,
  "\u2581ar": 4428,
  "pas": 4429,
  "ET": 4430,
  "sad": 4431,
  "ama": 4432,
  "\u2581user": 4433,
  "\u2581dance": 4434,
  "\u00a9": 4435,
  "\u2581podr\u00f3\u017cy": 4436,
  "\u2581includes": 4437,
  "\u2581fix": 4438,
  "rap": 4439,
  "\u2581compliance": 4440,
  "\u2581ma\u0142y": 4441,
  "\u2581najlepszego": 4442,
  "\u2581historii": 4443,
  "\u2581contribution": 4444,
  "\u2581store": 4445,
  "\u2581warunkiem": 4446,
  "mont": 4447,
  "\u2581[1]": 4448,
  "\u2581straight": 4449,
  "\u2581difference": 4450,
  "\u2581Poza": 4451,
  "\u2581binding": 4452,
  "\u2581maj\u0105ce": 4453,
  "\u2581Polsce": 4454,
  "\u2581wymienionych": 4455,
  "\u2581reduction": 4456,
  "\u2581seven": 4457,
  "tis": 4458,
  "obo": 4459,
  "\u2581zobaczy": 4460,
  "\u015ble": 4461,
  "\u2581wi\u0119kszej": 4462,
  "\u2581regions": 4463,
  "\u258101": 4464,
  "\u2581cia\u0142o": 4465,
  "\u2581plans": 4466,
  "\u2581cz\u0142onkowskim": 4467,
  "\u2581street": 4468,
  "\u2581niedo": 4469,
  "\u2581subparagraph": 4470,
  "\u2581benefits": 4471,
  "\u2581Jednak\u017ce": 4472,
  "\u2581szans": 4473,
  "\u0142oby": 4474,
  "iu": 4475,
  "\u2581widzie\u0107": 4476,
  "\u2581authorisation": 4477,
  "\u2581storage": 4478,
  "oli": 4479,
  "\u2581PRZYJMUJ": 4480,
  "\u2581fruit": 4481,
  "\u2581solutions": 4482,
  "\u2581Tur": 4483,
  "\u2581Section": 4484,
  "\u2581smart": 4485,
  "\u2581Fr": 4486,
  "\u2581starting": 4487,
  "\u2581trafi": 4488,
  "\u2581Before": 4489,
  "\u2581Use": 4490,
  "\u2581sufficient": 4491,
  "\u2581sprawozdanie": 4492,
  "\u2581opini\u0119": 4493,
  "\u2581Green": 4494,
  "II": 4495,
  "\u2581obligations": 4496,
  "\u2581description": 4497,
  "\u2581Most": 4498,
  "\u2581element": 4499,
  "side": 4500,
  "\u2581Africa": 4501,
  "\u0441": 4502,
  "\u2581Shu": 4503,
  "ie\u0144": 4504,
  "\u2581Captain": 4505,
  "\u2581toalet": 4506,
  "ib": 4507,
  "ken": 4508,
  "ket": 4509,
  "3/": 4510,
  "czni": 4511,
  "ves": 4512,
  "iki": 4513,
  "\u2581niczego": 4514,
  "\u2581agreed": 4515,
  "\u2581dzi\u0119kuj\u0119": 4516,
  "47": 4517,
  "\u2581attack": 4518,
  "book": 4519,
  "\u2581jasne": 4520,
  "\u2581units": 4521,
  "\u2581matka": 4522,
  "skich": 4523,
  "\u2581prawd\u0119": 4524,
  "\u2581accept": 4525,
  "\u2581ram": 4526,
  "\u2581overall": 4527,
  "\u2581szczeg\u00f3\u0142owe": 4528,
  "\u2581samej": 4529,
  "IA": 4530,
  "aka": 4531,
  "\u2581sekund": 4532,
  "\u2581glad": 4533,
  "sia": 4534,
  "you": 4535,
  "07": 4536,
  "\u2581Brukseli": 4537,
  "j\u0105cego": 4538,
  "\u2581pass": 4539,
  "\u2581series": 4540,
  "\u258165": 4541,
  "\u2581wine": 4542,
  "\u2581nast\u0119puj\u0105cych": 4543,
  "\u2581syna": 4544,
  "\u2581Robert": 4545,
  "wel": 4546,
  "kra": 4547,
  "ogle": 4548,
  "\u2581Mil": 4549,
  "\u2581swego": 4550,
  "\u017b": 4551,
  "\u2581choroby": 4552,
  "gh": 4553,
  "\u2581anyway": 4554,
  "\u2581compared": 4555,
  "\u2581prior": 4556,
  "\u2581serce": 4557,
  "0,000": 4558,
  "\u2581wzi\u0105\u0107": 4559,
  "\u2581powrotem": 4560,
  "\u2581wymiany": 4561,
  "ciel": 4562,
  "\u2581poor": 4563,
  "house": 4564,
  "\u2581m\u00f3w": 4565,
  "\u2581jednocze\u015bnie": 4566,
  "\u2581j\u0119zyk\u00f3w": 4567,
  "\u2581dodatkowe": 4568,
  "\u2581laying": 4569,
  "\u2581g\u0142\u00f3wnie": 4570,
  "usz": 4571,
  "\u2581Eli": 4572,
  "\u2581agreements": 4573,
  "\u2581zakres": 4574,
  "\u2581zaraz": 4575,
  "lne": 4576,
  "\u2581kart": 4577,
  "\u00e6": 4578,
  "lny": 4579,
  "\u2581adopt": 4580,
  "\u2581voice": 4581,
  "pul": 4582,
  "\u2581wood": 4583,
  "ON": 4584,
  "\u2581osob\u0119": 4585,
  "\u010d": 4586,
  "\u2581komp": 4587,
  "\u2581internet": 4588,
  "\u2581Price": 4589,
  "\u2581evaluation": 4590,
  "\u2581fear": 4591,
  "\u2581Poli": 4592,
  "\u2581wysokiej": 4593,
  "a\u0142o": 4594,
  "\u2581jeste\u015bcie": 4595,
  "TER": 4596,
  "\u2581chwil": 4597,
  "\u2581possibility": 4598,
  "\u2581draw": 4599,
  "\u2581VAT": 4600,
  "\u2581trip": 4601,
  "ther": 4602,
  "\u2581por\u00f3wnaniu": 4603,
  "\u2581g\u00f3r": 4604,
  "\u2581Cast": 4605,
  "\u2581cash": 4606,
  "\u2581rule": 4607,
  "\u2581train": 4608,
  "\u2581wi\u0105\u017ce": 4609,
  "\u2581pomo\u017ce": 4610,
  "\u2581rynek": 4611,
  "IP": 4612,
  "\u2581uzyska\u0107": 4613,
  "33": 4614,
  "\u2581wsparcie": 4615,
  "\u2581spod": 4616,
  "rodzi": 4617,
  "\u2581focus": 4618,
  "\u2581kobieta": 4619,
  "\u2581assets": 4620,
  "\u2581Search": 4621,
  "\u2581Such": 4622,
  "\u2581build": 4623,
  "\u2581momencie": 4624,
  "\u2581coffee": 4625,
  "\u2581manner": 4626,
  "\u2581billion": 4627,
  "\u2581substance": 4628,
  "\u2581szczeblu": 4629,
  "\u2581honey": 4630,
  "\u2581brzmienie": 4631,
  "\u2581notification": 4632,
  "\u2581cy": 4633,
  "yr": 4634,
  "\u2581raczej": 4635,
  "\u2581steel": 4636,
  "pod": 4637,
  "\u2581poj\u0119cia": 4638,
  "\u2581popular": 4639,
  "34": 4640,
  "lab": 4641,
  "\u2581forms": 4642,
  "\u25819.": 4643,
  "\u2581kor": 4644,
  "aki": 4645,
  "ull": 4646,
  "\u2581deep": 4647,
  "\u2581obszar\u00f3w": 4648,
  "\u2581jakiej": 4649,
  "\u2581\u017cy\u0107": 4650,
  "\u2581shut": 4651,
  "\u2581rat": 4652,
  "\u2581instead": 4653,
  "\u2581Niniejsz": 4654,
  "\u2581zdolno\u015bci": 4655,
  "\u2581wi\u0119kszo\u015b\u0107": 4656,
  "\u2581Dis": 4657,
  "\u2581arrangements": 4658,
  "\u258142": 4659,
  "\u2581green": 4660,
  "\u2581Ber": 4661,
  "\u2581achieve": 4662,
  "\u2581round": 4663,
  "\u2581tre\u015bci": 4664,
  "\u2581catch": 4665,
  "\u2581koszt": 4666,
  "\u2581zawieraj\u0105cy": 4667,
  "\u2581(5)": 4668,
  "\u2581highly": 4669,
  "\u2581combination": 4670,
  "\u2581pozwoli": 4671,
  "85": 4672,
  "\u2581med": 4673,
  "hen": 4674,
  "\u2581konkurencji": 4675,
  "\u2581ro\u015blin": 4676,
  "nice": 4677,
  "\u2581customers": 4678,
  "\u2581feet": 4679,
  "65": 4680,
  "\u015a": 4681,
  "\u2581szef": 4682,
  "SE": 4683,
  "dem": 4684,
  "\u2581operacji": 4685,
  "\u2581Del": 4686,
  "\u2581latest": 4687,
  "l\u0119": 4688,
  "\u2581akt": 4689,
  "\u2581Chinese": 4690,
  "siada": 4691,
  "\u2581ruchu": 4692,
  "\u2581sustainable": 4693,
  "omething": 4694,
  "kan": 4695,
  "\u2581Martin": 4696,
  "\u2581nazwa": 4697,
  "cisk": 4698,
  "aj\u0105c": 4699,
  "\u2581dolar\u00f3w": 4700,
  "\u2581population": 4701,
  "\u2581extra": 4702,
  "\u2581mad": 4703,
  "\u2581meat": 4704,
  "\u2581feed": 4705,
  "\u2581czym\u015b": 4706,
  "my\u015ble\u0107": 4707,
  "\u2581metal": 4708,
  "\u2581nasza": 4709,
  "\u2581Daniel": 4710,
  "\u2581kla": 4711,
  "\u2581pierwszego": 4712,
  "\u2581zale\u017cy": 4713,
  "kowa": 4714,
  "tyczne": 4715,
  "\u2581ilo\u015b\u0107": 4716,
  "dar": 4717,
  "\u2581acid": 4718,
  "\u2581kontakt": 4719,
  "\u2581straszn": 4720,
  "\u2581copy": 4721,
  "\u2581jo": 4722,
  "\u2581circumstances": 4723,
  "55": 4724,
  "59": 4725,
  "\u2581sale": 4726,
  "\u2581oparciu": 4727,
  "\u2581throw": 4728,
  "\u2581braku": 4729,
  "\u2581t\u0142umaczenia": 4730,
  "iej": 4731,
  "\u2581Ph": 4732,
  "zm": 4733,
  "\u2581efficiency": 4734,
  "46": 4735,
  "ities": 4736,
  "\u2581Mari": 4737,
  "\u2581kontek\u015bcie": 4738,
  "\u2581sytuacja": 4739,
  "\u2581zale\u017cno\u015bci": 4740,
  "\u2581dear": 4741,
  "acj\u0105": 4742,
  "\u2581wielko\u015bci": 4743,
  "\u2581wprowadza": 4744,
  "\u2581Earth": 4745,
  "\u2581skarb": 4746,
  "\u2581wsp\u00f3lnej": 4747,
  "\u2581chor": 4748,
  "\u2581Time": 4749,
  "\u2581Product": 4750,
  "\u2581spotkanie": 4751,
  "\u2581wierzy": 4752,
  "\u2581allows": 4753,
  "\u2581s\u0142owo": 4754,
  "\u2581COMMISSION": 4755,
  "ons": 4756,
  "\u2581partners": 4757,
  "98": 4758,
  "\u2581dodatkowych": 4759,
  "\u2581manufacturer": 4760,
  "\u2581Fine": 4761,
  "trze": 4762,
  "ologia": 4763,
  "\u2581Kl": 4764,
  "\u2581Authority": 4765,
  "zki": 4766,
  "\u2581Spain": 4767,
  "\u2581cena": 4768,
  "\u258143": 4769,
  "\u2581Done": 4770,
  "75": 4771,
  "\u2581telewizor": 4772,
  "\u2581window": 4773,
  "\u2581krajowym": 4774,
  "\u2581joint": 4775,
  "\u2581wystarczy": 4776,
  "\u2581spend": 4777,
  "-6": 4778,
  "\u2581University": 4779,
  "ni\u0119cie": 4780,
  "\u2581looked": 4781,
  "\u258110%": 4782,
  "zar": 4783,
  "\u2581wyp": 4784,
  "\u2581IP": 4785,
  "\u2581Mary": 4786,
  "kowy": 4787,
  "\u2581foreign": 4788,
  "nios": 4789,
  "\u2581pierwszej": 4790,
  "\u2581Find": 4791,
  "sha": 4792,
  "uch": 4793,
  "budowa": 4794,
  "\u2581fell": 4795,
  "\u2581najpierw": 4796,
  "\u2581note": 4797,
  "\u2581ruch": 4798,
  "\u2581oferty": 4799,
  "\u2581wr\u00f3ci": 4800,
  "\u2581Van": 4801,
  "\u2581simply": 4802,
  "\u2581Praw": 4803,
  "ryt": 4804,
  "\u2581finansowego": 4805,
  "\u2581separate": 4806,
  "wis": 4807,
  "\u2581rock": 4808,
  "\u2581pi\u0142": 4809,
  "\u2581surface": 4810,
  "mieni": 4811,
  "\u2581dziecka": 4812,
  "\u2581400": 4813,
  "\u2581ma\u0142e": 4814,
  "\u2581organ\u00f3w": 4815,
  "Fi": 4816,
  "\u2581Ameryk": 4817,
  "\u258187": 4818,
  "\u2581z\u0142e": 4819,
  "\u2581target": 4820,
  "\u2581w\u0142os": 4821,
  "\u2581dwu": 4822,
  "\u2581przedstawia": 4823,
  "trz": 4824,
  "\u2581throughout": 4825,
  "\u2581dostaw": 4826,
  "\u2581planu": 4827,
  "-1": 4828,
  "\u2581now\u0105": 4829,
  "arki": 4830,
  "\u2581ci\u0105gle": 4831,
  "ula": 4832,
  "\u2581dop\u00f3ki": 4833,
  "\u2581Mont": 4834,
  "\u2581tele": 4835,
  "n\u0105\u0142": 4836,
  "\u2581expect": 4837,
  "\u2581church": 4838,
  "\u2581Powinn": 4839,
  "\u0119ty": 4840,
  "\u2581press": 4841,
  "\u2581king": 4842,
  "\u258164": 4843,
  "\u2581zewn\u0105trz": 4844,
  "\u2581pewna": 4845,
  "42": 4846,
  "\u25812020": 4847,
  "\u2581miesi\u0105ce": 4848,
  "AM": 4849,
  "\u2581otwiera": 4850,
  "kcja": 4851,
  "\u2581ono": 4852,
  "\u2581Chapter": 4853,
  "\u2581Mas": 4854,
  "\u2581components": 4855,
  "\u2581\u015blub": 4856,
  "\u2581Common": 4857,
  "\u2581lady": 4858,
  "\u2581fault": 4859,
  "itz": 4860,
  "\u2581udzia\u0142u": 4861,
  "kr\u00f3tce": 4862,
  "\u2581pe": 4863,
  "\u0141": 4864,
  "\u2581volume": 4865,
  "ious": 4866,
  "PL": 4867,
  "\u2581Warszaw": 4868,
  "\u2581fresh": 4869,
  "tes": 4870,
  "i\u0142a": 4871,
  "\u2581kosm": 4872,
  "\u2581interes": 4873,
  "\u2581nowej": 4874,
  "\u2581industrial": 4875,
  "\u2581wniosk\u00f3w": 4876,
  "\u2581interests": 4877,
  "\u2581lekarza": 4878,
  "\u2581krew": 4879,
  "\u2581r\u0119ce": 4880,
  "\u2581znajom": 4881,
  "kowi": 4882,
  "/2005": 4883,
  "\u2581physical": 4884,
  "ank": 4885,
  "\u2581wide": 4886,
  "szczy": 4887,
  "\u2581tygodniu": 4888,
  "\u2581wej\u015b\u0107": 4889,
  "\u2581operator": 4890,
  "\u2581balance": 4891,
  "\u2581Republiki": 4892,
  "\u2581Fi": 4893,
  "\u2581article": 4894,
  "\u2581milion\u00f3w": 4895,
  "8/": 4896,
  "\u2581Bre": 4897,
  "\u2581tests": 4898,
  "\u2581praca": 4899,
  "\u2581Gran": 4900,
  "\u2581sk\u0142ada": 4901,
  "lex": 4902,
  "des": 4903,
  "\u2581Christmas": 4904,
  "\u2581Europa": 4905,
  "\u2581wymogi": 4906,
  "\u2581Church": 4907,
  "\u2581Jul": 4908,
  "\u2581Actually": 4909,
  "ch\u0119": 4910,
  "\u2581pa\u0144stwami": 4911,
  "\u2581zakresu": 4912,
  "\u2581cheap": 4913,
  "ika": 4914,
  "36": 4915,
  "\u2581items": 4916,
  "\u2581osi\u0105gni\u0119cia": 4917,
  "stant": 4918,
  "\u2581loved": 4919,
  "\u2581Im": 4920,
  "\u2581DNA": 4921,
  "\u2581recent": 4922,
  "43": 4923,
  "\u2581pewne": 4924,
  "cznik": 4925,
  "\u2581installed": 4926,
  "\u2581Wsp\u00f3lnot\u0119": 4927,
  "\u2581usage": 4928,
  "da\u0142": 4929,
  "\u2581wi\u0119kszo\u015bci": 4930,
  "\u2581szcz\u0119\u015bcie": 4931,
  "\u2581seeing": 4932,
  "\u2581Name": 4933,
  "cj\u0105": 4934,
  "szym": 4935,
  "\u2581przyszed\u0142": 4936,
  "\u2581duties": 4937,
  "ming": 4938,
  "\u2581wyb\u00f3r": 4939,
  "\u2581Ac": 4940,
  "\u2581m\u00f3wi\u0105": 4941,
  "\u2581century": 4942,
  "piesz": 4943,
  "\u2581relation": 4944,
  "\u2581quiet": 4945,
  "\u2581setting": 4946,
  "\u2581Sto": 4947,
  "lick": 4948,
  "\u2581brzmi": 4949,
  "\u2581[2]": 4950,
  "\u2581dark": 4951,
  "cz\u0105\u0107": 4952,
  "He": 4953,
  "\u2581anty": 4954,
  "\u2581lack": 4955,
  "\u2581nadzoru": 4956,
  "\u2581establish": 4957,
  "czne": 4958,
  "czar": 4959,
  "\u2581przewidziane": 4960,
  "\u2581seat": 4961,
  "\u2581Urz\u0119dowym": 4962,
  "\u2581drugie": 4963,
  "\u2581Say": 4964,
  "\u2581Back": 4965,
  "\u2581wymog\u00f3w": 4966,
  "\u2581importance": 4967,
  "\u2581features": 4968,
  "\u2581Tar": 4969,
  "\u2581Follow": 4970,
  "MA": 4971,
  "ista": 4972,
  "\u2581za\u0142atwi": 4973,
  "\u2581Love": 4974,
  "\u2581While": 4975,
  "\u2581Tre": 4976,
  "\u2581student": 4977,
  "\u2581reduced": 4978,
  "\u2581opening": 4979,
  "\u2581les": 4980,
  "\u2581registered": 4981,
  "\u2581Far": 4982,
  "ual": 4983,
  "\u2581authorised": 4984,
  "\u2581glass": 4985,
  "\u2581Date": 4986,
  "czny": 4987,
  "\u2581uk\u0142ad": 4988,
  "board": 4989,
  "ute": 4990,
  "town": 4991,
  "\u2581Israel": 4992,
  "\u2581happening": 4993,
  "\u2581laws": 4994,
  "\u2581begin": 4995,
  "\u2581Jeden": 4996,
  "\u2581correct": 4997,
  "\u2581umie": 4998,
  "iczne": 4999,
  "\u2581Implementing": 5000,
  "\u2581image": 5001,
  "\u2581devices": 5002,
  "\u2581wind": 5003,
  "\u00f6": 5004,
  "\u2581czasem": 5005,
  "mal": 5006,
  "\u2581beyond": 5007,
  "\u2581czynno\u015bci": 5008,
  "\u2581camp": 5009,
  "szcze": 5010,
  "Col": 5011,
  "\u2581reszt": 5012,
  "ury": 5013,
  "\u25813:": 5014,
  "\u2581Never": 5015,
  "\u2581prowadzi\u0107": 5016,
  "got": 5017,
  "\u2581autor": 5018,
  "\u2581pracowa\u0107": 5019,
  "\u2581therapy": 5020,
  "\u2581Zjednoczonych": 5021,
  "\u2581dotycz\u0105cy": 5022,
  "\u2581kitchen": 5023,
  "pisa\u0107": 5024,
  "\u2581dangerous": 5025,
  "\u2581kap": 5026,
  "\u2581pa\u0144stwie": 5027,
  "woje": 5028,
  "\u258144": 5029,
  "tyk": 5030,
  "Mar": 5031,
  "\u2581ma\u0142o": 5032,
  "\u2581farm": 5033,
  "\u2581zobowi\u0105za\u0144": 5034,
  "\u2581Joint": 5035,
  "ssa": 5036,
  "\u2581krajowe": 5037,
  "\u2581samochodu": 5038,
  "cus": 5039,
  "rabia": 5040,
  "\u2581klienta": 5041,
  "PA": 5042,
  "\u2581wiedz\u0105": 5043,
  "nalaz\u0142": 5044,
  "\u2581Warsaw": 5045,
  "\u2581Programme": 5046,
  "\u2581obie": 5047,
  "\u2581Ziemi": 5048,
  "\u2581promote": 5049,
  "kl": 5050,
  "\u2581package": 5051,
  "ius": 5052,
  "\u00f3\u0142": 5053,
  "\u2581Leave": 5054,
  "\u2581We\u017a": 5055,
  "hor": 5056,
  "\u2581List": 5057,
  "\u2581kolej": 5058,
  "\u2581unique": 5059,
  "\u2581infrastructure": 5060,
  "\u2581Next": 5061,
  "\u2581crime": 5062,
  "\u2581behalf": 5063,
  "\u2581satellite": 5064,
  "urs": 5065,
  "lbi": 5066,
  "zb": 5067,
  "\u2581medicine": 5068,
  "\u2581followed": 5069,
  "\u2581Zosta\u0142": 5070,
  "\u2581accounts": 5071,
  "\u2581structure": 5072,
  "ical": 5073,
  "lis": 5074,
  "\u2581track": 5075,
  "\u2581tworzeniu": 5076,
  "\u2581wykorzystania": 5077,
  "\u2581Tim": 5078,
  "\u2581s\u0105dz\u0119": 5079,
  "\u2581kiss": 5080,
  "dza": 5081,
  "rak": 5082,
  "41": 5083,
  "col": 5084,
  "\u0142ow": 5085,
  "owali\u015bmy": 5086,
  "\u2581techniczne": 5087,
  "a\u0142y": 5088,
  "\u2581meant": 5089,
  "AR": 5090,
  "\u2581CD": 5091,
  "\u2581comments": 5092,
  "\u2581przyk\u0142ady": 5093,
  "\u2581w\u0142os\u00f3w": 5094,
  "\u2581delivery": 5095,
  "\u2581scene": 5096,
  "\u2581wewn\u0105trz": 5097,
  "\u2581za\u015b": 5098,
  "\u258155": 5099,
  "stin": 5100,
  "\u2581obok": 5101,
  "\u2581risks": 5102,
  "\u2581Convention": 5103,
  "\u2581prawnych": 5104,
  "\u2581Russian": 5105,
  "lina": 5106,
  "\u2581Open": 5107,
  "\u2581fi": 5108,
  "gl": 5109,
  "\u2581Res": 5110,
  "\u2581obtained": 5111,
  "\u2581Nor": 5112,
  "\u2581establishment": 5113,
  "\u2581odleg\u0142o\u015bci": 5114,
  "\u00f3wki": 5115,
  "\u2581evening": 5116,
  "\u2581Prawd": 5117,
  ",000": 5118,
  "\u2581Out": 5119,
  "\u2581efforts": 5120,
  "jan": 5121,
  "\u2581identified": 5122,
  "\u2581dobrym": 5123,
  "zdr": 5124,
  "\u2581wielo": 5125,
  "\u2581p\u00f3jdzie": 5126,
  "\u2581op\u0142at": 5127,
  "\u2581clinical": 5128,
  "arze": 5129,
  "\u2581acts": 5130,
  "year": 5131,
  "\u2581daleko": 5132,
  "\u2581procedur": 5133,
  "vers": 5134,
  "\u2581uda\u0142o": 5135,
  "\u2581regulation": 5136,
  "\u2581zakup": 5137,
  "\u2581ofiar": 5138,
  "\u2581middle": 5139,
  "\u2581mikro": 5140,
  "nis": 5141,
  "-8": 5142,
  "\u2581gospodarki": 5143,
  "\u2581twoich": 5144,
  "\u2581By\u0142o": 5145,
  "DA": 5146,
  "\u2581obs\u0142ugi": 5147,
  "\u2581zwykle": 5148,
  "\u2581FOR": 5149,
  "\u2581Today": 5150,
  "57": 5151,
  "\u2581Niemcy": 5152,
  "\u2581podstawowych": 5153,
  "\u2581zdj\u0119cie": 5154,
  "\u2581otrzyma": 5155,
  "ford": 5156,
  "\u2581Wtedy": 5157,
  "\u2581\u015bwi\u0119t": 5158,
  "\u25811).": 5159,
  "\u2581klub": 5160,
  "\u2581ability": 5161,
  "\u2581che": 5162,
  "\u2581podmiot\u00f3w": 5163,
  "\u2581rozmawia\u0107": 5164,
  "\u2581Tego": 5165,
  "\u2581race": 5166,
  "asza": 5167,
  "\u2581UN": 5168,
  "\u2581pen": 5169,
  "rek": 5170,
  "\u2581przyjmuje": 5171,
  "LE": 5172,
  "\u2581leading": 5173,
  "sol": 5174,
  "\u2581Kr\u00f3l": 5175,
  "\u2581Code": 5176,
  "\u2581kr": 5177,
  "\u2581Law": 5178,
  "\u2581comply": 5179,
  "\u2581dotycz\u0105cego": 5180,
  "\u2581gotowa": 5181,
  "\u2581lines": 5182,
  "fin": 5183,
  "\u2581Col": 5184,
  "tworzy\u0107": 5185,
  "37": 5186,
  "\u2581developing": 5187,
  "\u2581Austria": 5188,
  "dom": 5189,
  "\u2581cat": 5190,
  "\u2581Den": 5191,
  "bas": 5192,
  "\u017cy\u0142": 5193,
  "\u2581scientific": 5194,
  "\u2581przyw\u00f3z": 5195,
  "\u2581Numer": 5196,
  "\u2581obchodzi": 5197,
  "r\u00f3w": 5198,
  "\u2581extreme": 5199,
  "ram": 5200,
  "\u2581tydzie\u0144": 5201,
  "\u2581moved": 5202,
  "mark": 5203,
  "\u2581Role": 5204,
  "AN": 5205,
  "\u2581Financial": 5206,
  "\u2581sites": 5207,
  "\u2581worse": 5208,
  "\u2581artyku\u0142u": 5209,
  "ient": 5210,
  "ora": 5211,
  "\u2581freedom": 5212,
  "ology": 5213,
  "\u2581m\u0105\u017c": 5214,
  "\u2581\u015brodku": 5215,
  "\u2581rich": 5216,
  "\u2581dalsze": 5217,
  "kop": 5218,
  "pel": 5219,
  "zon": 5220,
  "\u0104": 5221,
  "\u2581performed": 5222,
  "\u2581PC": 5223,
  "\u2581Chin": 5224,
  "\u2581pewno\u015bci\u0105": 5225,
  "\u2581programs": 5226,
  "IS": 5227,
  "\u2581phrase": 5228,
  "\u2581jednostki": 5229,
  "pia": 5230,
  "\u2581funding": 5231,
  "\u2581do\u015bwiadczenie": 5232,
  "38": 5233,
  "ire": 5234,
  "\u2581Three": 5235,
  "ben": 5236,
  "mit": 5237,
  "\u2581Us\u0142ugi": 5238,
  "\u2581istotne": 5239,
  "\u2581\u015bcian": 5240,
  "\u2581wyra\u017anie": 5241,
  "\u2581ca": 5242,
  "\u2581advice": 5243,
  "NA": 5244,
  "\u2581Over": 5245,
  "berg": 5246,
  "\u2581Currently": 5247,
  "\u2581payments": 5248,
  "\u2581las": 5249,
  "\u2581strona": 5250,
  "\u2581handle": 5251,
  "\u2581w\u0142asne": 5252,
  "\u25811000": 5253,
  "sel": 5254,
  "znacz": 5255,
  "\u2581certificate": 5256,
  "\u2581pacjenta": 5257,
  "IC": 5258,
  "\u2581amazing": 5259,
  "\u2581Under": 5260,
  "\u2581Richard": 5261,
  "\u2581Last": 5262,
  "\u2581flat": 5263,
  "\u2581nowym": 5264,
  "\u2581Minister": 5265,
  "\u2581dziesi\u0105tk": 5266,
  "\u2581platform": 5267,
  "uzeum": 5268,
  "\u2581financing": 5269,
  "\u2581labour": 5270,
  "\u2581Parlament": 5271,
  "skrzy": 5272,
  "\u2581kiedykolwiek": 5273,
  "\u2581pool": 5274,
  "\u2581eight": 5275,
  "\u2581ball": 5276,
  "\u2581biur": 5277,
  "\u2581enable": 5278,
  "\u2581\u015bwiat\u0142a": 5279,
  "79": 5280,
  "\u2581Syn": 5281,
  "88": 5282,
  "\u2581\u015bwi": 5283,
  "\u2581wynika": 5284,
  "west": 5285,
  "\u2581kul": 5286,
  "\u2581par\u0119": 5287,
  "\u2581Mur": 5288,
  "\u2581lin": 5289,
  "\u2581si\u0142y": 5290,
  "ald": 5291,
  "oper": 5292,
  "\u2581summer": 5293,
  "\u2581susz": 5294,
  "\u2581machines": 5295,
  "\u2581statement": 5296,
  "\u2581states": 5297,
  "\u2581students": 5298,
  "\u2581quick": 5299,
  "\u2581sold": 5300,
  "\u2581movement": 5301,
  "ed\u0142ug": 5302,
  "\u2581wstrzykiwa": 5303,
  "\u2581Fac": 5304,
  "\u2581release": 5305,
  "\u2581adoption": 5306,
  "ST": 5307,
  "\u2581kas": 5308,
  "\u2581East": 5309,
  "OT": 5310,
  "9/": 5311,
  "\u2581spent": 5312,
  "\u2581zn\u00f3w": 5313,
  "\u2581join": 5314,
  "\u2581Ren": 5315,
  "\u2581Mad": 5316,
  "\u2581mi\u0142o": 5317,
  "ists": 5318,
  "\u2581Photo": 5319,
  "\u2581spokojn": 5320,
  "\u2581reading": 5321,
  "\u2581zwi\u0119kszenie": 5322,
  "cio": 5323,
  "\u2581~": 5324,
  "field": 5325,
  "cin": 5326,
  "\u2581Jej": 5327,
  "\u2581damage": 5328,
  "\u0142o\u017cy\u0142": 5329,
  "\u2581Trans": 5330,
  "\u2581ca\u0142kiem": 5331,
  "\u2581ograniczenia": 5332,
  "\u2581photo": 5333,
  "\u2581Review": 5334,
  "zacja": 5335,
  "prz": 5336,
  "\u2581Bas": 5337,
  "non": 5338,
  "\u2581cho\u0107": 5339,
  "\u2581umiej\u0119tno\u015bci": 5340,
  "ody": 5341,
  "\u2581otherwise": 5342,
  "\u2581drop": 5343,
  "\u2581option": 5344,
  "\u2581rodzin": 5345,
  "\u2581Cel": 5346,
  "\u2581powa\u017cnie": 5347,
  "\u2581przyk\u0142ad\u00f3w": 5348,
  "\u2581towar": 5349,
  "RR": 5350,
  "rez": 5351,
  "\u2581itp": 5352,
  "\u2581sectors": 5353,
  "\u2581proste": 5354,
  "\u2581dry": 5355,
  "\u2581regular": 5356,
  "\u2581vote": 5357,
  "\u2581Jim": 5358,
  "\u2581contracts": 5359,
  "KA": 5360,
  "\u2581concluded": 5361,
  "wor": 5362,
  "ckie": 5363,
  "ook": 5364,
  "7/": 5365,
  "\u2581ostatni": 5366,
  "\u2581exercise": 5367,
  "kor": 5368,
  "MP": 5369,
  "\u2581dokument\u00f3w": 5370,
  "\u2581zamiast": 5371,
  "\u2581innovation": 5372,
  "\u2581Takie": 5373,
  "\u2581zak\u0142ad": 5374,
  "\u2581element\u00f3w": 5375,
  "mas": 5376,
  "94": 5377,
  "\u2581cast": 5378,
  "\u2581names": 5379,
  "w\u0105": 5380,
  "\u2581kan": 5381,
  "\u2581Total": 5382,
  "\u2581negative": 5383,
  "\u2581wys": 5384,
  "\u2581Ciesz": 5385,
  "yk": 5386,
  "\u2581rodzaj": 5387,
  "\u2581park": 5388,
  "\u2581File": 5389,
  "\u2581transakcji": 5390,
  "\u2581operators": 5391,
  "j\u0105c\u0105": 5392,
  "\u2581Super": 5393,
  "\u2581fat": 5394,
  "\u258141": 5395,
  "\u2581Film": 5396,
  "\u2581sierpnia": 5397,
  "\u2581hang": 5398,
  "ult": 5399,
  "\u2581insulin": 5400,
  "\u2581amounts": 5401,
  "kaza\u0142": 5402,
  "\u2581maj\u0105cych": 5403,
  "\u2581Sho": 5404,
  "key": 5405,
  "\u2581Potem": 5406,
  "\u2581Max": 5407,
  "tin": 5408,
  "56": 5409,
  "onym": 5410,
  "\u2581bag": 5411,
  "hand": 5412,
  "\u2581driving": 5413,
  "\u2581emissions": 5414,
  "\u2581actual": 5415,
  "\u2581drog\u0119": 5416,
  "\u2581placed": 5417,
  "fil": 5418,
  "91": 5419,
  "\u2581sen": 5420,
  "\u2581pairs": 5421,
  "\u2581Nazwa": 5422,
  "\u2581Company": 5423,
  "\u2581requires": 5424,
  "\u2581participation": 5425,
  "\u2581worrie": 5426,
  "\u2581Gen": 5427,
  "ote": 5428,
  "dawa": 5429,
  "\u2581ko\u015bci": 5430,
  "\u2581medicinal": 5431,
  "\u2581statk\u00f3w": 5432,
  "\u2581serwis": 5433,
  "\u2581entered": 5434,
  "\u2581unto": 5435,
  "\u2581drug": 5436,
  "\u2581przestrzeni": 5437,
  "\u2581zna\u0107": 5438,
  "\u2581wonderful": 5439,
  "\u2581somewhere": 5440,
  "diction": 5441,
  "97": 5442,
  "\u2581tri": 5443,
  "pla": 5444,
  "\u258102": 5445,
  "\u2581najwi\u0119kszego": 5446,
  "\u2581europejskiej": 5447,
  "\u2581punkt\u00f3w": 5448,
  "\u2581statku": 5449,
  "krzy": 5450,
  "\u2581select": 5451,
  "\u2581W\u0142a\u015bciw": 5452,
  "\u2581representative": 5453,
  "\u2581former": 5454,
  "\u2581okre\u015bla": 5455,
  "1.": 5456,
  "\u2581accepted": 5457,
  "\u2581Ms": 5458,
  "AD": 5459,
  "\u2581terenie": 5460,
  "qua": 5461,
  "\u2581motor": 5462,
  "\u2581Dzieci": 5463,
  "\u2581wsp\u00f3lne": 5464,
  "\u2581Ltd": 5465,
  "\u2581bud\u017cetu": 5466,
  "4,": 5467,
  "\u2581regulatory": 5468,
  "\u2581et": 5469,
  "\u2581caught": 5470,
  "\u2581wyj\u015b\u0107": 5471,
  "\u2581tablets": 5472,
  "\u2581Black": 5473,
  "\u2581Security": 5474,
  "\u258153": 5475,
  "\u2581wrote": 5476,
  "69": 5477,
  "\u2581institution": 5478,
  "\u2581Dwa": 5479,
  "ches": 5480,
  "\u2581Number": 5481,
  "\u2581spiritual": 5482,
  "ert": 5483,
  "\u2581pozosta\u0142ych": 5484,
  "\u2581Protocol": 5485,
  "92": 5486,
  "4/": 5487,
  "tory": 5488,
  "istor": 5489,
  "\u2581tools": 5490,
  "\u2581Ireland": 5491,
  "\u2581creation": 5492,
  "jo": 5493,
  "\u2581Trzeba": 5494,
  "\u2581slow": 5495,
  "kg": 5496,
  "\u2581,\"": 5497,
  "\u2581favour": 5498,
  "\u2581Wystarczy": 5499,
  "\u2581Director": 5500,
  "\u258147": 5501,
  "\u2581boss": 5502,
  "\u2581problemu": 5503,
  "\u2581Italian": 5504,
  "\u2581demand": 5505,
  "\u2581aim": 5506,
  "ota": 5507,
  "\u2581heading": 5508,
  "\u2581wedding": 5509,
  "bol": 5510,
  "cel": 5511,
  "Jest": 5512,
  "\u2581Maria": 5513,
  "kazuj\u0105c": 5514,
  "6/": 5515,
  "eta": 5516,
  "\u2581count": 5517,
  "\u2581dokument": 5518,
  "\u2581120": 5519,
  "\u2581nikogo": 5520,
  "\u258185": 5521,
  "\u015bcij": 5522,
  "\u2581independent": 5523,
  "prywat": 5524,
  "\u2581elementy": 5525,
  "\u2581potrzebne": 5526,
  "\u2581Nowy": 5527,
  "lony": 5528,
  "chodz\u0119": 5529,
  "\u2581named": 5530,
  "\u2581showed": 5531,
  "\u2581translations": 5532,
  "\u2581planning": 5533,
  "\u2581podobne": 5534,
  "\u2581d\u017awi\u0119k": 5535,
  "\u2581dress": 5536,
  "\u2581ch": 5537,
  "\u2581Opis": 5538,
  "\u2581internetowej": 5539,
  "cro": 5540,
  "tyki": 5541,
  "\u2581wszystkiego": 5542,
  "\u258156": 5543,
  "\u2581led": 5544,
  "\u2581norm": 5545,
  "\u2581opportunities": 5546,
  "nem": 5547,
  "\u2581mini": 5548,
  "yd": 5549,
  "\u2581extent": 5550,
  "\u2581kupi\u0107": 5551,
  "\u2581mia\u0142y": 5552,
  "\u2581znajduj\u0105": 5553,
  "\u2581highest": 5554,
  "\u2581250": 5555,
  "\u2581publicznego": 5556,
  "\u2581pojazdu": 5557,
  "\u2581ride": 5558,
  "\u2581community": 5559,
  "\u2581shop": 5560,
  "\u258146": 5561,
  "\u2581Party": 5562,
  "\u2581ring": 5563,
  "\u2581serwer": 5564,
  "\u2581Sub": 5565,
  "\u2581uk\u0142adu": 5566,
  "\u2581Services": 5567,
  "\u2581zapewnienie": 5568,
  "zor": 5569,
  "\u2581vessels": 5570,
  "\u2581publicznej": 5571,
  "\u2581heat": 5572,
  "uri": 5573,
  "\u2581chcia\u0142bym": 5574,
  "mor": 5575,
  "\u2581Should": 5576,
  "\u2581Day": 5577,
  "\u2581po\u015brednictwem": 5578,
  "\u2581distribution": 5579,
  "\u2581limits": 5580,
  "ude": 5581,
  "\u2581presence": 5582,
  "elle": 5583,
  "\u2581sekcji": 5584,
  "char": 5585,
  "\u2581<": 5586,
  "\u015bnie": 5587,
  "\u2581certainly": 5588,
  "\u2581Sporz\u0105dzono": 5589,
  "\u2581symptoms": 5590,
  "\u2581[2],": 5591,
  "\u2581zmienia": 5592,
  "\u2581u\u017cy\u0107": 5593,
  "\u2581systemy": 5594,
  "\u2581okazji": 5595,
  "\u2581garden": 5596,
  "\u2581smell": 5597,
  "\u2581s\u0142\u00f3w": 5598,
  "\u2581KOMISJA": 5599,
  "\u2581border": 5600,
  "\u2581totally": 5601,
  "\u2581przewodnicz\u0105cy": 5602,
  "\u2581forum": 5603,
  "rzenie": 5604,
  "pa\u0142": 5605,
  "\u2581standing": 5606,
  "wiedzia\u0142em": 5607,
  "\u2581dum": 5608,
  "\u2581\u017cy": 5609,
  "\u2581wielki": 5610,
  "ok\u00f3\u0142": 5611,
  "\u2581PO": 5612,
  "\u2581reporting": 5613,
  "\u2581jump": 5614,
  "\u2581wnioski": 5615,
  "\u2581direction": 5616,
  "\u2581fuel": 5617,
  "\u2581ustanawiaj\u0105ce": 5618,
  "\u2581pieprz": 5619,
  "\u2581View": 5620,
  "\u2581policja": 5621,
  "..\"": 5622,
  "\u2581ci\u0105\u017cy": 5623,
  "\u2581offered": 5624,
  "\u2581firma": 5625,
  "but": 5626,
  "list": 5627,
  "ions": 5628,
  "rows": 5629,
  "ney": 5630,
  "\u2581Auto": 5631,
  "\u2581zgadza": 5632,
  "\u2581birth": 5633,
  "\u2581began": 5634,
  "\u258152": 5635,
  "wen": 5636,
  "af": 5637,
  "ms": 5638,
  "\u2581achieved": 5639,
  "\u2581trudne": 5640,
  "si\u0142": 5641,
  "\u2581flag": 5642,
  "\u2581kraj": 5643,
  "\u2581odpowiedzialny": 5644,
  "ump": 5645,
  "uj\u0105cy": 5646,
  "\u2581Ur": 5647,
  "\u2581sell": 5648,
  "\u2581gospodarczego": 5649,
  "itt": 5650,
  "\u2581president": 5651,
  "\u2581Cas": 5652,
  "\u2581cukru": 5653,
  "68": 5654,
  "yle": 5655,
  "\u2581steps": 5656,
  "\u2581zupe\u0142nie": 5657,
  "\u2581Watch": 5658,
  "p\u0142ac": 5659,
  "\u2581eks": 5660,
  "czn\u0105": 5661,
  "\u2581wersja": 5662,
  "rok": 5663,
  "\u2581pr\u00f3b": 5664,
  "based": 5665,
  "ywa": 5666,
  "dry": 5667,
  "\u2581reached": 5668,
  "\u2581praktyk": 5669,
  "\u2581funkcji": 5670,
  "arzy": 5671,
  "\u2581Health": 5672,
  "dz\u0105": 5673,
  "pokoi": 5674,
  "\u2581sprz\u0119t": 5675,
  "\u2581domestic": 5676,
  "\u0142atw": 5677,
  "\u2581screen": 5678,
  "\u2581zabija": 5679,
  "\u2581Mill": 5680,
  "\u2581requested": 5681,
  "-5": 5682,
  "\u2581soul": 5683,
  "erge": 5684,
  "\u2581wychodzi": 5685,
  "s\u0142aw": 5686,
  "wolni": 5687,
  "\u2581evil": 5688,
  "\u2581stoi": 5689,
  "\u2581wprowadzenia": 5690,
  "rz\u0119d": 5691,
  "\u2581czci": 5692,
  "\u2581accident": 5693,
  "CE": 5694,
  "\u2581sk\u0105d": 5695,
  "\u2581natomiast": 5696,
  "ater": 5697,
  "\u2581Sol": 5698,
  "SS": 5699,
  "64": 5700,
  "\u2581William": 5701,
  "dyna": 5702,
  "\u2581Forum": 5703,
  "\u2581metr\u00f3w": 5704,
  "\u2581complex": 5705,
  "\u2581affect": 5706,
  "\u2581item": 5707,
  "put": 5708,
  "\u2581practical": 5709,
  "\u2581strength": 5710,
  "\u2581military": 5711,
  "\u2581options": 5712,
  "\u2581terr": 5713,
  "\u2581prawem": 5714,
  "100": 5715,
  "lni": 5716,
  "TS": 5717,
  "\u2581India": 5718,
  "\u2581consumer": 5719,
  "\u2581finish": 5720,
  "\u258151": 5721,
  "esti": 5722,
  "\u2581tool": 5723,
  "\u2581huge": 5724,
  "wita": 5725,
  "\u2581w\u0142asnych": 5726,
  "ime": 5727,
  "lew": 5728,
  "bis": 5729,
  "\u2581lotniczych": 5730,
  "\u2581Remember": 5731,
  "\u2581observed": 5732,
  "\u2581konsument\u00f3w": 5733,
  "\u2581sources": 5734,
  "comm": 5735,
  "\u2581trwa": 5736,
  "europa": 5737,
  "tent": 5738,
  "ern": 5739,
  "nor": 5740,
  "\u2581proposals": 5741,
  "\u2581wej\u015bcia": 5742,
  "\u2581undertaking": 5743,
  "\u2581Ram": 5744,
  "\u2581Urz\u0105d": 5745,
  "\u2581prison": 5746,
  "\u2581producenta": 5747,
  "\u2581Table": 5748,
  "\u2581imagine": 5749,
  "edia": 5750,
  "\u2581komentarz": 5751,
  "\u2581gift": 5752,
  "\u2581easily": 5753,
  "rzuca": 5754,
  "rig": 5755,
  "\u2581pr\u00f3bowa\u0142": 5756,
  "\u2581gr": 5757,
  "\u2581Sil": 5758,
  ".1": 5759,
  "\u2581distance": 5760,
  "\u2581Oil": 5761,
  "\u2581wybiera": 5762,
  "\u2581wydatk\u00f3w": 5763,
  "\u2581pr\u00f3by": 5764,
  "\u2581wolno": 5765,
  "ky": 5766,
  "\u2581w\u0105troby": 5767,
  "\u2581zwraca": 5768,
  "\u2581alarm": 5769,
  "ra\u017ca": 5770,
  "unch": 5771,
  "\u2581contain": 5772,
  "\u2581m\u0142od": 5773,
  "tive": 5774,
  "\u2581nazwisko": 5775,
  "\u2581aware": 5776,
  "lair": 5777,
  "ville": 5778,
  "unk": 5779,
  "rr": 5780,
  "\u25811998": 5781,
  "\u2581seconds": 5782,
  "\u2581Dane": 5783,
  "\u2581zobowi\u0105zania": 5784,
  "\u2581kryteria": 5785,
  "2)": 5786,
  "Plus": 5787,
  "\u2581undertakings": 5788,
  "\u2581stali": 5789,
  "\u2581arm": 5790,
  "j\u0105ca": 5791,
  "\u2581marriage": 5792,
  "tyczna": 5793,
  "\u0142\u00f3w": 5794,
  "\u2581Once": 5795,
  "\u2581Light": 5796,
  "\u2581Mountain": 5797,
  "\u2581sprawia": 5798,
  "\u2581Grand": 5799,
  "\u2581books": 5800,
  "\u2581\u015blad": 5801,
  "\u2581pracowa\u0142": 5802,
  "\u2581Bio": 5803,
  "\u2581instrument\u00f3w": 5804,
  "\u2581Chrystusa": 5805,
  "\u2581cz\u0142owiekiem": 5806,
  "\u2581path": 5807,
  "\u2581kry": 5808,
  "\u258188": 5809,
  "\u2581mail": 5810,
  "oma": 5811,
  "\u2581wybra\u0107": 5812,
  "\u2581angielski": 5813,
  "rick": 5814,
  "over": 5815,
  "\u2581ANNEX": 5816,
  "\u2581powers": 5817,
  "\u2581wymagane": 5818,
  "\u2581600": 5819,
  "\u2581prowadzenia": 5820,
  "96": 5821,
  "czo": 5822,
  "\u2581suit": 5823,
  "\u2581sko\u0144czy\u0142": 5824,
  "\u2581okre\u015blonego": 5825,
  "onego": 5826,
  "\u2581REGULATION": 5827,
  "\u2581%": 5828,
  "\u2581exposure": 5829,
  "Prze": 5830,
  "tus": 5831,
  "\u258112.": 5832,
  "\u2581signed": 5833,
  "\u2581thousand": 5834,
  "\u2581plants": 5835,
  "\u2581b\u00f3l": 5836,
  "\u2581mog": 5837,
  "\u2581acting": 5838,
  "\u2581mog\u0142aby": 5839,
  "\u2581wk\u0142ad": 5840,
  "musi": 5841,
  "\u2581serve": 5842,
  "\u258149": 5843,
  "\u2581Sign": 5844,
  "\u2581kick": 5845,
  "\u2581Iron": 5846,
  "\u2581staje": 5847,
  "\u2581earlier": 5848,
  "\u2581mistake": 5849,
  "\u2581net": 5850,
  "\u2581amendments": 5851,
  "\u258193": 5852,
  "\u2581ourselves": 5853,
  "var": 5854,
  "\u2581(2": 5855,
  "\u2581kapitan": 5856,
  "\u2581practices": 5857,
  "\u2581muzyk": 5858,
  "\u258120%": 5859,
  "\u2581operational": 5860,
  "\u258162": 5861,
  "\u2581Mik": 5862,
  "\u2581Wielkie": 5863,
  "\u2581Model": 5864,
  "\u2581closed": 5865,
  "\u2581dost\u0119pnych": 5866,
  "\u2581Fe": 5867,
  "\u2581umiera": 5868,
  "\u2581musia\u0142a": 5869,
  "test": 5870,
  "\u2581equivalent": 5871,
  "m\u0119cz": 5872,
  "\u2581Dok\u0142adn": 5873,
  "\u2581Ham": 5874,
  "\u2581jako\u015b\u0107": 5875,
  "organ": 5876,
  "\u2581beat": 5877,
  "rant": 5878,
  "ady": 5879,
  "\u2581zawarte": 5880,
  "\u2581producer": 5881,
  "\u2581Although": 5882,
  "\u2581\u015bci": 5883,
  "\u2581determine": 5884,
  "\u0438": 5885,
  "\u2581morderstw": 5886,
  "\u2581Charles": 5887,
  "\u2581Twi": 5888,
  "\u2581implemented": 5889,
  "\u2581prosto": 5890,
  "\u2581Bor": 5891,
  "\u2581skoro": 5892,
  "hur": 5893,
  "\u2581draft": 5894,
  "500": 5895,
  "kup": 5896,
  "\u258184": 5897,
  "\u2581j\u0119zyka": 5898,
  "\u2581easier": 5899,
  "\u2581contribute": 5900,
  "niejsze": 5901,
  "\u2581--": 5902,
  "76": 5903,
  "\u2581Ali": 5904,
  "\u2581consumers": 5905,
  "\u2581Holy": 5906,
  "\u2581island": 5907,
  "\u2581danej": 5908,
  "\u2581mod": 5909,
  "\u2581protected": 5910,
  "\u2581rozwi\u0105zanie": 5911,
  "\u2581traffic": 5912,
  "ave": 5913,
  "\u2581registration": 5914,
  "/01": 5915,
  "\u2581p\u00f3j\u015b": 5916,
  "\u2581Fu": 5917,
  "\u2581rozszerzenie": 5918,
  "\u0119dzie": 5919,
  "\u2581(6)": 5920,
  "\u2581link": 5921,
  "\u2581Zgadza": 5922,
  "\u2581grant": 5923,
  "chodz\u0105": 5924,
  "\u2581email": 5925,
  "anka": 5926,
  "\u2581AS": 5927,
  "\u2581length": 5928,
  "\u2581Bru": 5929,
  "\u2581brand": 5930,
  "\u2581Euratom": 5931,
  "\u2581osi\u0105gn\u0105\u0107": 5932,
  "\u2581Fil": 5933,
  "\u2581Tru": 5934,
  "\u2581produce": 5935,
  "\u2581selected": 5936,
  "\u2581maintenance": 5937,
  "\u2581match": 5938,
  "\u2581finished": 5939,
  "rys": 5940,
  "\u2581wersji": 5941,
  "\u2581inicjatywy": 5942,
  "\u2581prove": 5943,
  "\u2581inni": 5944,
  "\u2581termin": 5945,
  "owni": 5946,
  "\u2581ensuring": 5947,
  "\u2581sk\u00f3ry": 5948,
  "\u2581funduszy": 5949,
  "89": 5950,
  "\u2581sp\u00f3\u0142ki": 5951,
  "-4": 5952,
  "\u2581regulations": 5953,
  "\u2581w\u0142adz": 5954,
  "ray": 5955,
  "\u2581regionie": 5956,
  "\u2581proper": 5957,
  "\u2581cultural": 5958,
  "\u2581wypadek": 5959,
  "\u2581failure": 5960,
  "ware": 5961,
  "\u2581bought": 5962,
  "\u2581dodaje": 5963,
  "tura": 5964,
  "\u2581kamer": 5965,
  "\u2581\u017by": 5966,
  "fon": 5967,
  "\u2581properties": 5968,
  "\u2581gold": 5969,
  "\u2581europejskiego": 5970,
  "\u2581szans\u0119": 5971,
  "\u2581supporting": 5972,
  "\u2581Spanish": 5973,
  "\u2581factors": 5974,
  "\u2581prawdopodobnie": 5975,
  "\u2581sitting": 5976,
  "\u2581zmienione": 5977,
  "\u2581Private": 5978,
  "\u2581zaleca": 5979,
  "\u2581Mother": 5980,
  "ept": 5981,
  "\u2581monitorowania": 5982,
  "\u2581matki": 5983,
  "illy": 5984,
  "\u2581Us": 5985,
  "\u0105\u017c": 5986,
  "\u25811997": 5987,
  "\u2581favor": 5988,
  "\u2581tygodnie": 5989,
  "\u2581szkole": 5990,
  "\u2581lying": 5991,
  "....": 5992,
  "\u2581pozosta\u0142e": 5993,
  "51": 5994,
  "\u2581miejscowo\u015bci": 5995,
  "\u2581sight": 5996,
  "\u2581znak": 5997,
  "\u2581increasing": 5998,
  "\u2581availability": 5999,
  "\u2581treat": 6000,
  "\u2581znaczenia": 6001,
  "tron": 6002,
  "some": 6003,
  "\u2581zacz\u0105\u0142": 6004,
  "OW": 6005,
  "\u2581tysi\u0119cy": 6006,
  "\u2581watching": 6007,
  "\u2581association": 6008,
  "\u2581Russia": 6009,
  "\u2581symbol": 6010,
  "52": 6011,
  "\u2581do\u015bwiadczenia": 6012,
  "\u2581przewiduje": 6013,
  "\u2581rad\u0119": 6014,
  "rin": 6015,
  "plat": 6016,
  "Welcome": 6017,
  "\u2581wy\u0142\u0105czeniem": 6018,
  "\u2581wystarczaj\u0105co": 6019,
  "\u2581nobody": 6020,
  "\u2581placebo": 6021,
  "\u25811995": 6022,
  "\u2581badaniach": 6023,
  "\u2581dob\u0119": 6024,
  "brano": 6025,
  "rus": 6026,
  "66": 6027,
  "\u2581satelitarne": 6028,
  "\u2581Big": 6029,
  "\u017adzi": 6030,
  "\u2581stick": 6031,
  "\u2581Obiec": 6032,
  "chroni": 6033,
  "wszy": 6034,
  "\u2581wymagania": 6035,
  "\u2581mimo": 6036,
  "ces": 6037,
  "\u2581Samo": 6038,
  "bus": 6039,
  "mi\u0119dzynarodowych": 6040,
  "\u2581submit": 6041,
  "j\u0105cym": 6042,
  "Com": 6043,
  "ownik": 6044,
  "\u2581nosi": 6045,
  "\u2581r\u00f3\u017c": 6046,
  "\u2581famo": 6047,
  "\u2581Ana": 6048,
  "rski": 6049,
  "\u2581ZA": 6050,
  "cur": 6051,
  "67": 6052,
  "\u2581cells": 6053,
  "rzuci\u0142": 6054,
  "\u2581lepsze": 6055,
  "\u2581czu\u0142": 6056,
  "\u2581White": 6057,
  "\u2581listy": 6058,
  "\u2581wymienione": 6059,
  "\u2581maintain": 6060,
  "\u015bwiet": 6061,
  "\u2581przecie\u017c": 6062,
  "\u2581applicant": 6063,
  "sum": 6064,
  "\u2581razu": 6065,
  "\u2581kwiat": 6066,
  "\u2581Market": 6067,
  "\u2581Best": 6068,
  "rzecie\u017c": 6069,
  "\u2581equipped": 6070,
  "\u2581porozumienia": 6071,
  "\u2581Najlepsz": 6072,
  "ida": 6073,
  "ni\u0105": 6074,
  "ations": 6075,
  "\u2581pani\u0105": 6076,
  "\u2581ISO": 6077,
  "\u2581ZA\u0141\u0104CZNIK": 6078,
  "\u2581papier": 6079,
  "\u2581claim": 6080,
  "\u2581og\u00f3lne": 6081,
  "\u258189": 6082,
  "\u2581ucieka": 6083,
  "\u2581doubt": 6084,
  "\u2581lud\u017ami": 6085,
  "\u2581resolution": 6086,
  "eth": 6087,
  "\u2581systemie": 6088,
  "\u2581pacjent": 6089,
  "izer": 6090,
  "cept": 6091,
  "\u2581podj\u0105\u0107": 6092,
  "\u2581wierz\u0119": 6093,
  "agon": 6094,
  "\u25814:": 6095,
  "prost": 6096,
  "onu": 6097,
  "\u2581broken": 6098,
  "\u2581uzyskania": 6099,
  "\u2581kawy": 6100,
  "ose": 6101,
  "\u2581Nad": 6102,
  "\u2581meetings": 6103,
  "\u2581braci": 6104,
  "\u2581Unia": 6105,
  "\u258154": 6106,
  "tas": 6107,
  "\u2581guests": 6108,
  "\u2581boat": 6109,
  "\u2581sprzeda\u017c": 6110,
  "\u2581oprogramowanie": 6111,
  "oo": 6112,
  "\u2581gospodarczej": 6113,
  "nte": 6114,
  "pr": 6115,
  "\u2581Indian": 6116,
  "\u2581wzywa": 6117,
  "\u25812-": 6118,
  "Pa": 6119,
  "Tak": 6120,
  "0%": 6121,
  "\u2581ma\u0142ych": 6122,
  "\u2581phase": 6123,
  "\u258111.": 6124,
  "/10": 6125,
  "\u2581careful": 6126,
  "e\u0142": 6127,
  "\u2581advantage": 6128,
  "\u2581talked": 6129,
  "\u2581w\u0142a\u015bciwy": 6130,
  "\u2581nowa": 6131,
  "\u2581p\u0142yt": 6132,
  "\u2581Saturday": 6133,
  "\u2581tr": 6134,
  "\u2581concern": 6135,
  "\u2581bear": 6136,
  "\u2581occur": 6137,
  "\u2581excellent": 6138,
  "hat": 6139,
  "\u2581Fer": 6140,
  "\u2581rodzina": 6141,
  "\u2581Policy": 6142,
  "\u2581wsp\u00f3lnotowego": 6143,
  "\u2581laugh": 6144,
  "\u2581specjaln": 6145,
  "\u2581konieczno\u015bci": 6146,
  "\u2581budynku": 6147,
  "\u2581initial": 6148,
  "\u2581autobus": 6149,
  "61": 6150,
  "ned": 6151,
  "uc": 6152,
  "\u2581kra": 6153,
  "\u2581technologies": 6154,
  "\u2581przemys\u0142": 6155,
  "\u2581wieczorem": 6156,
  "\u00fc": 6157,
  "\u2581appreciate": 6158,
  "\u2581Stany": 6159,
  "\u2581records": 6160,
  "MI": 6161,
  "\u2581cen\u0119": 6162,
  "\u2581ludziom": 6163,
  "\u2581saved": 6164,
  "\u258161": 6165,
  "\u2581dow\u00f3d": 6166,
  "\u2581pi\u0119kne": 6167,
  "\u2581kod": 6168,
  "\u2581basen": 6169,
  "This": 6170,
  "ef": 6171,
  "\u2581metod": 6172,
  "\u2581Bel": 6173,
  "ath": 6174,
  "\u2581cud": 6175,
  "\u258106": 6176,
  "\u2581najlepszych": 6177,
  "\u2581Med": 6178,
  "\u2581drugs": 6179,
  "\u2581witness": 6180,
  "\u2581st\u0119\u017cenia": 6181,
  "\u2581comment": 6182,
  "\u2581Test": 6183,
  "://": 6184,
  "\u2581najlepiej": 6185,
  "\u2581anywhere": 6186,
  "\u2581Kan": 6187,
  "rozumia": 6188,
  "mann": 6189,
  "including": 6190,
  "\u2581ustanawiaj\u0105cy": 6191,
  "prawia": 6192,
  "\u2581taste": 6193,
  "owano": 6194,
  "\u2581leczenie": 6195,
  "\u2581mobile": 6196,
  "\u2581Gro": 6197,
  "\u2581by\u0142by": 6198,
  "\u2581articles": 6199,
  "\u2581remains": 6200,
  "w\u00f3d": 6201,
  "\u2581Toilet": 6202,
  "press": 6203,
  "prosi\u0107": 6204,
  "\u2581conduct": 6205,
  "\u2581gwarancji": 6206,
  "\u2581wiecz\u00f3r": 6207,
  "\u2581nieco": 6208,
  "54": 6209,
  "\u2581uratowa": 6210,
  "93": 6211,
  "81": 6212,
  "\u2581ak": 6213,
  "ena": 6214,
  "\u2581rad": 6215,
  "\u2581kot": 6216,
  "\u2581ga": 6217,
  "\u2581zesp\u00f3\u0142": 6218,
  "\u2581czterech": 6219,
  "\u2581stosownych": 6220,
  "r\u00f3d": 6221,
  "\u2581mor": 6222,
  "\u2581liczb\u0119": 6223,
  "\u2581FA": 6224,
  "\u2581connected": 6225,
  "\u2581completed": 6226,
  "\u2581wal": 6227,
  "\u2581Cele": 6228,
  "\u2581ustalenia": 6229,
  "Ko": 6230,
  "bija": 6231,
  "\u258172": 6232,
  "\u2581killer": 6233,
  "\u2581ton": 6234,
  "\u2581miast": 6235,
  "\u2581toilet": 6236,
  "\u2581characteristics": 6237,
  "\u2581functions": 6238,
  "\u2581Mc": 6239,
  "\u2581\u0142": 6240,
  "\u2581Ter": 6241,
  "\u2581Main": 6242,
  "\u2581Coll": 6243,
  "\u2581Nadal": 6244,
  "\u2581cancer": 6245,
  "\u2581spotka": 6246,
  "\u2581Think": 6247,
  "\u2581skills": 6248,
  "\u2581stopped": 6249,
  "\u2581promotion": 6250,
  "\u2581quantities": 6251,
  "mog": 6252,
  "\u258195": 6253,
  "\u2581walki": 6254,
  "\u2581zaledwie": 6255,
  "\u2581(...)": 6256,
  "\u2581Porozumienia": 6257,
  "\u2581obszaru": 6258,
  "fl": 6259,
  "\u2581Food": 6260,
  "\u2581ochron\u0119": 6261,
  "\u2581customer": 6262,
  "\u2581neither": 6263,
  "\u2581ostatnie": 6264,
  "SA": 6265,
  "\u2581odniesienia": 6266,
  "\u2581Powinni": 6267,
  "\u2581uwierzy\u0107": 6268,
  "\u2581dotycz\u0105cej": 6269,
  "\u2581broke": 6270,
  "\u2581rzeczywi\u015bcie": 6271,
  "\u2581\u017ar\u00f3de\u0142": 6272,
  "ester": 6273,
  "wi\u0105": 6274,
  "\u2581ciekaw": 6275,
  "\u2581James": 6276,
  "\u2581dost\u0119pny": 6277,
  "aba": 6278,
  "\u2581\u017beby": 6279,
  "\u2581medium": 6280,
  "\u2581twice": 6281,
  "\u2581zniszczy": 6282,
  "\u2581obszarach": 6283,
  "\u2581przyj\u0119cie": 6284,
  "\u2581\u0141": 6285,
  "\u2581rady": 6286,
  "\u2581rynk\u00f3w": 6287,
  "\u2581bibli": 6288,
  "nar": 6289,
  "\u2581>": 6290,
  "\u2581aspects": 6291,
  "\u2581Tym": 6292,
  "\u2581club": 6293,
  "\u2581okazj": 6294,
  "iny": 6295,
  "\u2581busy": 6296,
  "84": 6297,
  "rki": 6298,
  "EGO": 6299,
  "\u2581helped": 6300,
  "\u2581Dia": 6301,
  "\u2581emergency": 6302,
  "\u2581robi\u0105": 6303,
  "\u2581wojny": 6304,
  "\u2581nauczyciel": 6305,
  "\u2581przedsi\u0119biorcy": 6306,
  "\u2581influence": 6307,
  "\u2581pilot": 6308,
  "\u2581gentlemen": 6309,
  "rz\u0105": 6310,
  "\u2581poprawy": 6311,
  "\u2581programy": 6312,
  "eniem": 6313,
  "\u2581g\u0142ow\u0119": 6314,
  "\u2581panel": 6315,
  "\u2581raise": 6316,
  "\u2581Sara": 6317,
  "bieg": 6318,
  "back": 6319,
  "mp": 6320,
  "uit": 6321,
  "order": 6322,
  "\u2581master": 6323,
  "\u2581severe": 6324,
  "\u2581culture": 6325,
  "Bo": 6326,
  "rate": 6327,
  "\u2581none": 6328,
  "\u2581zasadzie": 6329,
  "\u2581extended": 6330,
  "ko\u0142o": 6331,
  "\u2581miesi\u0105c": 6332,
  "\u2581ice": 6333,
  "\u2581miles": 6334,
  "\u2581B\u0119dziemy": 6335,
  "\u2581Transport": 6336,
  "\u2581forever": 6337,
  "ians": 6338,
  "87": 6339,
  "\u2581hundred": 6340,
  "\u2581wi\u0119ksze": 6341,
  "\u2581song": 6342,
  "cych": 6343,
  "\u25813-": 6344,
  "\u2581clothes": 6345,
  "\u2581napisa\u0142": 6346,
  "78": 6347,
  "\u2581families": 6348,
  "hrze\u015bcijan": 6349,
  "\u2581Kod": 6350,
  "\u2581addressed": 6351,
  "\u2581Vol": 6352,
  "\u2581virus": 6353,
  "\u2581du\u017cy": 6354,
  "dpowiedzialno\u015bci": 6355,
  "\u25811996": 6356,
  "\u2581Try": 6357,
  "\u2581obc": 6358,
  "\u2581character": 6359,
  "\u2581discuss": 6360,
  "[": 6361,
  "lig": 6362,
  "\u2581tekst": 6363,
  "\u2581Hel": 6364,
  "\u2581chrze": 6365,
  "zji": 6366,
  "czego": 6367,
  "\u2581BE": 6368,
  "\u2581Chocia\u017c": 6369,
  "iti": 6370,
  "\u2581er": 6371,
  "\u2581booking": 6372,
  "pat": 6373,
  "\u2581zwi\u0119kszenia": 6374,
  "86": 6375,
  "\u2581majority": 6376,
  "\u2581although": 6377,
  "hole": 6378,
  "\u2581ulubion": 6379,
  "\u2581rzeczywisto\u015bci": 6380,
  "cop": 6381,
  "\u2581alfa": 6382,
  "\u2581Report": 6383,
  "nov": 6384,
  "\u2581zrozumie\u0107": 6385,
  "\u2581efficient": 6386,
  "\u2581Reg": 6387,
  "\u2581przegl\u0105du": 6388,
  "\u2581integrated": 6389,
  "\u2581Year": 6390,
  "\u2581ECB": 6391,
  "\u2581entirety": 6392,
  "\u2581rozumieniu": 6393,
  "\u258192": 6394,
  "\u2581obligation": 6395,
  "\u2581square": 6396,
  "\u2581kapita\u0142u": 6397,
  "\u2581tajemnic": 6398,
  "\u2581wystaw": 6399,
  "met": 6400,
  "\u2581u\u017cytkownika": 6401,
  "EX": 6402,
  "\u2581Land": 6403,
  "\u2581dowiedzie\u0107": 6404,
  "\u2581Safety": 6405,
  "ato": 6406,
  "nek": 6407,
  "\u2581d\u0142u\u017cej": 6408,
  "\u2581sk\u0142ad": 6409,
  "letni": 6410,
  "\u2581lived": 6411,
  "\u2581button": 6412,
  "\u2581w\u0142a\u015bciwie": 6413,
  "prowadzi\u0142": 6414,
  "\u2581Ger": 6415,
  "\u2581concerns": 6416,
  "\u2581UK": 6417,
  "\u2581Language": 6418,
  "\u2581ogrod": 6419,
  "\u2581wyci\u0105g": 6420,
  "\u2581driver": 6421,
  "\u2581Turkey": 6422,
  "lt": 6423,
  "\u2581band": 6424,
  "\u2581daty": 6425,
  "\u2581w\u0142asnej": 6426,
  "ade": 6427,
  "\u2581przypomina": 6428,
  "dia": 6429,
  "\u2581Support": 6430,
  "\u2581Sh": 6431,
  "\u2581exist": 6432,
  "\u2581categories": 6433,
  "\u2581exceeding": 6434,
  "sign": 6435,
  "acyjne": 6436,
  "\u2581instalacji": 6437,
  "\u2581priority": 6438,
  "\u2581views": 6439,
  "\u2581opowiada": 6440,
  "\u2581bieg": 6441,
  "\u2581biura": 6442,
  "fen": 6443,
  "\u2581client": 6444,
  "\u2581passed": 6445,
  "\u258174": 6446,
  "rl": 6447,
  "archi": 6448,
  "\u2581w\u00f3wczas": 6449,
  "\u2581expressed": 6450,
  "\u2581jaj": 6451,
  "\u2581umys\u0142": 6452,
  "\u2581s\u0142u\u017cby": 6453,
  "\u2581preparatu": 6454,
  "\u2581cars": 6455,
  "ue": 6456,
  "\u2581M\u00f3g\u0142": 6457,
  "\u2581prejudice": 6458,
  "\u2581koni": 6459,
  "\u2581infrastruktury": 6460,
  "\u2581projekty": 6461,
  "\u2581School": 6462,
  "sob": 6463,
  "\u2581sin": 6464,
  "\u2581Area": 6465,
  "\u2581zwr\u00f3ci\u0107": 6466,
  "\u2581ufa": 6467,
  "\u2581digital": 6468,
  "uta": 6469,
  "\u2581fil": 6470,
  "-10": 6471,
  "\u2581resulting": 6472,
  "law": 6473,
  "\u2581wykonawcze": 6474,
  "\u258105": 6475,
  "72": 6476,
  "\u2581urz\u0105dzenie": 6477,
  "\u2581brata": 6478,
  "yli": 6479,
  "\u2581profile": 6480,
  "\u2581zwi\u0105zek": 6481,
  "\u2581samych": 6482,
  "\u2581stosowanych": 6483,
  "\u2581Master": 6484,
  "\u2581rodzice": 6485,
  "\u2581Energy": 6486,
  "\u2581Jew": 6487,
  "\u2581\u03bc": 6488,
  "\u2581http": 6489,
  "cha": 6490,
  "\u2581Another": 6491,
  "\u2581zastanawia": 6492,
  "ily": 6493,
  "\u2581investments": 6494,
  "\u2581plane": 6495,
  "\u2581straci\u0142": 6496,
  "\u2581drugim": 6497,
  "\u2581\u015bwiat\u0142o": 6498,
  "0/": 6499,
  "eczka": 6500,
  "\u2581oprogramowania": 6501,
  "rzenia": 6502,
  "\u2581przyj\u0105\u0107": 6503,
  "\u2581Des": 6504,
  "bert": 6505,
  "light": 6506,
  "53": 6507,
  "\u2581recently": 6508,
  "\u2581tired": 6509,
  "\u2581warm": 6510,
  "tt": 6511,
  "\u2581killing": 6512,
  "\u2581wyst\u0105pienia": 6513,
  "\u2581walking": 6514,
  "oll": 6515,
  "\u2581straci": 6516,
  "\u2581situated": 6517,
  "\u2581surprise": 6518,
  "ign": 6519,
  "\u2581success": 6520,
  "\u2581approximately": 6521,
  "\u2581technicznych": 6522,
  "\u2581instytucje": 6523,
  "\u2581rodzaje": 6524,
  "\u2581Produkt": 6525,
  "\u2581akcji": 6526,
  "\u2581integration": 6527,
  "\u2581przypadk\u00f3w": 6528,
  "\u0142o\u017cy": 6529,
  "\u2581bezpiecze\u0144stwo": 6530,
  "\u2581Wo": 6531,
  "\u2581north": 6532,
  "\u2581zamiar": 6533,
  "\u2581useful": 6534,
  "\u2581tea": 6535,
  "\u2581zmiana": 6536,
  "\u2581tender": 6537,
  "\u2581learning": 6538,
  "hl": 6539,
  "\u2581Bath": 6540,
  "\u2581grow": 6541,
  "\u2581pi\u0119ciu": 6542,
  "SI": 6543,
  "\u2581spo\u0142ecznych": 6544,
  "\u2581testing": 6545,
  "owan\u0105": 6546,
  "\u2581growing": 6547,
  "\u2581podstawowego": 6548,
  "\u2581ksi\u0105\u017ck": 6549,
  "ative": 6550,
  "\u2581drawn": 6551,
  "\u2581style": 6552,
  "\u2581iron": 6553,
  "max": 6554,
  "\u2581ofert": 6555,
  "\u2581Move": 6556,
  "\u2581zakwaterowanie": 6557,
  "pic": 6558,
  "\u2581excit": 6559,
  "\u2581narz\u0119dzi": 6560,
  "\u2581skuteczno\u015bci": 6561,
  "\u2581debt": 6562,
  "-12": 6563,
  "bul": 6564,
  "kr\u0119t": 6565,
  "\u2581w\u0142a\u015bciwo\u015bci": 6566,
  "pi\u0119": 6567,
  "\u2581conditioning": 6568,
  "\u2581ski": 6569,
  "\u2581Pomoc": 6570,
  "\u2581initiative": 6571,
  "\u2581aplikacj": 6572,
  "\u2581processes": 6573,
  "ax": 6574,
  "ini": 6575,
  "\u2581ideal": 6576,
  "uter": 6577,
  "\u2581proud": 6578,
  "Al": 6579,
  "\u2581affected": 6580,
  "\u2581wewn\u0119trznego": 6581,
  "\u2581karty": 6582,
  "\u2581koszyk": 6583,
  "\u2581przychodzi": 6584,
  "\u2581kt\u00f3rymi": 6585,
  "\u2581opieki": 6586,
  "\u2581ci\u0119\u017car": 6587,
  "\u2581calculated": 6588,
  "olog": 6589,
  "nas": 6590,
  "\u2581\u017ar\u00f3d\u0142a": 6591,
  "\u2581horse": 6592,
  "RA": 6593,
  "\u2581proceedings": 6594,
  "\u2581\u015brodek": 6595,
  "\u2581players": 6596,
  "\u2581spotyka": 6597,
  "AP": 6598,
  "\u2581nieruchomo\u015bci": 6599,
  "\u2581szkolenia": 6600,
  "uj\u0105cych": 6601,
  "\u2581Box": 6602,
  "\u2581Jean": 6603,
  "\u2581suitable": 6604,
  "table": 6605,
  "\u2581Association": 6606,
  "\u2581appear": 6607,
  "\u2581EBC": 6608,
  "\u2581Papier": 6609,
  "\u2581gotowy": 6610,
  "\u2581procedur\u0105": 6611,
  "\u2581reality": 6612,
  "\u2581dniach": 6613,
  "\u2581learned": 6614,
  "lov": 6615,
  "\u2581wprowadzenie": 6616,
  "jak": 6617,
  "\u2581podatku": 6618,
  "\u2581installation": 6619,
  "\u2581spotka\u0107": 6620,
  "\u2581pregnant": 6621,
  "\u2581dyrektyw\u0105": 6622,
  "eria": 6623,
  "k\u0142": 6624,
  "\u2581tasks": 6625,
  "\u2581notified": 6626,
  "\u2581Pas": 6627,
  "\u2581godzin\u0119": 6628,
  "\u2581sze\u015b\u0107": 6629,
  "\u2581informed": 6630,
  ".10": 6631,
  "\u2581Grupa": 6632,
  "IE": 6633,
  "\u2581receiving": 6634,
  "ladies": 6635,
  "sc": 6636,
  "\u2581memory": 6637,
  "cho": 6638,
  "\u2581Doktor": 6639,
  "bili": 6640,
  "\u2581breakfast": 6641,
  "CO": 6642,
  "\u2581Him": 6643,
  "\u2581science": 6644,
  "\u2581p\u00f3\u017ano": 6645,
  "\u2581sing": 6646,
  "58": 6647,
  "xi": 6648,
  "isation": 6649,
  "\u2581g\u00f3r\u0119": 6650,
  "#": 6651,
  "\u2581Sometimes": 6652,
  "6%": 6653,
  "\u2581jakich": 6654,
  "\u2581prawdziwe": 6655,
  "\u2581godz": 6656,
  "\u2581info": 6657,
  "az": 6658,
  "\u2581trudno\u015bci": 6659,
  "\u2581stanowisko": 6660,
  "\u25815%": 6661,
  "cott": 6662,
  "\u2581officer": 6663,
  "\u2581pozwoli\u0107": 6664,
  "\u2581USD": 6665,
  "rem": 6666,
  "\u2581uznaje": 6667,
  "wanie": 6668,
  "\u2581conference": 6669,
  "\u2581drog\u0105": 6670,
  "\u2581skutk\u00f3w": 6671,
  "kh": 6672,
  "\u2581samochod\u00f3w": 6673,
  "\u2581d\u00f3\u0142": 6674,
  "post": 6675,
  "\u2581aktyw\u00f3w": 6676,
  "iczny": 6677,
  "\u2581CE": 6678,
  "ni\u017c": 6679,
  "tym": 6680,
  "\u2581NINIEJSZE": 6681,
  "\u2581representatives": 6682,
  "\u2581m\u0119\u017ca": 6683,
  "\u2581supports": 6684,
  "\u2581gor\u0105c": 6685,
  "\u2581object": 6686,
  "\u2581magic": 6687,
  "eter": 6688,
  "ange": 6689,
  "\u2581m\u0142odych": 6690,
  "IM": 6691,
  "\u2581szaf": 6692,
  "\u2581criminal": 6693,
  "\u2581birthday": 6694,
  "\u2581telefonu": 6695,
  "\u2581camera": 6696,
  "\u2581Wydaj": 6697,
  "\u2581ROZPORZ\u0104DZENIE": 6698,
  "rozumie": 6699,
  "\u2581\u015bwietle": 6700,
  "a\u0144ski": 6701,
  "\u2581fields": 6702,
  "\u2581Gotow": 6703,
  "\u2581challenges": 6704,
  "\u2581pr\u00f3buj": 6705,
  "\u2581teaching": 6706,
  "tycznych": 6707,
  "\u25811994": 6708,
  "\u2581umo\u017cliwia": 6709,
  "\u2581nazwy": 6710,
  "atory": 6711,
  "\u2581Without": 6712,
  "\u2581znale\u017ali": 6713,
  "\u2581J\u0119zyk": 6714,
  "\u2581restaurant": 6715,
  "\u2581Museum": 6716,
  "\u043e": 6717,
  "\u2581spo\u0142eczno\u015bci": 6718,
  "fra": 6719,
  "\u2581Oba": 6720,
  "\u2581samotn": 6721,
  "jne": 6722,
  "\u2581Turn": 6723,
  "\u2581dyrektyw\u0119": 6724,
  "\u2581r\u0119k\u0119": 6725,
  "................": 6726,
  "\u2581wolno\u015bci": 6727,
  "\u2581doda\u0107": 6728,
  "\u2581banks": 6729,
  "\u2581pokaz": 6730,
  "\u2581errors": 6731,
  "\u2581rain": 6732,
  "\u2581Doctor": 6733,
  "\u2581tree": 6734,
  "\u2581victim": 6735,
  "\u2581corresponding": 6736,
  "\u2581powod\u00f3w": 6737,
  "\u2581zaburzenia": 6738,
  "\u2581cierpi": 6739,
  "ille": 6740,
  "\u2581pozwolenia": 6741,
  "\u2581Napis": 6742,
  "daje": 6743,
  "\u2581wielkie": 6744,
  "ds": 6745,
  "park": 6746,
  "\u2581u\u017cyciu": 6747,
  "\u2581IS": 6748,
  "kwa": 6749,
  "\u2581orders": 6750,
  "s\u0142on": 6751,
  "\u2581guidelines": 6752,
  "\u2581neck": 6753,
  "\u2581Saint": 6754,
  "ised": 6755,
  "\u2581lunch": 6756,
  "\u2581istniej\u0105": 6757,
  "\u2581pras": 6758,
  "\u2581south": 6759,
  "ique": 6760,
  "\u2581Human": 6761,
  "\u2581Machine": 6762,
  "\u2581supported": 6763,
  "\u2581wykonywania": 6764,
  "\u2581ska": 6765,
  "\u2581stylu": 6766,
  "\u2581released": 6767,
  "\u2581entities": 6768,
  "\u2581potrzeba": 6769,
  "ache": 6770,
  "\u2581wideo": 6771,
  "\u2581comfortable": 6772,
  "\u2581eligible": 6773,
  "\u2581Action": 6774,
  "\u2581administracyjne": 6775,
  "dent": 6776,
  "\u2581transmission": 6777,
  "wood": 6778,
  "\u2581definitely": 6779,
  "\u2581mog\u0142em": 6780,
  "\u2581preparation": 6781,
  "\u2581\u017cy\u0142": 6782,
  "\u2581Work": 6783,
  "\u2581rolnych": 6784,
  "\u2581rejestru": 6785,
  "\u2581Ameryki": 6786,
  "\u2581powtarza": 6787,
  "\u2581ciast": 6788,
  "\u2581considers": 6789,
  "\u2581planned": 6790,
  "\u2581keeping": 6791,
  "\u2581ge": 6792,
  "\u2581lay": 6793,
  "\u2581Many": 6794,
  "aniu": 6795,
  "ML": 6796,
  "lit": 6797,
  "\u2581perhaps": 6798,
  "\u2581Word": 6799,
  "\u2581jednostek": 6800,
  "73": 6801,
  "\u2581register": 6802,
  "acyjnych": 6803,
  "cznych": 6804,
  "wa\u0142a": 6805,
  "\u2581szereg": 6806,
  "\u2581introduced": 6807,
  "\u2581vision": 6808,
  "\u2581Research": 6809,
  "\u017c\u0105": 6810,
  "\u2581\u015bwiadczenia": 6811,
  "\u2581Rom": 6812,
  "cyt": 6813,
  "\u2581sc": 6814,
  "pil": 6815,
  "\u2581fighting": 6816,
  "\u2581entity": 6817,
  "alizacja": 6818,
  "\u2581reactions": 6819,
  "\u2581pokaza\u0107": 6820,
  "\u2581quantity": 6821,
  "strza\u0142": 6822,
  "\u2581Lisbon": 6823,
  "\u2581dialogue": 6824,
  "\u2581S\u0105d": 6825,
  "\u2581images": 6826,
  "\u2581wh": 6827,
  "\u2581charges": 6828,
  "\").": 6829,
  "\u2581Oliw": 6830,
  "\u2581hearing": 6831,
  "\u2581recovery": 6832,
  "app": 6833,
  "/02": 6834,
  "\u2581Skoro": 6835,
  "din": 6836,
  "\u2581fly": 6837,
  "last": 6838,
  "\u2581Gold": 6839,
  "\u2581Kolor": 6840,
  "\u2581putting": 6841,
  "trak": 6842,
  "\u2581homologacji": 6843,
  "\u2581sami": 6844,
  "\u2581checks": 6845,
  "\u258107": 6846,
  "\u2581apolog": 6847,
  "\u2581kultur": 6848,
  "\u2581Hall": 6849,
  "\u2581remove": 6850,
  "\u2581yesterday": 6851,
  "ruch": 6852,
  "yan": 6853,
  "\u258115.": 6854,
  "yna": 6855,
  "\u2581los": 6856,
  "\u2044": 6857,
  "\u2581Przewodnicz\u0105cy": 6858,
  "via": 6859,
  "\u2581dusz": 6860,
  "\u2581Sw": 6861,
  "\u2581wskazuje": 6862,
  "\u2581musieli": 6863,
  "\u2581artyku\u0142": 6864,
  "/08": 6865,
  "\u2581understanding": 6866,
  "\u2581terrible": 6867,
  "\u2581krajowego": 6868,
  "\u2581Quality": 6869,
  "lut": 6870,
  "\u2581primary": 6871,
  "\u2581Thomas": 6872,
  "\u2581Communication": 6873,
  "\u2581impossible": 6874,
  "\u2581nieza": 6875,
  "\u2581bull": 6876,
  "\u258104": 6877,
  "lna": 6878,
  "\u2581zawarto\u015bci": 6879,
  "bur": 6880,
  "\u2581cudown": 6881,
  "74": 6882,
  "nikiem": 6883,
  "\u2581Camel": 6884,
  "Smith": 6885,
  "\u2581Also": 6886,
  "Star": 6887,
  "\u2581twarzy": 6888,
  "\u2581w\u0105tpliwo\u015bci": 6889,
  "\u2581controlled": 6890,
  "\u2581confirmed": 6891,
  "\u2581flow": 6892,
  "\u2581przedmiotem": 6893,
  "\u2581notes": 6894,
  "czna": 6895,
  "\u258198": 6896,
  "szych": 6897,
  "\u2581rise": 6898,
  "kuje": 6899,
  "\u2581Niekt\u00f3re": 6900,
  "\u2581Projekt": 6901,
  "\u2581kolejne": 6902,
  "eller": 6903,
  "mus": 6904,
  "\u2581Justice": 6905,
  "trwa": 6906,
  "\u2581trend": 6907,
  "\u2581employees": 6908,
  "\u2581exceed": 6909,
  "\u2581przyjdzie": 6910,
  "\u2581my\u015bl\u0105": 6911,
  "\u2581pleasure": 6912,
  "\u2581accordingly": 6913,
  "\u2581wake": 6914,
  "\u2581bior\u0105c": 6915,
  "\u2581okoliczno\u015bci": 6916,
  "\u2581przysz\u0142o\u015b\u0107": 6917,
  "\u2581psycho": 6918,
  "\u2581Pole": 6919,
  "1-": 6920,
  "\u258158": 6921,
  "ike": 6922,
  "\u2581server": 6923,
  "\u2581Road": 6924,
  "\u2581dokumenty": 6925,
  "ml": 6926,
  "\u2581sprawach": 6927,
  "\u2581Trade": 6928,
  "\u2581wyrob\u00f3w": 6929,
  "\u2581secure": 6930,
  "\u2581Ask": 6931,
  "\u2581klimatu": 6932,
  "lock": 6933,
  "\u2581facilitate": 6934,
  "\u2581Czyta": 6935,
  "\u2581prawne": 6936,
  "\u2581sur": 6937,
  "\u2581signs": 6938,
  "\u2581conclusion": 6939,
  "\u2581Furthermore": 6940,
  "\u2581older": 6941,
  "\u2581crash": 6942,
  "\u2581sytuacj\u0119": 6943,
  "\u2581paragraphs": 6944,
  "62": 6945,
  "\u2581height": 6946,
  "\u2581debate": 6947,
  "\u2581wysoko\u015b\u0107": 6948,
  "\u2581gal": 6949,
  "\u2581steal": 6950,
  "rel": 6951,
  "\u2581polskie": 6952,
  "\u2581wi\u0119ksz\u0105": 6953,
  "OP": 6954,
  "82": 6955,
  "\u258159": 6956,
  "\u2581transactions": 6957,
  "\u2581ang": 6958,
  "\u2581krok": 6959,
  "\u2581uwzgl\u0119dni\u0107": 6960,
  "erhaps": 6961,
  "LA": 6962,
  "\u2581electricity": 6963,
  "5,": 6964,
  "\u2581missed": 6965,
  "tworzy": 6966,
  "\u2581ponowne": 6967,
  "SP": 6968,
  "stron": 6969,
  "\u2581Radio": 6970,
  "\u2581player": 6971,
  "n\u00f3w": 6972,
  "\u258157": 6973,
  "\u2581cards": 6974,
  "\u2581czyta": 6975,
  "\u2581spotkania": 6976,
  "\u2581zazwyczaj": 6977,
  "\u2581successful": 6978,
  "\u2581perform": 6979,
  "\u2581organiz": 6980,
  "\u2581definition": 6981,
  "\u2581wy\u017cej": 6982,
  "\u2581coordination": 6983,
  "\u2581ocean": 6984,
  "\u2581truck": 6985,
  "\u2581zezwolenia": 6986,
  "\u2581originating": 6987,
  "ink": 6988,
  "hood": 6989,
  "\u2581VII": 6990,
  "\u2581micro": 6991,
  "\u2581hide": 6992,
  "\u2581r\u0119cznie": 6993,
  "\u2581historia": 6994,
  "\u2581fit": 6995,
  "\u2581tworzenia": 6996,
  "UN": 6997,
  "\u2581umar\u0142": 6998,
  "\u2581zachowa\u0107": 6999,
  "PR": 7000,
  "\u2581lek\u00f3w": 7001,
  "AC": 7002,
  "\u2581Szczeg\u00f3\u0142y": 7003,
  "til": 7004,
  "ban": 7005,
  "\u2581suggest": 7006,
  "\u2581swear": 7007,
  "\u2581panowie": 7008,
  "\u2581wykorzystanie": 7009,
  "\u2581turystyczn": 7010,
  "\u2581dobr\u0105": 7011,
  "\u2581empty": 7012,
  "owiec": 7013,
  "\u2581wsp\u00f3lnych": 7014,
  "\u2581favorit": 7015,
  "\u2581Arm": 7016,
  "\u2581spotka\u0142": 7017,
  "\u2581spe\u0142nia": 7018,
  "\u2581grupa": 7019,
  "\u2581stated": 7020,
  "\u2581carrying": 7021,
  "\u2581powerful": 7022,
  "dzy": 7023,
  "\u2581falling": 7024,
  "\u2581okropn": 7025,
  "\u2581refund": 7026,
  "\u2581ruin": 7027,
  "\u2581adverse": 7028,
  "\u2581Wsp\u00f3lne": 7029,
  "\u2581podmioty": 7030,
  "g\u0142os": 7031,
  "\u2581Enter": 7032,
  "\u25811992": 7033,
  "\u2581sample": 7034,
  "\u2581punkcie": 7035,
  "ars": 7036,
  "\u2581relax": 7037,
  "\u2581MA": 7038,
  "\u2581pozostaje": 7039,
  "\u2581spodziewa": 7040,
  "ene": 7041,
  "mie\u0144": 7042,
  "\u2581Moreover": 7043,
  "zyd": 7044,
  "\u2581rozkaz": 7045,
  "DF": 7046,
  "\u0142o\u015b\u0107": 7047,
  "\u2581ON": 7048,
  "\u2581stanowiska": 7049,
  "\u2581scen": 7050,
  "\u2581networks": 7051,
  "\u2581Dziew": 7052,
  "\u2581effort": 7053,
  "\u2581invited": 7054,
  "/2008": 7055,
  "espo": 7056,
  "\u2581swe": 7057,
  "\u2581relations": 7058,
  "ond": 7059,
  "\u2581administracyjny": 7060,
  "oid": 7061,
  "NI": 7062,
  "\u2581zmieni": 7063,
  "well": 7064,
  "\u2581Dzi\u015b": 7065,
  "o\u015bci\u00f3\u0142": 7066,
  "\u2581Sc": 7067,
  "\u2581przyj\u0119te": 7068,
  "\u258166": 7069,
  "sti": 7070,
  "av": 7071,
  "\u2581suck": 7072,
  "\u2581declaration": 7073,
  "\u2581oboz": 7074,
  "\u2581buildings": 7075,
  "\u258108": 7076,
  "\u2581Asia": 7077,
  "\u2581u\u017cywa\u0107": 7078,
  "\u2581satelit": 7079,
  "\u2581wytycznych": 7080,
  "\u2581Kir": 7081,
  "wiat": 7082,
  "IL": 7083,
  "\u2581sztuk": 7084,
  "\u2581valid": 7085,
  "aza": 7086,
  "\u2581proof": 7087,
  "\u2581Lek": 7088,
  "reg": 7089,
  "\u2581income": 7090,
  "\u2581Ak": 7091,
  "\u2581variety": 7092,
  "\u25811990": 7093,
  "\u2581lock": 7094,
  "\u2581obowi\u0105zk\u00f3w": 7095,
  "\u2581implement": 7096,
  "\u2581obejmuj\u0105": 7097,
  "\u2581roboty": 7098,
  "83": 7099,
  "\u2581osob\u0105": 7100,
  "\u2581zmniejszenie": 7101,
  "\u2581brothers": 7102,
  "\u2581ca\u0142a": 7103,
  "CI": 7104,
  "\u2581bilet": 7105,
  "iony": 7106,
  "\u2581uprawnie\u0144": 7107,
  "\u2581dobrej": 7108,
  "yw": 7109,
  "\u2581przep": 7110,
  "\u2581Dyrektywa": 7111,
  "\u2581trudno": 7112,
  "\u2581refer": 7113,
  "sji": 7114,
  "\u2581fundamental": 7115,
  "\u2581ul": 7116,
  "\u2581mainly": 7117,
  "\u2581funkcjonowaniu": 7118,
  "\u2581Netherlands": 7119,
  "\u2581speaking": 7120,
  "\u2581Gir": 7121,
  "\u2581zadania": 7122,
  "\u2581factor": 7123,
  "\u2581rodzic\u00f3w": 7124,
  "\u2581load": 7125,
  "\u2581zmar\u0142": 7126,
  "\u2581biznes": 7127,
  "\u2581screw": 7128,
  "po\u017cycz": 7129,
  "\u2581traditional": 7130,
  "stawi\u0107": 7131,
  "\u2581purchase": 7132,
  "\u2581Sound": 7133,
  "\u2581dyrektywa": 7134,
  "\u2581kolei": 7135,
  "\u2581Pri": 7136,
  "\u2581skutki": 7137,
  "ione": 7138,
  "\u2581RE": 7139,
  "\u2581fotograf": 7140,
  "\u2581zarz\u0105dzanie": 7141,
  "\u2581plec": 7142,
  "\u2581okre\u015bli\u0107": 7143,
  "erii": 7144,
  "0000": 7145,
  "\u2581fool": 7146,
  "lice": 7147,
  "wa\u017cnie": 7148,
  "anu": 7149,
  "\u2581cech": 7150,
  "eur": 7151,
  "\u2581zobaczy\u0142": 7152,
  "\u2581Has": 7153,
  "\u2581trial": 7154,
  "\u2581Parties": 7155,
  "\u2581Thus": 7156,
  "\u2581Life": 7157,
  "\u2581deliver": 7158,
  "\u201b": 7159,
  "fit": 7160,
  "\u2581g\u0142\u00f3wnych": 7161,
  "\u2581Francji": 7162,
  "\u2581challenge": 7163,
  "ujcie": 7164,
  "jny": 7165,
  "Jak": 7166,
  "by\u015bcie": 7167,
  "zz": 7168,
  "\u2581translation": 7169,
  "tury": 7170,
  "owca": 7171,
  "\u2581publiczne": 7172,
  "\u2581spread": 7173,
  "\u2581Ani": 7174,
  "\u2581tabeli": 7175,
  "\u2581Standard": 7176,
  "udi": 7177,
  "atu": 7178,
  "\u2581Wiele": 7179,
  "\u2581teach": 7180,
  "\u2581po\u0142\u0105czenia": 7181,
  "free": 7182,
  "\u2581Comp": 7183,
  "cenia": 7184,
  "\u2581strange": 7185,
  "\u25815:": 7186,
  "\u2581ko\u0144czy": 7187,
  "\u2581recorded": 7188,
  "\u258113.": 7189,
  "ova": 7190,
  "\u2581zostali": 7191,
  "\u2581kolejny": 7192,
  "\u2581pami\u0119ci": 7193,
  "\u2581battle": 7194,
  "\u2581Break": 7195,
  "\u2581Rome": 7196,
  "\u2581wiek": 7197,
  "\u2581guest": 7198,
  "\u2581nauki": 7199,
  "\u2581styl": 7200,
  "\u2581mia\u0142by": 7201,
  "\u2581excuse": 7202,
  "\u2581ojcem": 7203,
  "\u2581zwrot": 7204,
  "\u2581heavy": 7205,
  "\u2581Canada": 7206,
  "\u2581zajmuje": 7207,
  "RI": 7208,
  "\u2581justice": 7209,
  "gni": 7210,
  "\u2581Kal": 7211,
  "jrza\u0142": 7212,
  "\u2581claims": 7213,
  "\u2581calm": 7214,
  "\u2581properly": 7215,
  "\u2581commitment": 7216,
  "lag": 7217,
  "\u2581korzysta\u0107": 7218,
  "\u2581Radzie": 7219,
  "\u2581niepo\u017c\u0105dane": 7220,
  "przed": 7221,
  "\u2581Pierwszy": 7222,
  "\u2581pochodz\u0105cych": 7223,
  "\u2581podstawowe": 7224,
  "\u2581audio": 7225,
  "umb": 7226,
  "\u2581ci\u0119\u017cko": 7227,
  "\u2581przesz\u0142o\u015bci": 7228,
  "\u2581indeed": 7229,
  "czu\u0107": 7230,
  "\u2581title": 7231,
  "\u2581statistics": 7232,
  "\u2581GmbH": 7233,
  "\u2581zada\u0144": 7234,
  "\u2581droga": 7235,
  "\u2581Du\u017c": 7236,
  "\u2581selection": 7237,
  "\u2581raised": 7238,
  "\u2581grze": 7239,
  "\u2581jazdy": 7240,
  "\u2581applies": 7241,
  "encji": 7242,
  "\u2581Francis": 7243,
  "\u2581waters": 7244,
  "\u2581DE": 7245,
  "\u2581drugiego": 7246,
  "\u2581feels": 7247,
  "\u2581podej\u015bcie": 7248,
  "\u0142ek": 7249,
  "\u2581ma\u0142a": 7250,
  "owanym": 7251,
  "\u2581konsultacji": 7252,
  "\u2581po\u0142\u0105czenie": 7253,
  "\u2581wynik": 7254,
  "nienie": 7255,
  "iego": 7256,
  "\u015bmie": 7257,
  "\u2581notify": 7258,
  "\u2581negotiations": 7259,
  "\u2581applying": 7260,
  "\u2581requests": 7261,
  "\u2581Ins": 7262,
  "\u2581temporary": 7263,
  "\u2581sprawiedliwo\u015bci": 7264,
  "\u2581marry": 7265,
  "n\u0119\u0142o": 7266,
  "cam": 7267,
  "\u2581dobrego": 7268,
  "\u2581glin": 7269,
  "\u2581pochodzi": 7270,
  "\u2581profil": 7271,
  "RY": 7272,
  "\u2581existence": 7273,
  "RS": 7274,
  "\u2581contained": 7275,
  "LI": 7276,
  "dziwi": 7277,
  "\u2581bierze": 7278,
  "\u2581Bene": 7279,
  "\u2581letni": 7280,
  "\u2581kraje": 7281,
  "\u2581zbrodni": 7282,
  "rzecz": 7283,
  "\u2581ratio": 7284,
  "\u2581Moi": 7285,
  "\u258196": 7286,
  "\u2581PRO": 7287,
  "\u2581specjalne": 7288,
  "\u2581m\u00f3c": 7289,
  "\u2581mention": 7290,
  "\u2581nur": 7291,
  "\u2581za\u0142\u0105cznik": 7292,
  "\u2581conformity": 7293,
  "\u2581mountain": 7294,
  "kontakt": 7295,
  "\u2581command": 7296,
  "\u2581sexual": 7297,
  "\u2581Trybuna\u0142u": 7298,
  "63": 7299,
  "sil": 7300,
  "71": 7301,
  "\u2581idio": 7302,
  "\u2581judgment": 7303,
  "-7": 7304,
  "\u2581Pomocy": 7305,
  "\u2581worst": 7306,
  "dis": 7307,
  "\u2581ver": 7308,
  "\u2581[3]": 7309,
  "\u0142ka": 7310,
  "najmniej": 7311,
  "cle": 7312,
  "\u2581policji": 7313,
  "\u2581sad": 7314,
  "\u2581zdolno\u015b\u0107": 7315,
  "\u2581Sur": 7316,
  "\u2581wound": 7317,
  "\u2581sta\u0142": 7318,
  "\u2581shares": 7319,
  "dek": 7320,
  "\u2581scale": 7321,
  "\u2581blind": 7322,
  "ainteresowanych": 7323,
  "\u2581osobowych": 7324,
  "\u2581owoc\u00f3w": 7325,
  "\u2581sam\u0105": 7326,
  "\u2581chosen": 7327,
  "\u2581oparte": 7328,
  "\u2581sports": 7329,
  "\u2581kryteri\u00f3w": 7330,
  "\u2581wynikaj\u0105ce": 7331,
  "\u2581decyzj\u0105": 7332,
  "etty": 7333,
  "\u2581spo\u0142ecznej": 7334,
  "\u258114.": 7335,
  "\u2581surveillance": 7336,
  "\u2581mog\u0142y": 7337,
  "\u2581identify": 7338,
  "\u2581czarny": 7339,
  "\u2581Pozosta\u0142e": 7340,
  "\u2581Jedn": 7341,
  "\u0118": 7342,
  "Le": 7343,
  "\u2581college": 7344,
  "\u258191": 7345,
  "\u2581punkty": 7346,
  "erze": 7347,
  "zamkni": 7348,
  "\u2581najlepszy": 7349,
  "\u2581advance": 7350,
  "\u2581kop": 7351,
  "\u2581Still": 7352,
  "rent": 7353,
  "\u2581nerek": 7354,
  "stawi\u0142": 7355,
  "\u2581sake": 7356,
  "\u2581niewy": 7357,
  "\u2581Mimo": 7358,
  "\u2581spot": 7359,
  "\u258194": 7360,
  "liby\u015bmy": 7361,
  "\u2581handlowych": 7362,
  "\u2581rozwi\u0105za\u0144": 7363,
  "rium": 7364,
  "\u2581NIE": 7365,
  "\u2581leki": 7366,
  "\u2581reklam": 7367,
  "liny": 7368,
  "3%": 7369,
  "\u2581finansowej": 7370,
  "uchy": 7371,
  "staje": 7372,
  "\u2581controls": 7373,
  "arne": 7374,
  "\u2581zespo\u0142u": 7375,
  "bot": 7376,
  "\u2581nine": 7377,
  "ira": 7378,
  "\u0144stwo": 7379,
  "\u2581prace": 7380,
  "\u2581delivered": 7381,
  "\u2581obtain": 7382,
  "Con": 7383,
  "\u2581degree": 7384,
  "\u2581\u017caden": 7385,
  "\u2581Nast\u0119pnie": 7386,
  "le\u017c": 7387,
  "\u2581morza": 7388,
  "\u2581szt": 7389,
  "\u2581concentration": 7390,
  "fect": 7391,
  "\u2581po\u0142o\u017cony": 7392,
  "igh": 7393,
  "\u2581destroy": 7394,
  "\u2581ideas": 7395,
  "ral": 7396,
  "\u2581Ant": 7397,
  "\u2581lamp": 7398,
  "\u2581netto": 7399,
  "\u2581B\u0105d\u017a": 7400,
  "\u2581hall": 7401,
  "\u2581rodzin\u0119": 7402,
  "\u2581continued": 7403,
  "\u2581experts": 7404,
  "dor": 7405,
  "\u2581alternative": 7406,
  "\u017cu": 7407,
  "ryst": 7408,
  "\u2581Pary\u017c": 7409,
  "\u2581odno\u015bnie": 7410,
  "\u2581Ag": 7411,
  "\u2581sezon": 7412,
  "\u2581prywatne": 7413,
  "\u2581argument": 7414,
  "szki": 7415,
  "ister": 7416,
  "\u2581removed": 7417,
  "\u2581season": 7418,
  "\u2581Hair": 7419,
  "\u2581niezale\u017cnie": 7420,
  "\u2581przeszkadza": 7421,
  "miesza": 7422,
  "PS": 7423,
  "\u2581lud": 7424,
  "kov": 7425,
  "\u2581dach": 7426,
  "\u2581gier": 7427,
  "rix": 7428,
  "\u2581kwota": 7429,
  "\u2581Niestety": 7430,
  "nger": 7431,
  "\u2581Ray": 7432,
  "\u2581closer": 7433,
  "alnie": 7434,
  "0,": 7435,
  "\u0435": 7436,
  "\u2581zawarto\u015b\u0107": 7437,
  "\u2581rezerwacji": 7438,
  "tr\u0105": 7439,
  "\u2581trwania": 7440,
  "\u2581zatrzyma": 7441,
  "Sz": 7442,
  "\u2581managed": 7443,
  "\u2581piersi": 7444,
  "s\u0142u\u017c": 7445,
  "\u2581korzystania": 7446,
  "\u2581oto": 7447,
  "\u2581czyni": 7448,
  "\u2581Zatem": 7449,
  "\u2581z\u0142ego": 7450,
  "gat": 7451,
  "\u2581(3": 7452,
  "\u2581bottom": 7453,
  "\u2581przekracza": 7454,
  "ont": 7455,
  "\u2581organu": 7456,
  "\u2581zmian\u0119": 7457,
  "\u2581zabezpieczenia": 7458,
  "widz": 7459,
  "2000": 7460,
  "\u2581Imp": 7461,
  "\u2581whereas": 7462,
  "\u2581lotnicze": 7463,
  "lepsza": 7464,
  "czysz": 7465,
  "\u2581wykaz": 7466,
  "\u2581serii": 7467,
  "\u2581Anti": 7468,
  "brania": 7469,
  "\u2581medicines": 7470,
  "\u2581pyta\u0144": 7471,
  "\u2581charakterze": 7472,
  "\u2581injury": 7473,
  "\u2581statek": 7474,
  "lle": 7475,
  "\u015bwiat": 7476,
  "\u2581absolutely": 7477,
  "\u2581PA": 7478,
  "\u2581identification": 7479,
  "\u2581lotnisk": 7480,
  "\u2581ce": 7481,
  "ci\u0105ga": 7482,
  "\u2581chemical": 7483,
  "\u2581Rad": 7484,
  "\u2581requirement": 7485,
  "\u2581tape": 7486,
  "ati": 7487,
  "tni": 7488,
  "\u2581seek": 7489,
  "\u258103": 7490,
  "liwe": 7491,
  "\u2581atak": 7492,
  "\u2581raw": 7493,
  "darzy": 7494,
  "\u2581uniform": 7495,
  "\u2581career": 7496,
  "\u2581wywozu": 7497,
  "cjonal": 7498,
  "\u2581porad": 7499,
  "\u2581dzielnic": 7500,
  "\u2581odnosi": 7501,
  "\u2581signal": 7502,
  "\u2581\u0142\u0105cznie": 7503,
  "wari": 7504,
  "\u0142owi": 7505,
  "\u2581Schengen": 7506,
  "\u2581Friday": 7507,
  "\u2581adequate": 7508,
  "\u2581wcale": 7509,
  "\u2581Ci\u0105g": 7510,
  "\\": 7511,
  "\u2581si\u0142": 7512,
  "\u2581Government": 7513,
  "\u2581miar\u0119": 7514,
  "\u2581Wniosek": 7515,
  "\u2581grupie": 7516,
  "\u25816:": 7517,
  "\u2581committed": 7518,
  "ega": 7519,
  "trzyma\u0142": 7520,
  "\u2581links": 7521,
  "\u2581Fla": 7522,
  "izz": 7523,
  "\u2581destination": 7524,
  "\u2581WSP\u00d3LNOT": 7525,
  "BS": 7526,
  "kul": 7527,
  "\u2581Wyposa\u017cenie": 7528,
  "\u2581linked": 7529,
  "\u2581cities": 7530,
  "\u2581rozszerzeniem": 7531,
  "\u2581consultation": 7532,
  "\u2581wykorzysta\u0107": 7533,
  "\u2581naturalne": 7534,
  "\u2581crew": 7535,
  "\u2581comfort": 7536,
  "\u2581Portugal": 7537,
  "6,": 7538,
  "\u2581gatunk\u00f3w": 7539,
  "stein": 7540,
  "\u2581helps": 7541,
  "med": 7542,
  "\u2581flights": 7543,
  "\u2581niczym": 7544,
  "\u2581Quick": 7545,
  "\u2581obowi\u0105zek": 7546,
  "\u2581Klimat": 7547,
  "\u2581wyst\u0119puje": 7548,
  "\u2581otrzyma\u0107": 7549,
  "\u2581G\u00f3r": 7550,
  "ech": 7551,
  "\u2581lies": 7552,
  "z\u0105": 7553,
  "att": 7554,
  "\u2581hi": 7555,
  "kowych": 7556,
  "\u2581zawieraj\u0105ce": 7557,
  "\u2581sl": 7558,
  "cul": 7559,
  "gie": 7560,
  "\u2581rent": 7561,
  "\u2581stwierdzono": 7562,
  "\u2581kwot\u0119": 7563,
  "rup": 7564,
  "ji": 7565,
  "\u2581w\u0142asno\u015bci": 7566,
  "\u2581ka\u017cde": 7567,
  "\u2581obszar": 7568,
  "\u2581Liczba": 7569,
  "stu": 7570,
  "\u2581cup": 7571,
  "\u2581recognition": 7572,
  "\u0443": 7573,
  "llen": 7574,
  "\u2581drunk": 7575,
  "\u2581indicate": 7576,
  "\u2581pory": 7577,
  "\u2581sztuki": 7578,
  "alna": 7579,
  "osa": 7580,
  "\u2581Ocean": 7581,
  "\u2581dowody": 7582,
  "\u2581arrest": 7583,
  "\u2581compatible": 7584,
  "\u2581nazw\u0119": 7585,
  "\u2581Tele": 7586,
  "\u2581conducted": 7587,
  "\u2581Mieszka": 7588,
  "\u2581Phil": 7589,
  "\u2581tough": 7590,
  "rd": 7591,
  "sor": 7592,
  "itar": 7593,
  "ore": 7594,
  "stro": 7595,
  "\u2581Croatia": 7596,
  "200": 7597,
  "\u2581leg": 7598,
  "\u258116.": 7599,
  "\u2581niepo": 7600,
  "\u2581danym": 7601,
  "\u2581zasadami": 7602,
  "\u2581Uwaga": 7603,
  "\u2581zapewniaj\u0105": 7604,
  "\u2581podzi\u0119kowa": 7605,
  "\u2581cz\u0142onkowskimi": 7606,
  "dawa\u0107": 7607,
  "\u2581zone": 7608,
  "\u2581woli": 7609,
  "\u2581pola": 7610,
  "\u2581multiple": 7611,
  "\u2581Blue": 7612,
  "\u2581Czy\u017c": 7613,
  "border": 7614,
  "NO": 7615,
  "\u2581willing": 7616,
  "FO": 7617,
  "long": 7618,
  "\u2581prepare": 7619,
  "ition": 7620,
  "\u2581strefy": 7621,
  "\u2581wra\u017cenie": 7622,
  "\u2581zaj\u0105\u0107": 7623,
  "TP": 7624,
  "\u2581agents": 7625,
  "\u2581polega": 7626,
  "\u2581sp\u00f3jno\u015bci": 7627,
  "moc": 7628,
  "\u2581arms": 7629,
  "Od": 7630,
  "PT": 7631,
  "\u2581teacher": 7632,
  "\u2581recommendations": 7633,
  "\u2581Ka\u017cd": 7634,
  "assi": 7635,
  "\u2581g\u0142owie": 7636,
  "\u2581b\u0119dziecie": 7637,
  "\u2581Bezpiecze\u0144stwa": 7638,
  "\u2581surgery": 7639,
  "\u2581sets": 7640,
  "\u2581wild": 7641,
  "AS": 7642,
  "\u2581route": 7643,
  "SD": 7644,
  "ets": 7645,
  "\u2581ban": 7646,
  "\u2581dotyka": 7647,
  "\u2581conversation": 7648,
  "\u2581heaven": 7649,
  "\u2581Water": 7650,
  "\u2581potrzebowa\u0142": 7651,
  "\u2581Power": 7652,
  "\u2581ksi\u0105\u017cki": 7653,
  "\u2581lawyer": 7654,
  "\u2581doros\u0142ych": 7655,
  "script": 7656,
  "\u2581Roman": 7657,
  "\u2581block": 7658,
  "\u2581zdaniem": 7659,
  "\u2581percent": 7660,
  "\u2581zatrzyma\u0107": 7661,
  "\u2581okre\u015blony": 7662,
  "\u2581bowiem": 7663,
  "\u2581healthy": 7664,
  "\u2581significantly": 7665,
  "\u2581du\u017cych": 7666,
  "\u2581sky": 7667,
  "zwykle": 7668,
  "\u2581tickets": 7669,
  "\u2581przyj\u015b\u0107": 7670,
  "\u2581odpowiedniego": 7671,
  "\u2581Functioning": 7672,
  "\u2581schemes": 7673,
  "\u2581feelings": 7674,
  "\u2581chain": 7675,
  "\u2581consideration": 7676,
  "wers": 7677,
  "\u2581holiday": 7678,
  "aught": 7679,
  "\u2581paying": 7680,
  "iczna": 7681,
  "\u2581Niemiec": 7682,
  "\u2581vi": 7683,
  "\u2581Witnesses": 7684,
  "\u2581ocen\u0119": 7685,
  "\u2581becomes": 7686,
  "\u2581wydarzenia": 7687,
  "pit": 7688,
  "\u2581leczeniu": 7689,
  "\u2581river": 7690,
  "\u043a": 7691,
  "lim": 7692,
  "\u0105ce": 7693,
  "\u2581entitled": 7694,
  "\u2581Press": 7695,
  "izing": 7696,
  "\u2581exporting": 7697,
  "&": 7698,
  "\u2581nuclear": 7699,
  "\u2581enterprises": 7700,
  "olu": 7701,
  "\u2581initiatives": 7702,
  "!\"": 7703,
  "odpowiedzialno\u015b\u0107": 7704,
  "\u2581Center": 7705,
  "\u2581belongs": 7706,
  "\u2581percentage": 7707,
  ".\";": 7708,
  "\u2581Switzerland": 7709,
  "\u2581wyk\u0142ad": 7710,
  "1%": 7711,
  "\u2581wszech": 7712,
  "\u2581shared": 7713,
  "\u2581odpad\u00f3w": 7714,
  "\u2581gazu": 7715,
  "\";": 7716,
  "\u2581honest": 7717,
  "\u2581przedstawiciel": 7718,
  "\u2581innowacji": 7719,
  "\u00e0": 7720,
  "\u2581warto": 7721,
  "sper": 7722,
  "\u2581businesses": 7723,
  "encja": 7724,
  "\u2581dzia\u0142": 7725,
  "arna": 7726,
  "\u2581shower": 7727,
  "\u2581decyzje": 7728,
  "EG": 7729,
  "\u2581Rozwoju": 7730,
  "\u2581bran\u017cy": 7731,
  "\u2581Typ": 7732,
  "wat": 7733,
  "\u25811993": 7734,
  "\u2581podobnie": 7735,
  "hip": 7736,
  "\u2581Kr\u00f3lestwa": 7737,
  "\u2581beauty": 7738,
  "\u2581trzyma\u0107": 7739,
  "\u2581Greek": 7740,
  "\u2581wiary": 7741,
  "ese": 7742,
  "KI": 7743,
  "\u2581hereby": 7744,
  "\u2581c\u00f3rka": 7745,
  "\u2581mi\u0119dzynarodowym": 7746,
  "\u2581pe\u0142ne": 7747,
  "granicz": 7748,
  "\u258167": 7749,
  "\u2581Region": 7750,
  "\u2581alcohol": 7751,
  "\u2581materia\u0142u": 7752,
  "\u2581badaniu": 7753,
  "\u2581Henry": 7754,
  "\u2581poda\u0107": 7755,
  "\u2581Ski": 7756,
  "oy": 7757,
  "\u2581Customer": 7758,
  "\u2581agency": 7759,
  "rack": 7760,
  "\u2581Change": 7761,
  "\u2581ka\u017cd\u0105": 7762,
  "\u2581ONZ": 7763,
  "\u2581ziemi\u0119": 7764,
  "czone": 7765,
  "kcji": 7766,
  "eld": 7767,
  "\u2581Long": 7768,
  "\u2581push": 7769,
  "\u2581score": 7770,
  "\u2581ogrzewa": 7771,
  "dej\u015b\u0107": 7772,
  "\u258199": 7773,
  "ctor": 7774,
  "\u2581Greece": 7775,
  "\u2581Korea": 7776,
  "\u2581hol": 7777,
  "\u2581urodzin": 7778,
  "\u2581Strony": 7779,
  "erry": 7780,
  "\u2581przyj\u0119\u0142a": 7781,
  "\u2581Lip": 7782,
  "\u2581audit": 7783,
  "\u2581despite": 7784,
  "OL": 7785,
  "\u2581Wi\u0119kszo\u015b\u0107": 7786,
  "\u2581\u017badn": 7787,
  "work": 7788,
  "\u2581Umowy": 7789,
  "\u2581Ban": 7790,
  "\u2581polu": 7791,
  "Article": 7792,
  "\u2581miesi\u0105ca": 7793,
  "\u2581escape": 7794,
  "\u2581polityka": 7795,
  "\"),": 7796,
  "\u2581apart": 7797,
  "cznym": 7798,
  "\u2581szczeg\u00f3lne": 7799,
  "\u2581niebieski": 7800,
  "dzia": 7801,
  "\u2581800": 7802,
  "\u258168": 7803,
  "\u2581diet": 7804,
  "\u2581Taki": 7805,
  "pewni": 7806,
  "ably": 7807,
  "-0": 7808,
  "\u2581disorders": 7809,
  "\u2581m\u0142odzie\u017cy": 7810,
  "\u2581unika": 7811,
  "\u2581lotu": 7812,
  "\u2581Wsp\u00f3lnocie": 7813,
  "asy": 7814,
  "\u2581zapalenie": 7815,
  "tycznie": 7816,
  "anti": 7817,
  "\u2581und": 7818,
  "\u2581Pawe\u0142": 7819,
  "\u2581HIV": 7820,
  "\u2581popiera": 7821,
  "\u2581Nr": 7822,
  "\u2581Adv": 7823,
  "\u2581uwzgl\u0119dnieniem": 7824,
  "\u2581Line": 7825,
  "\u2581Sunday": 7826,
  "\u2581Ich": 7827,
  "\u2581demon": 7828,
  "\u2581zagro\u017cenia": 7829,
  "FF": 7830,
  "\u2581mld": 7831,
  "\u2581sercu": 7832,
  "\u2581w\u0142a\u015bciwego": 7833,
  "/11": 7834,
  "\u2581adjustment": 7835,
  "\u2581Duch": 7836,
  "\u2581cream": 7837,
  "\u2581ducha": 7838,
  "\u2581w\u0142asny": 7839,
  "\u2581offering": 7840,
  "\u2581generally": 7841,
  "\u2581bringing": 7842,
  "\u2581w\u0119gla": 7843,
  "\u2581suppose": 7844,
  "\u2581Old": 7845,
  "\u2581rodzaj\u00f3w": 7846,
  "\u2581dyrektywie": 7847,
  "\u2581measured": 7848,
  "\u2581Rad\u0119": 7849,
  "\u2581listening": 7850,
  "\u2581pierwsza": 7851,
  "\u2581ster": 7852,
  "Czy": 7853,
  "\u2581strat": 7854,
  "\u2581VIII": 7855,
  "cor": 7856,
  "EUR": 7857,
  "aj\u0105ce": 7858,
  "\u2581app": 7859,
  "\u2581bast": 7860,
  "\u2581trick": 7861,
  "wania": 7862,
  "\u2581legislative": 7863,
  "\u2581noted": 7864,
  "layer": 7865,
  "ryn": 7866,
  "\u2581pow\u00f3d": 7867,
  "\u2581rower": 7868,
  "\u2581\u015brodowisko": 7869,
  "fan": 7870,
  "COM": 7871,
  "\u2581kontrol\u0119": 7872,
  "\u2581victims": 7873,
  "\u2581Poziom": 7874,
  "\u2581normy": 7875,
  "\u2581ucz": 7876,
  "\u2581reasonable": 7877,
  "arm": 7878,
  "\u2581niemo\u017cliwe": 7879,
  "\u2581task": 7880,
  "\u2581directive": 7881,
  "lokal": 7882,
  "\u2581Dyrektor": 7883,
  "\u2581frequency": 7884,
  "4%": 7885,
  "PI": 7886,
  "\u2581(0)": 7887,
  "\u2581m\u0119\u017cczyzna": 7888,
  "rn": 7889,
  "\u2581Sweden": 7890,
  "screen": 7891,
  "\u2581Agencji": 7892,
  "\u2581spoke": 7893,
  "DC": 7894,
  "\u2581agencji": 7895,
  "\u2581Products": 7896,
  "kryty": 7897,
  "t\u00f3r": 7898,
  "\u2581greatest": 7899,
  "\u2581biggest": 7900,
  "j\u0105cej": 7901,
  "\u2581gospodarczych": 7902,
  "\u2581Clar": 7903,
  "\u2581przej\u015b\u0107": 7904,
  ".3.": 7905,
  "\u2581seriously": 7906,
  "\u2581znalaz\u0142a": 7907,
  "\u2581wzi\u0105\u0142": 7908,
  "For": 7909,
  "\u2581warzyw": 7910,
  "\u2581d\u0142ugo\u015bci": 7911,
  "\u2581Obecnie": 7912,
  "\u2581examination": 7913,
  "sja": 7914,
  "syp": 7915,
  "\u2581dokona\u0107": 7916,
  "\u2581religious": 7917,
  "\u2581chcieli": 7918,
  "\u2581kana\u0142y": 7919,
  "\u2581assume": 7920,
  "\u2581entrepreneurs": 7921,
  "\u2581refundacji": 7922,
  "istic": 7923,
  "blok": 7924,
  "fal": 7925,
  "\u2581przetwarzania": 7926,
  "\u2581s\u0142ab": 7927,
  "rk": 7928,
  "\u2581sprz\u0119tu": 7929,
  "\u2581maj": 7930,
  "\u2581Creat": 7931,
  "\u2581le\u017cy": 7932,
  "\u2581Kapitan": 7933,
  "\u2581pure": 7934,
  "\u2581Obie": 7935,
  "host": 7936,
  "\u2581Finally": 7937,
  "\u2581Czasami": 7938,
  "esse": 7939,
  "\u2581goal": 7940,
  "nit": 7941,
  "\u2581li\u015bcie": 7942,
  "\u2581SP": 7943,
  "\u2581gaz": 7944,
  "wie\u015b\u0107": 7945,
  "\u2581stone": 7946,
  "\u2581innovative": 7947,
  "\u2581consistent": 7948,
  "\u2581objawy": 7949,
  "vir": 7950,
  "wany": 7951,
  "\u2581detail": 7952,
  "\u2581ty\u0142u": 7953,
  "\u2581roof": 7954,
  "omb": 7955,
  "ates": 7956,
  "\u2581happi": 7957,
  "\u2581Japan": 7958,
  "\u2581badanie": 7959,
  "\u258182": 7960,
  "\u2581rating": 7961,
  "\u2581istniej\u0105cych": 7962,
  "\u2581programie": 7963,
  "\u2581olej": 7964,
  "\u2581solid": 7965,
  "\u2581M\u015aP": 7966,
  "owanego": 7967,
  "tego": 7968,
  "\u2581aircraft": 7969,
  "\u2581prawdy": 7970,
  "lash": 7971,
  "cznej": 7972,
  "\u2581promised": 7973,
  "\u2581podlega": 7974,
  "1)": 7975,
  "\u2581chcia\u0142aby": 7976,
  "\u2581\u015bpiewa": 7977,
  "\u2581comprehensive": 7978,
  "ging": 7979,
  "oth": 7980,
  "\u2581dzie\u0107mi": 7981,
  "\u2581pi\u015bmie": 7982,
  "\u258163": 7983,
  "\u2581chroni\u0107": 7984,
  "\u2581appears": 7985,
  "rz\u0119": 7986,
  "pri": 7987,
  "\u2581operate": 7988,
  "\u2581kultury": 7989,
  "\u2581otwarte": 7990,
  "\u2581fellow": 7991,
  "\u2581c\u00f3\u017c": 7992,
  "\u2581models": 7993,
  "\u2581Para": 7994,
  "\u2581\u015brod": 7995,
  "\u2581zadanie": 7996,
  "PO": 7997,
  "czej": 7998,
  "aid": 7999,
  "\u2581stacji": 8000,
  "\u2581introduction": 8001,
  "\u2581Gor": 8002,
  "-2-": 8003,
  "\u2581constitute": 8004,
  "\u2581flu": 8005,
  "\u2581powa\u017cne": 8006,
  "\u2581zabra\u0142": 8007,
  "\u2581weapons": 8008,
  "\u2581obiektu": 8009,
  "\u2581Additional": 8010,
  "\u2581Channel": 8011,
  "\u2581leaves": 8012,
  "\u2581Regulations": 8013,
  "\u2581print": 8014,
  "\u2581suffering": 8015,
  "n\u0119li": 8016,
  "\u2581licence": 8017,
  "\u2581jedynym": 8018,
  "\u2581instructions": 8019,
  "\u2581individuals": 8020,
  "\u2581shape": 8021,
  "\u2581pewnych": 8022,
  "cale": 8023,
  "ability": 8024,
  "zyn": 8025,
  "\u2581improving": 8026,
  "\u2581sukces": 8027,
  "\u2581siostra": 8028,
  "\u2581finding": 8029,
  "\u2581truly": 8030,
  "\u2581wpis": 8031,
  "\u2581absence": 8032,
  "twierdz": 8033,
  "\u2581owe": 8034,
  "\u2581intervention": 8035,
  "\u2581enforcement": 8036,
  "\u2581invite": 8037,
  "\u2581narz\u0119dzia": 8038,
  "\u2581army": 8039,
  "\u2581skali": 8040,
  "liwy": 8041,
  "chem": 8042,
  "\u2581generation": 8043,
  "\u2581vegetables": 8044,
  "\u2581fantas": 8045,
  "\u2581zainteresowane": 8046,
  "\u2581sp\u00f3\u017ani": 8047,
  "NE": 8048,
  "\u2581bedroom": 8049,
  "-20": 8050,
  "\u2581Sport": 8051,
  "\u2581Stra": 8052,
  "bon": 8053,
  "\u2581trzeciego": 8054,
  "\u2581experienced": 8055,
  "\u2581dzia\u0142a\u0107": 8056,
  "\u2581Zanim": 8057,
  "\u2581kosz": 8058,
  "\u2581agencies": 8059,
  "rma": 8060,
  "\u2581Rob": 8061,
  "\u2581regionu": 8062,
  "\u2581profit": 8063,
  "ison": 8064,
  "\u2581SE": 8065,
  "\u2581Public": 8066,
  "drow": 8067,
  "syn": 8068,
  "\u2581hop": 8069,
  "/07": 8070,
  "dle": 8071,
  "\u2581Ukraine": 8072,
  "EM": 8073,
  "mys\u0142": 8074,
  "\u2581knock": 8075,
  "\u2581Pet": 8076,
  "wne": 8077,
  "\u2581wspomniane": 8078,
  "\u2581Abraham": 8079,
  "\u2581pieces": 8080,
  "wid": 8081,
  "szyst": 8082,
  "AG": 8083,
  "\u2581dowod\u00f3w": 8084,
  "\u2581list\u0119": 8085,
  "\u2581impress": 8086,
  "\u2581Description": 8087,
  "\u2581okre\u015blono": 8088,
  "inform": 8089,
  "\u2581Rose": 8090,
  "pir": 8091,
  "\u2581duration": 8092,
  "losing": 8093,
  "\u2581letters": 8094,
  "\u258169": 8095,
  "\u2581usun\u0105\u0107": 8096,
  "CS": 8097,
  "\u2581Problem": 8098,
  "kt\u00f3rzy": 8099,
  "\u2581combined": 8100,
  "7%": 8101,
  "tyczny": 8102,
  "\u2581neighbor": 8103,
  "\u2581Sun": 8104,
  "\u2581tytu\u0142": 8105,
  "\u2581Climat": 8106,
  "owa\u0142o": 8107,
  "\u2581zegar": 8108,
  "\u2581capable": 8109,
  "\u2581wieczor": 8110,
  "\u2581zam\u00f3wienia": 8111,
  "\u2581der": 8112,
  "\u2581EUROPEJSKICH": 8113,
  "\u2581mocno": 8114,
  "\u2581worship": 8115,
  "\u258177": 8116,
  "\u2581du\u017c\u0105": 8117,
  "\u2581restructuring": 8118,
  "\u2581Regional": 8119,
  "\u2581swych": 8120,
  "\u2581wida\u0107": 8121,
  "\u2581committee": 8122,
  "awa": 8123,
  "\u2581express": 8124,
  "\u2581chi": 8125,
  "\u2581functioning": 8126,
  "\u2581encourage": 8127,
  "\u2581pra": 8128,
  "\u2581szpitala": 8129,
  "UT": 8130,
  "\u2581swej": 8131,
  "\u2581Dzia\u0142": 8132,
  "\u2581Both": 8133,
  "ch\u00f3d": 8134,
  "owani": 8135,
  "MO": 8136,
  "ties": 8137,
  "\u2581W\u0142ochy": 8138,
  "\u2581ur": 8139,
  "\u2581wydajno\u015bci": 8140,
  "\u2581pierwszych": 8141,
  "\u017cona": 8142,
  "mienia": 8143,
  "\u2581manually": 8144,
  "ense": 8145,
  "\u2581harm": 8146,
  "\u2581COMMUNITIES": 8147,
  "\u2581Jews": 8148,
  "\u2581okre\u015blonym": 8149,
  "\u2581krzyw": 8150,
  "\u2581recognised": 8151,
  "\u2581zwierz\u0119ta": 8152,
  "w\u00f3r": 8153,
  "TH": 8154,
  "gy": 8155,
  "\u2581answers": 8156,
  "\u2581procesie": 8157,
  "\u2581znane": 8158,
  "\u2581differences": 8159,
  "\u2581GPS": 8160,
  "\u2581znany": 8161,
  "enne": 8162,
  "\u2581Games": 8163,
  "\u2581czasami": 8164,
  "\u2581fill": 8165,
  "\u2581po\u0142ow\u00f3w": 8166,
  "\u2581w\u0142a\u015bciwych": 8167,
  "\u2581pobytu": 8168,
  "\u2581ukrywa": 8169,
  "\u2581afternoon": 8170,
  "bri": 8171,
  "\u2581europejskim": 8172,
  "\u2581ramy": 8173,
  "\u2581monitor": 8174,
  "\u2581(7)": 8175,
  "\u2581sum": 8176,
  "\u2581odpowiedni": 8177,
  "\u2581najlepszym": 8178,
  "\u25814-": 8179,
  "\u2581korzysta": 8180,
  "gener": 8181,
  "\u2581Global": 8182,
  "\u2581Najpierw": 8183,
  "\u2581dying": 8184,
  "ebra\u0107": 8185,
  "\u2581powder": 8186,
  "AK": 8187,
  "\u2581mechanism": 8188,
  "\u2581opinie": 8189,
  "\u2581Met": 8190,
  "\u2581wykorzystuje": 8191,
  "\u2581quarter": 8192,
  "\u2581weapon": 8193,
  "\u2581manage": 8194,
  "\u2581owner": 8195,
  "\u2581stwierdza": 8196,
  "\u2581Obszar": 8197,
  "\u2581Sar": 8198,
  "\u2581histori\u0119": 8199,
  "\u2581lod\u00f3w": 8200,
  "9%": 8201,
  "\u2581Medi": 8202,
  "\u2581materia\u0142": 8203,
  "TO": 8204,
  "cum": 8205,
  "\u2581Bo\u017cego": 8206,
  "\u2581pewnego": 8207,
  "\u2581raport": 8208,
  "\u2581paliwa": 8209,
  "\u2581informacyjn": 8210,
  "\u2581wielkim": 8211,
  "\u2581pokazuje": 8212,
  "\u2581tor": 8213,
  "\u2581st\u0119\u017cenie": 8214,
  "4.": 8215,
  "\u258186": 8216,
  "\u2581tekstu": 8217,
  "\u2581oka": 8218,
  "\u258178": 8219,
  "\u2581eating": 8220,
  "\u2581pod\u0142og": 8221,
  "uma": 8222,
  "And": 8223,
  "gal": 8224,
  "ava": 8225,
  "\u2581opr\u00f3cz": 8226,
  "nom": 8227,
  "\u2581wsp\u00f3lnotowych": 8228,
  "\u2581opini\u0105": 8229,
  "\u2581updated": 8230,
  "\u2581osi": 8231,
  "gran": 8232,
  "\u2581angry": 8233,
  "\u2581failed": 8234,
  "\u2581mleka": 8235,
  ".12.": 8236,
  "wstrzyma\u0107": 8237,
  "\u2581humans": 8238,
  "\u2581sta\u0142e": 8239,
  "\u2581update": 8240,
  "\u2581czasach": 8241,
  "dzi\u0119k": 8242,
  "\u2581Razem": 8243,
  "tant": 8244,
  "\u2581connect": 8245,
  "pocz": 8246,
  "IG": 8247,
  "\u2581blame": 8248,
  "cenie": 8249,
  "vid": 8250,
  "\u2581noise": 8251,
  "\u2581dates": 8252,
  "-9": 8253,
  "iana": 8254,
  "nienia": 8255,
  "\u2581tj": 8256,
  "\u2581oral": 8257,
  "\u2581Ca\u0142y": 8258,
  "\u2581participate": 8259,
  "cina": 8260,
  "\u2581Dzisiaj": 8261,
  "metr": 8262,
  "\u2581Case": 8263,
  "\u2581Cat": 8264,
  "\u2581Lecz": 8265,
  "that": 8266,
  "\u2581pojawia": 8267,
  "\u2581sand": 8268,
  "\u2581wizyt": 8269,
  "state": 8270,
  "trafi": 8271,
  "\u2581wspomina": 8272,
  "\u2581Wh": 8273,
  "zona": 8274,
  "\u2581RO": 8275,
  "\u2581wsp\u00f3\u0142prac\u0119": 8276,
  "/12": 8277,
  "\u2581vessel": 8278,
  "\u2581funkcjonowania": 8279,
  "\u2581stability": 8280,
  "tera": 8281,
  "\u2581trzecie": 8282,
  "\u2581Trybuna\u0142": 8283,
  "\u2581Europejskim": 8284,
  "related": 8285,
  "owa\u0142y": 8286,
  "\u2581wszystkimi": 8287,
  "\u2581Funduszu": 8288,
  "bran": 8289,
  "\u2581periods": 8290,
  "\u2581Commissioner": 8291,
  "\u2581cap": 8292,
  "eh": 8293,
  "\u2581inn\u0105": 8294,
  "\u2581deserve": 8295,
  "\u2581pomimo": 8296,
  "\u2581\u015brednio": 8297,
  "\u2581powoduje": 8298,
  "\u2581niewinn": 8299,
  "\u2581clock": 8300,
  "\u2581rozmiar": 8301,
  "\u2581szuka\u0107": 8302,
  "pos": 8303,
  "\u2581lekarzem": 8304,
  "\u258109": 8305,
  "\u2581Class": 8306,
  "\u258173": 8307,
  "\u2581CYP": 8308,
  "kn\u0105\u0107": 8309,
  "\u2581uruchomi": 8310,
  "\u2581procent": 8311,
  "\u2581tourist": 8312,
  "\u2581Prince": 8313,
  "\u2581przeznaczenia": 8314,
  "\u2581airlines": 8315,
  "\u2581competitive": 8316,
  "tele": 8317,
  "\u0119k": 8318,
  "\u2581pop": 8319,
  "\u2581joy": 8320,
  "\u2581nagle": 8321,
  "\u2581pack": 8322,
  "DI": 8323,
  "\u2581judge": 8324,
  "\u2581k\u0142opoty": 8325,
  "\u2581maszyny": 8326,
  "\u2581Nowe": 8327,
  "\u2581mi\u0119": 8328,
  "\u2581sprawdza": 8329,
  "\u2581zwi": 8330,
  "\u2581zachowania": 8331,
  "poli": 8332,
  "\u2581walczy\u0107": 8333,
  "\u2581zr\u00f3wnowa\u017conego": 8334,
  "\u2581SO": 8335,
  "ids": 8336,
  "\u2581Cz\u0119sto": 8337,
  "\u2581session": 8338,
  "lus": 8339,
  "nstru": 8340,
  "\u2581dzieckiem": 8341,
  "lek": 8342,
  "fo": 8343,
  "\u2581flowers": 8344,
  "\u2581revenue": 8345,
  "\u2581stopnia": 8346,
  "\u2581zajmie": 8347,
  "\u2581Framework": 8348,
  "\u2581w\u0142asnego": 8349,
  "\u2581m\u00f3zgu": 8350,
  "\u2581checked": 8351,
  "\u2581wiatr": 8352,
  "\u2581naukowych": 8353,
  "FR": 8354,
  "\u2581mono": 8355,
  "\u2581entirely": 8356,
  "\u2581bram": 8357,
  "\u2581drinking": 8358,
  "cz\u0105c": 8359,
  "\u2581plac": 8360,
  "\u2581przeznaczonych": 8361,
  "ush": 8362,
  "\u2581s\u0105d": 8363,
  "\u2581Jen": 8364,
  "\u2581przedstawione": 8365,
  "\u2581dzia": 8366,
  "\u2581strategic": 8367,
  "\u2581Mod": 8368,
  "gel": 8369,
  "\u0144czy": 8370,
  "\u2581smoke": 8371,
  "pust": 8372,
  "\u2581Ul": 8373,
  "vy": 8374,
  "\u2581ponadto": 8375,
  "\u2581ofiary": 8376,
  "\u2581contents": 8377,
  "zbyt": 8378,
  "tud": 8379,
  "\u2581du\u017cej": 8380,
  "\u2581d\u0142ug": 8381,
  "\u2581Organ": 8382,
  "\u2581registry": 8383,
  "\u2581background": 8384,
  "zan": 8385,
  "like": 8386,
  "\u2581instance": 8387,
  "\u2581consequences": 8388,
  "\u258181": 8389,
  "restauracj": 8390,
  "\u2581Besides": 8391,
  "\u2581grounds": 8392,
  "\u2581okre\u015blonej": 8393,
  "\u2581Mo\u017cliwe": 8394,
  "\u2581rozk\u0142ad": 8395,
  "\u2581zawieraj\u0105": 8396,
  "\u2581szkody": 8397,
  "\u2581odbywa": 8398,
  "\u2581situations": 8399,
  "\u2581szcz\u0119\u015bliwy": 8400,
  "\u2581masa": 8401,
  "\u2581Francja": 8402,
  "\u2581potrzebujemy": 8403,
  "\u2581Face": 8404,
  "cyjny": 8405,
  "\u2581remind": 8406,
  "\u2581strengthen": 8407,
  "\u2581selling": 8408,
  "hit": 8409,
  "\u2581wysoko": 8410,
  "\u2581Satellite": 8411,
  "\u2581integracji": 8412,
  "\u2581rail": 8413,
  "fast": 8414,
  "ges": 8415,
  "\u2581provisional": 8416,
  "\u2581mogliby": 8417,
  "\u2581CH": 8418,
  "\u2581szczer": 8419,
  "\u2581kli": 8420,
  "\u2581Smok": 8421,
  "\u2581chcia\u0142by": 8422,
  "\u2581Chrystus": 8423,
  "\u2581AG": 8424,
  "3)": 8425,
  "\u2581Belgium": 8426,
  "\u258171": 8427,
  "\u2581konkurs": 8428,
  "\u2581returned": 8429,
  "\u2581plany": 8430,
  "FI": 8431,
  "\u2581(1),": 8432,
  "\u2581Rol": 8433,
  "\u2581mieli\u015bmy": 8434,
  "\u2581dogs": 8435,
  "\u2581wi\u0119zienia": 8436,
  "\u2581respectively": 8437,
  "\u2581\u017cony": 8438,
  "\u2581rare": 8439,
  "kry\u0107": 8440,
  "\u2581bottle": 8441,
  "ij": 8442,
  "\u2581Music": 8443,
  "\u2581cry": 8444,
  "\u2581s\u0142u\u017cb": 8445,
  "restrukturyzacji": 8446,
  "bru": 8447,
  "\u2581mere": 8448,
  "band": 8449,
  "\u2581formula": 8450,
  "\u2581liked": 8451,
  "rzec": 8452,
  "EK": 8453,
  "etki": 8454,
  "\u2581w\u0142asn\u0105": 8455,
  "ective": 8456,
  "\u2581wsz\u0119dzie": 8457,
  "\u2581sprawozdaniu": 8458,
  "\u2581Stara": 8459,
  "\u2581wyra\u017ca": 8460,
  "zob": 8461,
  "\u2581przycisk": 8462,
  "\u2581ostatnim": 8463,
  "\u2581liver": 8464,
  "d\u0142ugo": 8465,
  "\u2581inspection": 8466,
  "\u2581kryzys": 8467,
  "\u2581administered": 8468,
  "\u2581danger": 8469,
  "vor": 8470,
  "\u2581delay": 8471,
  "\u2581accessible": 8472,
  "\u2581stworzy\u0142": 8473,
  "NG": 8474,
  "\u2581burn": 8475,
  "\u2581hidden": 8476,
  "\u2581Fire": 8477,
  "\u2581effectively": 8478,
  "etic": 8479,
  "\u2581advanced": 8480,
  "\u2581Little": 8481,
  "ines": 8482,
  "\u2581trading": 8483,
  "\u2581Available": 8484,
  "\u0142\u0105czy\u0142": 8485,
  "\u2581zawartych": 8486,
  "owanej": 8487,
  "\u2581mate": 8488,
  "\u2581tamt": 8489,
  "\u2581Rec": 8490,
  "\u2581Por": 8491,
  "pine": 8492,
  "inter": 8493,
  "\u2581Bill": 8494,
  "\u2581carbon": 8495,
  "\u2581motyw": 8496,
  "\u2581bazie": 8497,
  "\u2581wprowadzi\u0107": 8498,
  "\u2581perfectly": 8499,
  "\u2581taught": 8500,
  "\u2581\u017con\u0119": 8501,
  "\u2581em": 8502,
  "/1": 8503,
  "\u25816,": 8504,
  "\u015bwiadcz": 8505,
  "\u2581w\u0142asnym": 8506,
  "\u2581promoting": 8507,
  "\u2581wykorzystywane": 8508,
  "\u2581breath": 8509,
  "\u2581transparency": 8510,
  "\u2581female": 8511,
  "4)": 8512,
  "\u2581(2),": 8513,
  "\u2581sta\u0142a": 8514,
  "\u2581uk": 8515,
  "\u2581accompanied": 8516,
  "\u2581okre\u015blonymi": 8517,
  "\u2581Adria": 8518,
  "CC": 8519,
  "\u2581personelu": 8520,
  "\u2581unikn\u0105\u0107": 8521,
  "\u2581concept": 8522,
  "\u2581rozwi\u0105za\u0107": 8523,
  "head": 8524,
  "\u2581recommend": 8525,
  "\u2581wy\u015bcig": 8526,
  "lok": 8527,
  "\u2581leader": 8528,
  "\u2581soft": 8529,
  ".6.": 8530,
  "\u2581konieczno\u015b\u0107": 8531,
  "\u2581rejestracji": 8532,
  "icznych": 8533,
  "\u2581Pokoju": 8534,
  "\u2581og\u00f3lnego": 8535,
  ".1.": 8536,
  "\u2581ustanowione": 8537,
  "\u2581Agent": 8538,
  ".5.": 8539,
  "\u2581niemal": 8540,
  "\u2581prayer": 8541,
  "\u2581Note": 8542,
  "\u2581clients": 8543,
  "word": 8544,
  "dla": 8545,
  "\u2581ostatniej": 8546,
  "\u2581award": 8547,
  "\u2581sporo": 8548,
  "ograf": 8549,
  "\u2581minus": 8550,
  "\u2581drzew": 8551,
  "\u2581Title": 8552,
  "\u2581Romania": 8553,
  "2016": 8554,
  "\u2581ka\u017cda": 8555,
  "\u2581Jorku": 8556,
  "\u2581interes\u00f3w": 8557,
  "\u2581invitation": 8558,
  "\u2581klient": 8559,
  "rzut": 8560,
  "\u2581painting": 8561,
  "\u203a": 8562,
  "\u2581wsp\u00f3lnie": 8563,
  "\u2581banku": 8564,
  "prezent": 8565,
  "\u258130%": 8566,
  "\u2581improved": 8567,
  "\u2581g\u0142osu": 8568,
  "aster": 8569,
  "ozy": 8570,
  "\u2581fund": 8571,
  "7,": 8572,
  "\u2581Inc": 8573,
  "CT": 8574,
  "Mi": 8575,
  "\u2581guide": 8576,
  "\u2581priorities": 8577,
  "\u2581woda": 8578,
  "\u2581180": 8579,
  "tkow": 8580,
  "\u00d3": 8581,
  "\u2581neuro": 8582,
  "\u2581ancient": 8583,
  "\u2581du\u017cym": 8584,
  "\u2581uczucie": 8585,
  "\u2581facts": 8586,
  "\u2581es": 8587,
  "\u2581PM": 8588,
  "\u2581Non": 8589,
  "\u2581k\u0142amstw": 8590,
  "\u2581przyczyn": 8591,
  "\u2581bigger": 8592,
  "\u2581drug\u0105": 8593,
  "\u2581ocena": 8594,
  "czas": 8595,
  "rejestr": 8596,
  "\u2581classes": 8597,
  "\u2581Madam": 8598,
  "\u2581wprowadzania": 8599,
  "\u00c3": 8600,
  "\u2581opiera": 8601,
  "\u2581wiadomo": 8602,
  "\u2581ekspert\u00f3w": 8603,
  "\u2581dotycz\u0105": 8604,
  "\u2581turns": 8605,
  "place": 8606,
  "\u2581mi\u0119sa": 8607,
  "\u2581jail": 8608,
  "9,": 8609,
  "\u2581guard": 8610,
  "\u2581mid": 8611,
  "twa": 8612,
  "\u2581Jordan": 8613,
  "\u2581estimated": 8614,
  "\u2581Mieli": 8615,
  "\u2581Podobnie": 8616,
  "\u2581changing": 8617,
  "\u2581zdj\u0119\u0107": 8618,
  "trud": 8619,
  "\u2581sleeping": 8620,
  "\u2581onto": 8621,
  "\u2581jasno": 8622,
  "\u2581staying": 8623,
  "\u2581stanowi\u0107": 8624,
  "atrze\u0107": 8625,
  "\u2581p\u0142ci": 8626,
  "\u2581wyj\u015bcia": 8627,
  "cream": 8628,
  "\u2581Run": 8629,
  "fully": 8630,
  "izm": 8631,
  "\u2581wyst\u0119powania": 8632,
  "\u2581wysy\u0142a": 8633,
  "\u2581Send": 8634,
  "\u2581Wyniki": 8635,
  "\u2581organization": 8636,
  "\u2581zapyta\u0107": 8637,
  "\u2581EFTA": 8638,
  "wspania": 8639,
  "\u2581permanent": 8640,
  "\u2581aktywno\u015bci": 8641,
  "\u2581szko\u0142": 8642,
  "\u2581sens": 8643,
  "\u015bwiadom": 8644,
  "\u2581SMEs": 8645,
  "\u2581dochodzenia": 8646,
  "wych": 8647,
  "\u258125%": 8648,
  "\u2581starts": 8649,
  "AB": 8650,
  "2011": 8651,
  "\u2581107": 8652,
  "\u2581mieszka\u0144c\u00f3w": 8653,
  "\u2581Barb": 8654,
  "\u2581introduce": 8655,
  "mand": 8656,
  "\u2581forces": 8657,
  "\u2581enemy": 8658,
  "\u2581Head": 8659,
  "\u2581statki": 8660,
  "ecyd": 8661,
  "zol": 8662,
  "\u2581stable": 8663,
  "\u2581schedule": 8664,
  "ologii": 8665,
  "\u2581associations": 8666,
  "\u2581formy": 8667,
  "\u2581wdra\u017cania": 8668,
  "\u2581Amsterdam": 8669,
  "\u2581rybo\u0142\u00f3wstwa": 8670,
  "-15": 8671,
  "2018": 8672,
  "\u2581corner": 8673,
  "padnie": 8674,
  "\u2581compensation": 8675,
  "\u2581spo\u0142ecznego": 8676,
  "\u2581p\u00f3\u0142noc": 8677,
  "\u2581walczy": 8678,
  "\u2581declared": 8679,
  "\u2581komputera": 8680,
  "td": 8681,
  "\u2581nogi": 8682,
  "\u2581nearly": 8683,
  "gov": 8684,
  "\u2581kolejnych": 8685,
  "\u2581regulaminu": 8686,
  "ival": 8687,
  "\u2581skuteczne": 8688,
  "\u2581British": 8689,
  "\u2581Communities": 8690,
  "\u2581Beau": 8691,
  "\u2581momentu": 8692,
  "orient": 8693,
  "daj\u0119": 8694,
  "\u2581Honey": 8695,
  "\u2581stu": 8696,
  "\u2581mode": 8697,
  "\u2581seed": 8698,
  "GA": 8699,
  "\u2581Department": 8700,
  "ju": 8701,
  "\u2581manufacture": 8702,
  "\u2581uzna\u0107": 8703,
  "\u2581Mak": 8704,
  "rian": 8705,
  "\u2581elektro": 8706,
  "\u2581electric": 8707,
  "\u2581wielk\u0105": 8708,
  "komfort": 8709,
  "\u2581dodatku": 8710,
  "\u2581op\u0142aty": 8711,
  "\u2581Gaz": 8712,
  "\u258110:": 8713,
  "\u2581zam\u00f3wie\u0144": 8714,
  "\u2581Start": 8715,
  "\u2581pobierania": 8716,
  "\u2581pray": 8717,
  "arry": 8718,
  "\u2581spada": 8719,
  "\u2581lokalnych": 8720,
  "\u2581youth": 8721,
  "\u2581stakeholders": 8722,
  "\u2581flying": 8723,
  "2012": 8724,
  "\u2581Five": 8725,
  "\u2581developments": 8726,
  "\u2581wiecie": 8727,
  "\u2581Kap": 8728,
  "\u2581misji": 8729,
  "\u2581destroyed": 8730,
  "\u2581reaction": 8731,
  "\u2581nast\u0119pnego": 8732,
  "\u2581bia\u0142y": 8733,
  "OM": 8734,
  "\u2581OD": 8735,
  "FA": 8736,
  "\u2581114": 8737,
  "\u2581represent": 8738,
  "\u0159": 8739,
  "CZ": 8740,
  "\u2581politycznych": 8741,
  "\u2581Place": 8742,
  "\u2581dyrektor": 8743,
  "kwi": 8744,
  "\u2581rid": 8745,
  "\u2581stworzenia": 8746,
  "\u2581przysz\u0142a": 8747,
  "\u2581sheet": 8748,
  "comp": 8749,
  "\u2581przechodzi": 8750,
  "ulations": 8751,
  "2.": 8752,
  "\u2581kluczowe": 8753,
  "\u2581mn\u00f3stwo": 8754,
  "OD": 8755,
  "\u2581fee": 8756,
  "\u2581shoes": 8757,
  "\u2581Denmark": 8758,
  "\u2581Wsp\u00f3lnot": 8759,
  "\u2581sposobu": 8760,
  "\u2581w\u0142a\u015bciwym": 8761,
  "olo": 8762,
  "\u2581Kre": 8763,
  "\u2581negocjacji": 8764,
  "dur": 8765,
  "\u2581participants": 8766,
  "er\u00f3w": 8767,
  "abel": 8768,
  "pa\u015b\u0107": 8769,
  "\u2581Wielka": 8770,
  "\u2581podej\u015bcia": 8771,
  "\u2581desire": 8772,
  "300": 8773,
  "ancy": 8774,
  "\u2581obiekt": 8775,
  "\u2581winter": 8776,
  "\u2581maj\u0105cy": 8777,
  "\u2581repair": 8778,
  "\u2581shock": 8779,
  "\u2581forest": 8780,
  "\u2581install": 8781,
  "\u2581marked": 8782,
  "\u2581dostawy": 8783,
  "\u2581sk\u0142adania": 8784,
  "IZ": 8785,
  "\u2581pierwsz\u0105": 8786,
  "\u2581zdradz": 8787,
  "onej": 8788,
  "\u2581automatically": 8789,
  "tum": 8790,
  "\u2581numery": 8791,
  "\u2581wymagaj\u0105": 8792,
  "\u2581component": 8793,
  "\u2581NO": 8794,
  "rezerw": 8795,
  "\u2581Chief": 8796,
  "\u2581dobrych": 8797,
  "\u2581smak": 8798,
  "\u258176": 8799,
  "ome": 8800,
  "\u2581przyzna\u0107": 8801,
  "\u2581Monday": 8802,
  "\u2581immediate": 8803,
  "\u2581przypadki": 8804,
  "\u2581department": 8805,
  "\u2581pill": 8806,
  "\u2581pragnie": 8807,
  "\u2581facility": 8808,
  "szcz\u0119dz": 8809,
  "down": 8810,
  "\u2581tablic": 8811,
  "\u2581Hand": 8812,
  "g\u0142a": 8813,
  "\u2581assess": 8814,
  "\u2581forgive": 8815,
  "UM": 8816,
  "dania": 8817,
  "\u2581stosowany": 8818,
  "\u2581ST": 8819,
  "\u2581utrzyma\u0107": 8820,
  "\u25811991": 8821,
  "\u2581swimming": 8822,
  "trysk": 8823,
  "\u2581wysp": 8824,
  "rand": 8825,
  "\u2581dealing": 8826,
  "\u2581Rok": 8827,
  "\u2581wykonane": 8828,
  "\u2581conclusions": 8829,
  "unek": 8830,
  "\u2581morze": 8831,
  "\u2581internetowe": 8832,
  "\u2581mi\u0119dzynarodowej": 8833,
  "\u017cywa": 8834,
  "alnych": 8835,
  "mond": 8836,
  "\u2581tariff": 8837,
  "\u2581Dys": 8838,
  "ding": 8839,
  "\u2581elektrycznej": 8840,
  "\u2581obr": 8841,
  "\u2581el": 8842,
  "\u2581pora": 8843,
  "\u2581stress": 8844,
  "\u2581Institute": 8845,
  "\u2581feature": 8846,
  "d\u0142o": 8847,
  "\u2581Pl": 8848,
  "\u2581klinicznych": 8849,
  "\u2581discussion": 8850,
  "\u2581arch": 8851,
  "isty": 8852,
  "\u2581liczy": 8853,
  "\u2581znaczne": 8854,
  "\u017cyt": 8855,
  "\u2581arrival": 8856,
  "\u2581quit": 8857,
  "\u2581adults": 8858,
  "\u2581subjects": 8859,
  "\u2581plastic": 8860,
  "\u2581Type": 8861,
  "\u2581Wysoki": 8862,
  "\u2581Current": 8863,
  "ilo": 8864,
  "core": 8865,
  "\u2581twierdzi": 8866,
  "\u2581odpowiedzialne": 8867,
  "acyjny": 8868,
  "\u2581(-": 8869,
  "\u2581muzyki": 8870,
  "ywa\u0107": 8871,
  "g\u0119": 8872,
  "skar": 8873,
  "owo\u015b\u0107": 8874,
  "\u2581Partner": 8875,
  "\u2581protest": 8876,
  "phone": 8877,
  "\u2581dotycz\u0105ca": 8878,
  "\u2581\u017ar\u00f3d\u0142o": 8879,
  "\u2581stuck": 8880,
  "\u2581w\u0142adzy": 8881,
  "\u25811%": 8882,
  "\u2581Children": 8883,
  "\u2581fourth": 8884,
  "\u2581g\u00f3rze": 8885,
  "\u2581Grupy": 8886,
  "\u2581dotycz\u0105c\u0105": 8887,
  "rzesz": 8888,
  "plan": 8889,
  "\u2581indziej": 8890,
  "\u25812.1": 8891,
  "\u2581default": 8892,
  "\u2581got\u00f3w": 8893,
  "\u2581ustali\u0107": 8894,
  "\u2581etapie": 8895,
  "ylo": 8896,
  "\u2581Pa\u0144stwach": 8897,
  "\u2581wska\u017anik": 8898,
  "\u2581ocenie": 8899,
  "\u2581chief": 8900,
  "qu": 8901,
  "\u2581display": 8902,
  "\u2581przedstawi\u0107": 8903,
  "\u2581violence": 8904,
  "\u2581uwa\u017cam": 8905,
  "\u2581carefully": 8906,
  "\u2581podmiot": 8907,
  "\u2581wyda": 8908,
  "rol": 8909,
  "\u2581125": 8910,
  "ART": 8911,
  "\u2581technicznej": 8912,
  "\u2581universe": 8913,
  "\u2581ludno\u015bci": 8914,
  "\u2581uciec": 8915,
  "\u2581fixing": 8916,
  "view": 8917,
  "\u2581roll": 8918,
  "\u2581stars": 8919,
  "\u2581zwi\u0119kszy\u0107": 8920,
  "\u2581Step": 8921,
  "\u2581imposed": 8922,
  "\u2581accounting": 8923,
  "\u2581szybciej": 8924,
  "\u2581wydania": 8925,
  "\u2581zwyczaj": 8926,
  "\u2581\u0142atwe": 8927,
  "\u2581rural": 8928,
  "\u2581admit": 8929,
  "\u2581competitiveness": 8930,
  "\u2581cent": 8931,
  "\u2581mog\u0142o": 8932,
  "\u2581pi\u0105te": 8933,
  "\u2581contributions": 8934,
  "lecia": 8935,
  "\u2581obecno\u015bci": 8936,
  "\u2581closely": 8937,
  "\u2581diseases": 8938,
  "\u2581breast": 8939,
  "\u2581thousands": 8940,
  "\u2581przywozie": 8941,
  "\u2581Przepisy": 8942,
  "\u2581verification": 8943,
  "gre": 8944,
  "\u2581Sprawiedliwo\u015bci": 8945,
  "\u2581shopping": 8946,
  "\u2581Zaburzeni": 8947,
  "\u2581110": 8948,
  "\u2581sposobem": 8949,
  "\u2581Know": 8950,
  "\u2581Ocena": 8951,
  "\u2581threat": 8952,
  "\u2581stawia": 8953,
  "\u2581ed": 8954,
  "\u2581effectiveness": 8955,
  "\u2581Ojciec": 8956,
  "\u2581us\u0142ysze": 8957,
  "\u2581filtr": 8958,
  "sek": 8959,
  "\u2581prosty": 8960,
  "\u2581gain": 8961,
  "\u2581pr\u0119dko\u015bci": 8962,
  "CAS": 8963,
  "\u2581spring": 8964,
[...]
