{
  "</s>": 0,
  "<unk>": 1,
  ".": 2,
  ",": 3,
  "\u2581la": 4,
  "\u2581the": 5,
  "'": 6,
  "\u2581to": 7,
  "\u2581of": 8,
  "\u2581I": 9,
  "?": 10,
  "\u2581de": 11,
  "\u2581and": 12,
  "s": 13,
  "\u2581kaj": 14,
  "\u2581estas": 15,
  "\u2581a": 16,
  "\u2581al": 17,
  "\u2581you": 18,
  "\u2581Mi": 19,
  "n": 20,
  "\u2581ne": 21,
  ":": 22,
  "\u2581vi": 23,
  "\u2581is": 24,
  "\u2581in": 25,
  ";": 26,
  "\u2581en": 27,
  "\u2581mi": 28,
  "\u2581Tom": 29,
  "t": 30,
  "\u2581that": 31,
  "!": 32,
  "\u2581ke": 33,
  "\u2581for": 34,
  "\u2581li": 35,
  "\u2581por": 36,
  "\u2581it": 37,
  "\u2581was": 38,
  "-": 39,
  "\u2581be": 40,
  "\u2581Kaj": 41,
  "\u2581he": 42,
  "\u2581La": 43,
  "j": 44,
  "\u2581not": 45,
  "\u2581The": 46,
  "\u2581-": 47,
  "\u2581with": 48,
  "\u2581have": 49,
  "\u2581his": 50,
  "\u2581me": 51,
  "\u2581are": 52,
  "\u2581estis": 53,
  "\u2581\"": 54,
  "\u2581my": 55,
  "\u2581on": 56,
  "\u2581Li": 57,
  "\u2581your": 58,
  "\u2581ili": 59,
  "\u2581Tomo": 60,
  "\u2581\u0108u": 61,
  "\u2581him": 62,
  "\u2581this": 63,
  "\u2581will": 64,
  "\u2581He": 65,
  "\u2581all": 66,
  "\u2581do": 67,
  "\u2581And": 68,
  "...": 69,
  "\u2581they": 70,
  "\u2581el": 71,
  "\u2581": 72,
  "\u2581Vi": 73,
  "\u2581kun": 74,
  "\u2581pri": 75,
  "\u2581ni": 76,
  "\u2581You": 77,
  "\u2581shall": 78,
  "\u2581them": 79,
  "\u2581from": 80,
  "\u2581as": 81,
  "m": 82,
  "\u2581kiel": 83,
  "\u2581diris": 84,
  "\u2581kiu": 85,
  "\u2581tiu": 86,
  "\u2581\u0109i": 87,
  "\u2581povas": 88,
  "\u2581sur": 89,
  "\u2581can": 90,
  "\u2581&": 91,
  "\u2581at": 92,
  "\u2581Eternulo": 93,
  "\u2581It": 94,
  "\u2581per": 95,
  "\u2581Ni": 96,
  "\u2581tion": 97,
  "\u2581havas": 98,
  "\u2581(": 99,
  "\u2581min": 100,
  "\u2581by": 101,
  ")": 102,
  "\u2581tio": 103,
  "\u2581we": 104,
  "\u2581vin": 105,
  "\u2581We": 106,
  "\u2581like": 107,
  "\u2581said": 108,
  "\u2581her": 109,
  "u": 110,
  "\u2581out": 111,
  "jn": 112,
  "\u2581who": 113,
  "\u2581Ne": 114,
  "\u2581mia": 115,
  "\u2581know": 116,
  "\u2581pli": 117,
  "\u2581via": 118,
  "\u2581up": 119,
  "\u2581has": 120,
  "\u2581an": 121,
  "\u2581but": 122,
  "\u2581were": 123,
  "a": 124,
  "\u2581don": 125,
  "d": 126,
  "\u2581one": 127,
  "\u2581their": 128,
  "\u2581had": 129,
  "re": 130,
  "\u2581unto": 131,
  "\u2581which": 132,
  "\u2581Mary": 133,
  "\u2581She": 134,
  "\u2581there": 135,
  "\u2581sed": 136,
  "\u2581volas": 137,
  "\u2581God": 138,
  "o": 139,
  "ing": 140,
  "\u2581go": 141,
  "\u2581what": 142,
  "\u2581lin": 143,
  "\u2581da": 144,
  "\u2581A": 145,
  "\u2581tie": 146,
  "\u2581\u015ci": 147,
  "\u2581This": 148,
  "\u2581What": 149,
  "e": 150,
  ".\"": 151,
  "\u2581when": 152,
  "\u2581want": 153,
  "\u2581Dio": 154,
  "\u2581about": 155,
  "\u2581kiam": 156,
  "ll": 157,
  "\u2581man": 158,
  "\u2581no": 159,
  "\u2581people": 160,
  "\u2581Do": 161,
  "\u2581or": 162,
  "\u2581They": 163,
  "\u2581so": 164,
  "\u2581time": 165,
  "\u2581kion": 166,
  "\u2581scias": 167,
  "\u2581k": 168,
  "\u2581unu": 169,
  "\u2581LORD": 170,
  "\u2581us": 171,
  "\u2581tre": 172,
  "\u2581here": 173,
  "\u2581kiuj": 174,
  "\u2581come": 175,
  "\u2581oni": 176,
  "\u2581_": 177,
  "\u2581estos": 178,
  "\u2581Tio": 179,
  "\u2581name": 180,
  "\u2581into": 181,
  "\u2581ol": 182,
  "\u2581pro": 183,
  "\u2581ilin": 184,
  "\u2581very": 185,
  "\u2581\u015di": 186,
  "\u2581sia": 187,
  "\u2581\u011din": 188,
  "\u2581if": 189,
  "\u2581sian": 190,
  "\u2581did": 191,
  "ed": 192,
  "ve": 193,
  "\u2581she": 194,
  "\u2581house": 195,
  "\u2581does": 196,
  "\u2581think": 197,
  "\u2581se": 198,
  "\u2581Mia": 199,
  "\u2581Sed": 200,
  "\u2581tiun": 201,
  "\u2581day": 202,
  "as": 203,
  "/": 204,
  "\u2581Yahweh": 205,
  "\u2581should": 206,
  "\u2581devas": 207,
  "\u2581our": 208,
  "\u2581Ili": 209,
  "\u2581faris": 210,
  "\u2581good": 211,
  "\u2581more": 212,
  "\u2581would": 213,
  "\u2581nur": 214,
  "gm": 215,
  "\u2581before": 216,
  "\u2581didn": 217,
  "\u2581dum": 218,
  "\u2581came": 219,
  "\u2581vian": 220,
  "\u2581cxar": 221,
  "\u2581king": 222,
  "\u2581see": 223,
  "i": 224,
  "\u2581fari": 225,
  "\u2581thou": 226,
  "\u2581That": 227,
  "\u2581diras": 228,
  "\u2581lia": 229,
  "\u2581My": 230,
  "\u2581son": 231,
  "\u2581'": 232,
  "\u2581tiel": 233,
  "\u2581Se": 234,
  "\u25811": 235,
  "\u2581am": 236,
  "\u2581Israel": 237,
  "\u2581%": 238,
  "\u2581But": 239,
  "\u2581been": 240,
  "\u2581than": 241,
  "\u2581For": 242,
  "\u2581now": 243,
  "\u2581nun": 244,
  "\u2581kiun": 245,
  "\u2581get": 246,
  "\u2581made": 247,
  "ta": 248,
  "\u2581make": 249,
  "\u2581thy": 250,
  "\u2581David": 251,
  "\u2581\u0109u": 252,
  "\u2581children": 253,
  "\u2581antaux": 254,
  "\u2581regxo": 255,
  "\u2581\u011di": 256,
  "\u2581just": 257,
  "\u2581mian": 258,
  "\u2581went": 259,
  "\u2581je": 260,
  "is": 261,
  "\u2581plej": 262,
  "\u2581There": 263,
  "\u2581a\u016d": 264,
  "\u2581sin": 265,
  "on": 266,
  "\u2581esti": 267,
  "\u2581going": 268,
  "\u2581down": 269,
  "\u2581say": 270,
  "\u2581kio": 271,
  "_": 272,
  "\u2581cxiuj": 273,
  "\u2581Don": 274,
  "\u2581du": 275,
  "\u2581If": 276,
  "\u2581take": 277,
  "\"": 278,
  "\u2581@": 279,
  "\u2581How": 280,
  "\u2581bone": 281,
  "\u2581Tiu": 282,
  "\u2581%1": 283,
  "\u2581over": 284,
  "\u2581domo": 285,
  "\u2581any": 286,
  "\u2581also": 287,
  "\u2581thee": 288,
  "\u2581need": 289,
  "\u2581En": 290,
  "\u2581filo": 291,
  "\u2581right": 292,
  "\u2581way": 293,
  "\u2581\u015datas": 294,
  "\u2581ye": 295,
  "\u2581gxi": 296,
  "\u2581men": 297,
  "y": 298,
  "\u2581against": 299,
  "\u2581jam": 300,
  "\u2581even": 301,
  "\u2581because": 302,
  "\u2581two": 303,
  "\u2581work": 304,
  "\u2581Estas": 305,
  "\u2581post": 306,
  "\u2581venis": 307,
  "\u2581No": 308,
  "\u2581things": 309,
  "\u2581tempo": 310,
  "\u2581may": 311,
  "\u2581inter": 312,
  "\u2581tiuj": 313,
  "\u2581vidis": 314,
  "\u2581how": 315,
  "\u2581only": 316,
  "\u2581after": 317,
  "\u2581viaj": 318,
  "\u2581tell": 319,
  "\u2581these": 320,
  "\u2581away": 321,
  "\u2581never": 322,
  "\u2581Manjo": 323,
  "\u2581every": 324,
  "\u2581hand": 325,
  "\u2581many": 326,
  "\u2581tuta": 327,
  "%": 328,
  "\u2581much": 329,
  "\u2581new": 330,
  "\u2581cxi": 331,
  "\u2581let": 332,
  "\u2581homoj": 333,
  "\u2581too": 334,
  "\u2581neniam": 335,
  "\u2581back": 336,
  "\u2581some": 337,
  "\u2581land": 338,
  "\u2581Kiam": 339,
  "\u2581Izrael": 340,
  "\u2581help": 341,
  "\u2581kontraux": 342,
  "\u2581give": 343,
  "\u2581When": 344,
  "\u2581father": 345,
  "\u2581estu": 346,
  "\u2581Let": 347,
  "\u2581In": 348,
  "\u2581So": 349,
  "\u2581put": 350,
  "\u2581Why": 351,
  "\u2581could": 352,
  "\u2581got": 353,
  "\u2581upon": 354,
  "\u2581again": 355,
  "\u2581where": 356,
  "City": 357,
  "\u2581Kiel": 358,
  "\u2581plu": 359,
  "c": 360,
  "\u2581ion": 361,
  "\u2581love": 362,
  "\u2581Kiu": 363,
  "Name": 364,
  "\u2581CXar": 365,
  "\u2581saying": 366,
  "\u2581multe": 367,
  "\u2581Jerusalem": 368,
  "\u2581Kial": 369,
  "\u2581sen": 370,
  "\u2581other": 371,
  "\u2581\u0109iuj": 372,
  "\u2581great": 373,
  "\u2581popolo": 374,
  "\u2581tago": 375,
  "\u2581Kion": 376,
  "\u2581ankora\u016d": 377,
  "\u2581anta\u016d": 378,
  "\u2581havis": 379,
  "\u2581pensas": 380,
  "\u2581Is": 381,
  "?\"": 382,
  "\u2581first": 383,
  "\u2581bona": 384,
  "\u2581vere": 385,
  "\u2581off": 386,
  "\u2581nia": 387,
  "\u2581life": 388,
  "\u2581iris": 389,
  "\u2581bezonas": 390,
  "\u2581then": 391,
  "\u2581Then": 392,
  "\u2581years": 393,
  "\u2581gxin": 394,
  "\u2581really": 395,
  "\u2581Name": 396,
  "\u2581granda": 397,
  "\u2581Your": 398,
  "\u2581patro": 399,
  "\u2581Please": 400,
  "\u2581those": 401,
  "an": 402,
  "\u2581homo": 403,
  "\u2581three": 404,
  "\u2581speak": 405,
  "\u2581tro": 406,
  "\u2581must": 407,
  "\u2581nin": 408,
  "r": 409,
  "\u2581lando": 410,
  "\u2581tri": 411,
  "\u2581faras": 412,
  "\u2581well": 413,
  "\u2581home": 414,
  "\u2581same": 415,
  "\u2581old": 416,
  "\u2581told": 417,
  "\u2581days": 418,
  "\u2581cxe": 419,
  "\u2581last": 420,
  "\u2581iu": 421,
  "\u2581siaj": 422,
  "\u2581file": 423,
  "\u2581long": 424,
  "\u2581\u0109e": 425,
  "\u2581book": 426,
  "\u2581still": 427,
  "\u2581\u0109iam": 428,
  "\u2581eat": 429,
  "\u2581Jen": 430,
  "\u2581took": 431,
  "k": 432,
  "\u2581S": 433,
  "\u2581place": 434,
  "\u2581little": 435,
  "\u2581\u011ci": 436,
  "\u2581something": 437,
  "\u2581iri": 438,
  "\u2581Via": 439,
  "\u2581left": 440,
  "\u2581ankaux": 441,
  "lo": 442,
  "\u2581city": 443,
  "\u2581E": 444,
  "\u2581mem": 445,
  "\u2581saw": 446,
  "\u2581All": 447,
  "\u2581found": 448,
  "\u2581word": 449,
  "\u2581Lord": 450,
  "b": 451,
  "\u2581world": 452,
  "\u2581\u0108i": 453,
  "\u2581donis": 454,
  "\u2581gxis": 455,
  "\u2581Now": 456,
  "\u2581own": 457,
  "\u2581Are": 458,
  "\u25812": 459,
  "I": 460,
  "\u2581always": 461,
  "\u2581dek": 462,
  "\u2581Who": 463,
  "\u2581hath": 464,
  "\u2581heart": 465,
  "to": 466,
  "\u2581heard": 467,
  "\u2581done": 468,
  "\u2581Lia": 469,
  "os": 470,
  "\u2581kie": 471,
  "\u2581set": 472,
  "\u2581siajn": 473,
  "\u2581Bonvolu": 474,
  "\u2581tiam": 475,
  "\u2581diri": 476,
  "\u2581find": 477,
  "\u2581alia": 478,
  "er": 479,
  "l": 480,
  "\u2581laux": 481,
  "\u2581nomo": 482,
  "\u2581money": 483,
  "\u2581vivo": 484,
  "\u2581parolas": 485,
  "\u2581live": 486,
  "\u2581ho": 487,
  "\u2581C": 488,
  "ro": 489,
  "la": 490,
  "\u2581tero": 491,
  "\u2581viajn": 492,
  "\u2581Where": 493,
  "\u2581ajn": 494,
  "\u2581sxi": 495,
  "\u2581anything": 496,
  "\u2581kiujn": 497,
  "\u2581super": 498,
  "\u2581Sinjoro": 499,
  "\u2581O": 500,
  "\u2581earth": 501,
  "\u2581info": 502,
  "\u2581thing": 503,
  "\u2581night": 504,
  "\u2581K": 505,
  "te": 506,
  "\u2581better": 507,
  "\u2581called": 508,
  "\u2581\u015din": 509,
  "\u2581lot": 510,
  "\u2581Jesus": 511,
  "\u2581yet": 512,
  "\u2581paroli": 513,
  "\u2581car": 514,
  "\u2581without": 515,
  "\u2581Kio": 516,
  "\u2581look": 517,
  "\u2581used": 518,
  "\u2581another": 519,
  "\u2581use": 520,
  "\u2581tute": 521,
  "\u2581Oni": 522,
  "\u2581water": 523,
  "\u2581won": 524,
  "\u2581jaroj": 525,
  "nte": 526,
  "\u2581sons": 527,
  "ly": 528,
  "\u2581brought": 529,
  "\u2581Al": 530,
  "\u2581miaj": 531,
  "\u2581its": 532,
  "\u2581urbo": 533,
  "\u2581year": 534,
  "\u2581gave": 535,
  "\u2581mother": 536,
  "\u2581Tiam": 537,
  "\u2581Can": 538,
  "\u2581sub": 539,
  "\u2581kredas": 540,
  "\u2581iom": 541,
  "al": 542,
  "\u2581says": 543,
  "\u2581through": 544,
  "\u2581among": 545,
  "\u2581iliaj": 546,
  ",\"": 547,
  "\u2581ever": 548,
  "\u2581volis": 549,
  "\u2581\u0109ar": 550,
  "x": 551,
  "\u2581neniu": 552,
  "\u2581nothing": 553,
  "do": 554,
  "\u2581\u011dis": 555,
  "\u2581ja": 556,
  "@": 557,
  "\u2581words": 558,
  "th": 559,
  "\u2581might": 560,
  "\u2581la\u016d": 561,
  "\u2581faru": 562,
  "3": 563,
  "\u2581hear": 564,
  "\u2581tien": 565,
  "\u2581liaj": 566,
  "\u2581thought": 567,
  "\u2581tiom": 568,
  "\u2581anka\u016d": 569,
  "\u2581nek": 570,
  "\u2581Neniu": 571,
  "\u2581Jesuo": 572,
  "\u2581sure": 573,
  "\u2581faros": 574,
  "\u2581sent": 575,
  "\u2581Did": 576,
  "aj": 577,
  "\u2581povis": 578,
  "\u2581today": 579,
  "\u2581cxiu": 580,
  "ado": 581,
  "\u2581eyes": 582,
  "\u2581school": 583,
  "\u2581vidi": 584,
  "Mi": 585,
  "\u2581read": 586,
  "\u2581dirante": 587,
  "\u2581Jes": 588,
  "\u2581Ho": 589,
  "\u2581si": 590,
  "\u2581being": 591,
  "\u2581povus": 592,
  "\u2581French": 593,
  "\u2581To": 594,
  "\u2581amas": 595,
  "\u2581His": 596,
  "\u2581himself": 597,
  "A": 598,
  "\u2581window": 599,
  "S": 600,
  "\u2581ilia": 601,
  "\u2581iras": 602,
  "\u2581domon": 603,
  "\u2581room": 604,
  "\u2581mondo": 605,
  "in": 606,
  "\u2581lian": 607,
  "\u2581venos": 608,
  "\u2581bring": 609,
  "\u2581Tomon": 610,
  "\u2581nor": 611,
  "\u2581jen": 612,
  "\u2581English": 613,
  "\u2581talk": 614,
  "\u2581asked": 615,
  "\u2581Maria": 616,
  "\u2581together": 617,
  "\u2581shalt": 618,
  "\u2581understand": 619,
  "\u2581nenion": 620,
  "\u2581Judah": 621,
  "\u2581filoj": 622,
  "\u2581Kie": 623,
  "\u2581tutan": 624,
  "\u2581As": 625,
  "\u2581call": 626,
  "\u2581sola": 627,
  "\u2581number": 628,
  "\u2581re": 629,
  "\u2581keep": 630,
  "\u2581De": 631,
  "\u2581patrino": 632,
  "\u2581New": 633,
  "\u2581Saul": 634,
  "ante": 635,
  "\u2581Kiom": 636,
  "p": 637,
  "\u2581believe": 638,
  "\u2581estus": 639,
  "\u2581iru": 640,
  "\u2581Por": 641,
  "\u2581okazis": 642,
  "\u2581why": 643,
  "\u2581whom": 644,
  "\u2581open": 645,
  "\u2581doing": 646,
  "\u2581next": 647,
  "\u2581konas": 648,
  "\u2581loko": 649,
  "\u2581trovis": 650,
  "\u2581while": 651,
  "oj": 652,
  "\u2581multaj": 653,
  "\u2581deziras": 654,
  "de": 655,
  "\u2581seen": 656,
  "\u2581tra": 657,
  "\u2581therefore": 658,
  "\u2581hodia\u016d": 659,
  "\u2581such": 660,
  "\u2581neither": 661,
  "\u2581please": 662,
  "\u2581tuj": 663,
  "\u2581already": 664,
  "\u2581e\u0109": 665,
  "se": 666,
  "\u2581akvo": 667,
  "\u2581leave": 668,
  "taj": 669,
  "\u2581according": 670,
  "\u2581eble": 671,
  "\u2581koro": 672,
  "\u2581brother": 673,
  "\u2581viro": 674,
  "\u2581forth": 675,
  "\u2581fire": 676,
  "\u2581young": 677,
  "\u2581\u0109iujn": 678,
  "\u2581wife": 679,
  "\u2581under": 680,
  "\u2581Yes": 681,
  "\u2581--": 682,
  "\u2581cxiujn": 683,
  "ther": 684,
  "\u2581parolis": 685,
  "co": 686,
  "\u2581happened": 687,
  "\u2581sciis": 688,
  "eth": 689,
  "\u2581until": 690,
  "\u2581drink": 691,
  "\u2581denove": 692,
  "\u2581wanted": 693,
  "\u2581B": 694,
  "\u2581\u0109ion": 695,
  "\u2581end": 696,
  "\u2581around": 697,
  "\u2581unua": 698,
  "\u2581woman": 699,
  "\u2581KDE": 700,
  "\u2581most": 701,
  "\u2581helpi": 702,
  "\u2581prenis": 703,
  "\u2581infanoj": 704,
  "\u2581everything": 705,
  "\u2581s": 706,
  "\u2581given": 707,
  "\u2581nomon": 708,
  "\u2581morning": 709,
  "2": 710,
  "\u2581novan": 711,
  "\u2581Tomaso": 712,
  "\u2581alian": 713,
  "\u2581vidas": 714,
  "\u2581Go": 715,
  "\u2581aliaj": 716,
  "\u2581aux": 717,
  "\u2581language": 718,
  "le": 719,
  "\u2581evil": 720,
  "\u2581ekzistas": 721,
  "\u2581both": 722,
  "\u2581Boston": 723,
  "Comment": 724,
  "\u2581face": 725,
  "\u2581Show": 726,
  "\u2581mortis": 727,
  "\u2581hands": 728,
  "\u2581ask": 729,
  "\u2581friends": 730,
  "\u2581OF": 731,
  "\u2581kontra\u016d": 732,
  "\u2581X": 733,
  "\u2581gxiaj": 734,
  "no": 735,
  "\u2581mil": 736,
  "\u2581Could": 737,
  "\u2581eblas": 738,
  "\u2581ek": 739,
  "\u2581tagoj": 740,
  "\u2581country": 741,
  "\u2581truth": 742,
  "\u2581kial": 743,
  "\u2581pass": 744,
  "\u2581high": 745,
  "ko": 746,
  "\u2581play": 747,
  "\u2581tomorrow": 748,
  "\u2581...": 749,
  "\u2581iros": 750,
  "\u2581mano": 751,
  "\u2581\u0109iu": 752,
  "\u2581kvin": 753,
  "\u2581John": 754,
  "AT": 755,
  "\u2581cannot": 756,
  "ajn": 757,
  "\u2581miajn": 758,
  "\u2581rapide": 759,
  "\u2581diru": 760,
  "\u2581voice": 761,
  "\u2581sendis": 762,
  "\u2581dead": 763,
  "\u2581friend": 764,
  "\u2581death": 765,
  "\u2581afraid": 766,
  "\u2581mal": 767,
  "\u2581saith": 768,
  "nta": 769,
  "\u2581devus": 770,
  "g": 771,
  "\u2581happy": 772,
  "\u2581tiujn": 773,
  "\u2581iam": 774,
  "f": 775,
  "\u2581head": 776,
  "\u2581Comment": 777,
  "ma": 778,
  "able": 779,
  "\u2581Christ": 780,
  "\u2581door": 781,
  "\u2581enough": 782,
  "\u2581hope": 783,
  "\u2581far": 784,
  "\u2581kune": 785,
  "\u2581mine": 786,
  "\u2581hard": 787,
  "\u2581hundred": 788,
  "\u2581job": 789,
  "\u2581okuloj": 790,
  "\u2581best": 791,
  "\u2581month": 792,
  "\u2581Nun": 793,
  "\u2581turn": 794,
  "\u2581law": 795,
  "\u2581ofte": 796,
  "\u2581able": 797,
  "li": 798,
  "\u2581TRANSL": 799,
  "ORS": 800,
  "\u2581Have": 801,
  "\u2581five": 802,
  "\u2581cxu": 803,
  "\u2581nova": 804,
  "\u2581cxielo": 805,
  "\u2581child": 806,
  "\u2581\u0108iuj": 807,
  "\u2581behold": 808,
  "\u2581Come": 809,
  "\u2581buy": 810,
  "\u2581dog": 811,
  "1": 812,
  "\u2581side": 813,
  "\u2581beautiful": 814,
  "\u2581simple": 815,
  "\u2581USA": 816,
  "\u25813": 817,
  "\u2581between": 818,
  "\u2581each": 819,
  "\u2581vorto": 820,
  ":%": 821,
  "\u2581Izraelidoj": 822,
  "\u2581action": 823,
  "\u2581morga\u016d": 824,
  "\u2581stay": 825,
  "\u2581\u0109io": 826,
  "\u2581problem": 827,
  "\u2581vojo": 828,
  "\u2581die": 829,
  "\u2581libron": 830,
  "\u2581part": 831,
  "\u2581longe": 832,
  "\u2581Not": 833,
  "\u2581full": 834,
  "\u2581jaro": 835,
  "\u2581answer": 836,
  "\u2581knew": 837,
  "\u2581opinias": 838,
  "el": 839,
  "\u2581poste": 840,
  "\u2581thousand": 841,
  "\u2581venas": 842,
  "\u2581true": 843,
  "\u2581libro": 844,
  "\u2581looking": 845,
  "\u2581lost": 846,
  "\u2581walk": 847,
  "\u2581wrong": 848,
  "\u2581ten": 849,
  "\u2581komprenas": 850,
  "\u2581light": 851,
  "]": 852,
  "\u2581laboro": 853,
  "\u2581P": 854,
  "\u2581monon": 855,
  "\u2581frato": 856,
  "\u2581show": 857,
  "\u2581File": 858,
  "\u2581Nu": 859,
  "\u2581io": 860,
  "\u2581stop": 861,
  "\u2581respondis": 862,
  "\u2581bad": 863,
  "\u2581blood": 864,
  "\u2581Moses": 865,
  "\u2581donas": 866,
  "\u2581become": 867,
  "\u2581Kristo": 868,
  "\u2581soon": 869,
  "\u2581whole": 870,
  "\u2581bela": 871,
  "\u2581write": 872,
  "\u2581One": 873,
  "\u2581feel": 874,
  "ra": 875,
  "\u2581alone": 876,
  "\u2581lernejo": 877,
  "\u2581niaj": 878,
  "\u2581tempon": 879,
  "optional": 880,
  "\u2581Montri": 881,
  "\u2581died": 882,
  "\u2581vivas": 883,
  "\u2581wait": 884,
  "us": 885,
  "\u2581big": 886,
  "\u2581wants": 887,
  "\u2581T": 888,
  "\u2581Egypt": 889,
  "\u2581Bostono": 890,
  "\u2581Add": 891,
  "\u2581yesterday": 892,
  "\u2581apud": 893,
  "\u2581bonan": 894,
  "\u2581times": 895,
  "\u2581answered": 896,
  "\u2581cut": 897,
  "\u2581eliris": 898,
  "en": 899,
  "\u2581edzino": 900,
  "\u2581item": 901,
  "\u2581mono": 902,
  "\u2581hast": 903,
  "\u2581lingvo": 904,
  "\u2581rajtas": 905,
  "\u2581fathers": 906,
  "\u2581horo": 907,
  "\u2581Behold": 908,
  "\u2581daughter": 909,
  "\u2581seven": 910,
  "\u2581a\u016ddis": 911,
  "\u2581learn": 912,
  "\u2581{0}": 913,
  "\u2581kind": 914,
  "\u2581person": 915,
  "ita": 916,
  "\u2581petas": 917,
  "\u2581sufi\u0109e": 918,
  "\u2581Moseo": 919,
  "\u2581start": 920,
  "\u2581change": 921,
  "\u2581virino": 922,
  "\u2581aspektas": 923,
  "\u2581often": 924,
  "\u2581remember": 925,
  "\u2581/": 926,
  "\u2581four": 927,
  "\u2581turned": 928,
  "\u2581El": 929,
  "\u2581Therefore": 930,
  "\u2581laboron": 931,
  "\u2581late": 932,
  "\u2581title": 933,
  "\u2581lo\u011das": 934,
  "\u2581mouth": 935,
  "!\"": 936,
  "\u2581hiera\u016d": 937,
  "\u2581preska\u016d": 938,
  "\u2581afero": 939,
  "\u2581coming": 940,
  "\u2581gxia": 941,
  "\u2581servant": 942,
  "es": 943,
  "\u2581\u015datus": 944,
  "\u2581kiom": 945,
  "\u2581soul": 946,
  "\u2581Re": 947,
  "\u2581landon": 948,
  "\u2581list": 949,
  "\u2581sinjoro": 950,
  "C": 951,
  "i\u011dis": 952,
  "\u2581petis": 953,
  "\u2581mind": 954,
  "ga": 955,
  "\u2581offering": 956,
  "\u2581themselves": 957,
  "\u2581try": 958,
  "\u2581knows": 959,
  "\u2581sea": 960,
  "\u2581Forigi": 961,
  "\u2581fell": 962,
  "\u2581Sia": 963,
  "\u2581family": 964,
  "\u2581idea": 965,
  "\u2581Pro": 966,
  "\u2581diros": 967,
  "\u2581kvar": 968,
  "ri": 969,
  "\u2581peace": 970,
  "D": 971,
  "\u2581yourself": 972,
  "or": 973,
  "\u2581'%": 974,
  "\u2581having": 975,
  "\u2581looked": 976,
  "\u2581sister": 977,
  "\u2581near": 978,
  "\u2581sep": 979,
  "\u2581multajn": 980,
  "\u2581once": 981,
  "ka": 982,
  "\u2581farigxis": 983,
  "\u2581lives": 984,
  "\u2581manon": 985,
  "\u2581timas": 986,
  "\u2581These": 987,
  "\u2581heaven": 988,
  "\u2581pensis": 989,
  "igi": 990,
  "\u2581fratoj": 991,
  "\u2581gone": 992,
  "\u2581works": 993,
  "\u2581ago": 994,
  "\u2581food": 995,
  "\u2581restis": 996,
  "\u2581iun": 997,
  "\u2581rest": 998,
  "\u2581names": 999,
  "\u2581myself": 1000,
  "\u2581bread": 1001,
  "\u2581message": 1002,
  "\u2581teacher": 1003,
  "\u2581trovi": 1004,
  "\u2581M": 1005,
  "\u2581cities": 1006,
  "\u2581[": 1007,
  "\u2581thine": 1008,
  "\u2581Tial": 1009,
  "\u2581week": 1010,
  "\u2581krom": 1011,
  "\u2581text": 1012,
  "\u2581p": 1013,
  "\u2581written": 1014,
  "di": 1015,
  "z": 1016,
  "\u2581grandan": 1017,
  "\u2581thereof": 1018,
  "\u2581color": 1019,
  "\u2581couldn": 1020,
  "ti": 1021,
  "\u2581gold": 1022,
  "\u2581living": 1023,
  "\u2581tamen": 1024,
  "\u2581few": 1025,
  "\u2581war": 1026,
  "Ne": 1027,
  "\u2581girl": 1028,
  "\u2581\u0135us": 1029,
  "\u2581matter": 1030,
  "\u2581tagon": 1031,
  "\u2581Be": 1032,
  "\u2581vortojn": 1033,
  "\u2581married": 1034,
  "\u2581cxio": 1035,
  "\u2581sword": 1036,
  "\u2581servants": 1037,
  "\u2581uzi": 1038,
  "\u2581boy": 1039,
  "\u2581fenestro": 1040,
  "\u2581Nur": 1041,
  "\u2581demandis": 1042,
  "\u2581CX": 1043,
  "\u2581tree": 1044,
  "\u2581D": 1045,
  "\u2581Y": 1046,
  "\u2581Post": 1047,
  "\u2581hejmen": 1048,
  "\u2581system": 1049,
  "\u2581became": 1050,
  "\u2581francan": 1051,
  "\u2581Oh": 1052,
  "\u2581bed": 1053,
  "R": 1054,
  "\u2581esperas": 1055,
  "\u2581taken": 1056,
  "\u2581Select": 1057,
  "\u2581meet": 1058,
  "\u2581save": 1059,
  "\u2581alvenis": 1060,
  "\u2581a\u0109etis": 1061,
  "\u2581fear": 1062,
  "est": 1063,
  "\u2581cold": 1064,
  "ata": 1065,
  "\u2581Estis": 1066,
  "\u2581whe": 1067,
  "\u2581tia": 1068,
  "\u2581G": 1069,
  "\u2581small": 1070,
  "\u2581letter": 1071,
  "\u2581manoj": 1072,
  "\u2581sleep": 1073,
  "\u2581Here": 1074,
  "\u2581vivon": 1075,
  "vi": 1076,
  "\u2581Judujo": 1077,
  "\u2581amiko": 1078,
  "\u2581anyone": 1079,
  "\u2581jarojn": 1080,
  "\u2581povos": 1081,
  "\u2581rain": 1082,
  "ne": 1083,
  "\u2581cause": 1084,
  "\u2581Sami": 1085,
  "v": 1086,
  "\u2581Open": 1087,
  "\u2581type": 1088,
  "\u2581a\u016dto": 1089,
  "\u2581nations": 1090,
  "mo": 1091,
  "\u2581auxdis": 1092,
  "\u2581error": 1093,
  "\u2581morto": 1094,
  "\u2581option": 1095,
  "ce": 1096,
  "\u2581fine": 1097,
  "\u2581bought": 1098,
  "\u2581dudek": 1099,
  "\u2581R": 1100,
  "\u2581button": 1101,
  "\u2581metis": 1102,
  "\u2581laboras": 1103,
  "La": 1104,
  "\u2581Per": 1105,
  "\u2581toward": 1106,
  "\u2581looks": 1107,
  "O": 1108,
  "ge": 1109,
  "go": 1110,
  "\u2581return": 1111,
  "\u2581priest": 1112,
  "\u2581wish": 1113,
  "\u2581dosiero": 1114,
  "\u2581ricevis": 1115,
  "\u2581table": 1116,
  "\u2581certe": 1117,
  "\u2581devis": 1118,
  "\u2581havi": 1119,
  "\u2581kia": 1120,
  "\u2581sentas": 1121,
  "\u2581stand": 1122,
  "\u2581ready": 1123,
  "4": 1124,
  "\u2581Nova": 1125,
  "\u2581began": 1126,
  "\u2581dosieron": 1127,
  "\u2581legi": 1128,
  "T": 1129,
  "\u2581parents": 1130,
  "\u2581An": 1131,
  "\u2581Take": 1132,
  "\u2581fajro": 1133,
  "\u2581since": 1134,
  "\u2581\u0109irka\u016d": 1135,
  "\u2581else": 1136,
  "E": 1137,
  "\u2581komencis": 1138,
  "\u2581second": 1139,
  "\u2581Liaj": 1140,
  "\u2581donos": 1141,
  "\u2581eblis": 1142,
  "\u2581free": 1143,
  "\u2581hejme": 1144,
  "\u2581mean": 1145,
  "\u2581ordonis": 1146,
  "K": 1147,
  "\u2581nian": 1148,
  "\u2581cast": 1149,
  "\u2581foriris": 1150,
  "\u2581comes": 1151,
  "\u25814": 1152,
  "\u2581kelkajn": 1153,
  "\u2581question": 1154,
  "B": 1155,
  "\u2581At": 1156,
  "\u2581amikoj": 1157,
  "don": 1158,
  "\u2581different": 1159,
  "\u2581malbona": 1160,
  "\u2581\u0108iu": 1161,
  "\u2581doni": 1162,
  "\u2581value": 1163,
  "\u2581malpli": 1164,
  "\u2581power": 1165,
  "\u2581balda\u016d": 1166,
  "\u011dis": 1167,
  "\u2581selected": 1168,
  "\u2581sound": 1169,
  "\u2581eraro": 1170,
  "\u2581holy": 1171,
  "\u2581okazas": 1172,
  "\u2581body": 1173,
  "\u2581busy": 1174,
  "gi": 1175,
  "\u2581%2": 1176,
  "\u2581Aaron": 1177,
  "\u2581Eble": 1178,
  "\u2581stood": 1179,
  "\u2581information": 1180,
  "\u2581manojn": 1181,
  "igas": 1182,
  "\u2581frue": 1183,
  "\u2581music": 1184,
  "\u2581field": 1185,
  "\u2581wine": 1186,
  "\u2581Japan": 1187,
  "me": 1188,
  "\u2581files": 1189,
  "\u2581haven": 1190,
  "\u2581important": 1191,
  "\u2581Miaj": 1192,
  "\u2581cxion": 1193,
  "\u2581glory": 1194,
  "\u2581Dan": 1195,
  "\u2581run": 1196,
  "na": 1197,
  "\u2581veni": 1198,
  "\u2581x": 1199,
  "\u2581Esperanto": 1200,
  "\u2581commanded": 1201,
  "\u2581happen": 1202,
  "\u2581six": 1203,
  "\u2581e": 1204,
  "\u2581\u0109ambro": 1205,
  "\u2581makes": 1206,
  "\u2581mortigis": 1207,
  "\u2581priests": 1208,
  "\u2581vorton": 1209,
  "\u2581train": 1210,
  "\u2581strong": 1211,
  "\u2581art": 1212,
  "\u2581books": 1213,
  "\u2581known": 1214,
  "igu": 1215,
  "\u2581send": 1216,
  "isto": 1217,
  "\u2581ankoraux": 1218,
  "\u2581watch": 1219,
  "\u2581killed": 1220,
  "\u2581scii": 1221,
  "\u2581homojn": 1222,
  "\u2581nenio": 1223,
  "\u2581un": 1224,
  "\u2581key": 1225,
  "\u2581vojon": 1226,
  "gu": 1227,
  "\u2581dua": 1228,
  "\u2581patroj": 1229,
  "\u2581poor": 1230,
  "xel": 1231,
  "\u2581easy": 1232,
  "\u2581getting": 1233,
  "\u2581knabo": 1234,
  "\u2581everyone": 1235,
  "\u2581kill": 1236,
  "\u2581lerni": 1237,
  "\u2581sight": 1238,
  "\u2581Dum": 1239,
  "h": 1240,
  "ulo": 1241,
  "\u2581Fadil": 1242,
  "\u2581Thus": 1243,
  "\u2581a\u0109eti": 1244,
  "\u2581vortoj": 1245,
  "\u2581Our": 1246,
  "\u2581animo": 1247,
  "F": 1248,
  "\u2581\u015dajnas": 1249,
  "\u2581early": 1250,
  "\u2581sick": 1251,
  "da": 1252,
  "\u2581user": 1253,
  "\u2581care": 1254,
  "\u2581sun": 1255,
  "\u2581party": 1256,
  "\u2581started": 1257,
  "\u2581kelkaj": 1258,
  "\u2581women": 1259,
  "mi": 1260,
  "\u2581Son": 1261,
  "\u25815": 1262,
  "\u2581fall": 1263,
  "\u2581Father": 1264,
  "\u2581hate": 1265,
  "\u2581kapablas": 1266,
  "\u2581Je": 1267,
  "\u2581Would": 1268,
  "\u2581a\u016dton": 1269,
  "\u2581fratino": 1270,
  "\u2581juna": 1271,
  "\u2581\u015dia": 1272,
  "\u2581Last": 1273,
  "\u2581idoj": 1274,
  "\u2581tried": 1275,
  "\u2581Diru": 1276,
  "\u2581nokto": 1277,
  "\u2581Remove": 1278,
  "\u2581Un": 1279,
  "\u2581flesh": 1280,
  "\u2581Her": 1281,
  "\u2581spoken": 1282,
  "\u2581F": 1283,
  "\u2581filino": 1284,
  "\u2581half": 1285,
  "\u2581man\u011di": 1286,
  "\u2581vera": 1287,
  "gas": 1288,
  "\u2581Stop": 1289,
  "\u2581Well": 1290,
  "\u2581sorry": 1291,
  "\u2581viroj": 1292,
  "\u2581infano": 1293,
  "\u2581likes": 1294,
  "\u2581working": 1295,
  "\u2581instruisto": 1296,
  "L": 1297,
  "\u2581Error": 1298,
  "\u2581lived": 1299,
  "\u2581present": 1300,
  "\u2581spirit": 1301,
  "\u2581decidis": 1302,
  "\u2581talking": 1303,
  "\u2581twenty": 1304,
  "\u2581Viaj": 1305,
  "\u2581born": 1306,
  "\u2581Does": 1307,
  "tan": 1308,
  "\u2581?": 1309,
  "\u2581someone": 1310,
  "5": 1311,
  "\u2581gepatroj": 1312,
  "\u2581Pri": 1313,
  "\u2581Give": 1314,
  "\u2581met": 1315,
  "\u2581veron": 1316,
  "\u2581popolon": 1317,
  "\u2581feet": 1318,
  "\u2581monto": 1319,
  "\u2581cat": 1320,
  "\u2581coffee": 1321,
  "\u2581Look": 1322,
  "\u2581familio": 1323,
  "\u2581label": 1324,
  "lon": 1325,
  "\u2581Dankon": 1326,
  "\u2581bus": 1327,
  "\u2581havos": 1328,
  "\u2581Mr": 1329,
  "\u2581midst": 1330,
  "\u2581Unu": 1331,
  "\u2581anglan": 1332,
  "\u2581none": 1333,
  "ton": 1334,
  "\u2581Ha": 1335,
  "\u2581kies": 1336,
  "\u2581perdis": 1337,
  "P": 1338,
  "\u2581akvon": 1339,
  "\u2581Aldoni": 1340,
  "\u2581bit": 1341,
  "\u2581Abraham": 1342,
  "\u2581anta\u016de": 1343,
  "\u2581plan": 1344,
  "\u2581possible": 1345,
  "anta": 1346,
  "\u2581nice": 1347,
  "\u2581popoloj": 1348,
  "\u2581Mal": 1349,
  "Vi": 1350,
  "\u2581sat": 1351,
  "\u258110": 1352,
  "\u2581almost": 1353,
  "\u2581game": 1354,
  "\u2581provis": 1355,
  "ci": 1356,
  "kon": 1357,
  "\u2581Kia": 1358,
  "pa": 1359,
  "\u2581org": 1360,
  "weather": 1361,
  "\u2581failed": 1362,
  "\u2581above": 1363,
  "\u2581doctor": 1364,
  "\u2581Will": 1365,
  "man": 1366,
  "za": 1367,
  "\u2581hundo": 1368,
  "\u2581nombro": 1369,
  "\u2581river": 1370,
  "\u2581study": 1371,
  "w": 1372,
  "\u2581Bone": 1373,
  "\u2581order": 1374,
  "\u2581resti": 1375,
  "\u2581problemo": 1376,
  "\u2581returns": 1377,
  "\u2581scipovas": 1378,
  "ejo": 1379,
  "\u2581sango": 1380,
  "\u2581Jordan": 1381,
  "\u2581Tell": 1382,
  "\u2581Vian": 1383,
  "\u2581seems": 1384,
  "\u2581tial": 1385,
  "\u2581filon": 1386,
  "\u2581glavo": 1387,
  "\u2581vidos": 1388,
  "\u2581current": 1389,
  "\u2581falis": 1390,
  "\u2581finished": 1391,
  "\u2581infanojn": 1392,
  "ke": 1393,
  "\u2581!": 1394,
  "\u2581command": 1395,
  "\u2581fast": 1396,
  "\u2581kept": 1397,
  "\u2581urbon": 1398,
  "\u2581amo": 1399,
  "i\u011das": 1400,
  "\u2581Get": 1401,
  "\u2581goes": 1402,
  "\u2581lingvon": 1403,
  "\u2581urboj": 1404,
  "\u2581rich": 1405,
  "\u2581spoke": 1406,
  "\u2581uzas": 1407,
  "\u2581folder": 1408,
  "\u2581wicked": 1409,
  "\u2581alta": 1410,
  "\u2581dis": 1411,
  "\u2581man\u011das": 1412,
  "\u2581tridek": 1413,
  "toj": 1414,
  "\u2581H": 1415,
  "\u2581amba\u016d": 1416,
  "\u2581image": 1417,
  "\u2581kings": 1418,
  "\u2581Because": 1419,
  "\u2581Canada": 1420,
  "\u2581Some": 1421,
  "\u2581revenos": 1422,
  "=": 1423,
  "\u2581needs": 1424,
  "ecx": 1425,
  "\u2581hair": 1426,
  "\u2581Dion": 1427,
  "\u2581Use": 1428,
  "\u2581iliajn": 1429,
  "\u2581maro": 1430,
  "\u2581minutes": 1431,
  "\u2581g": 1432,
  "\u2581tired": 1433,
  "\u0109": 1434,
  "\u2581Eternulon": 1435,
  "\u2581pay": 1436,
  "\u2581reason": 1437,
  "Jen": 1438,
  "\u2581aferoj": 1439,
  "\u2581quite": 1440,
  "\u2581Sen": 1441,
  "\u2581video": 1442,
  "\u2581kolero": 1443,
  "\u2581revenis": 1444,
  "\u2581teron": 1445,
  "\u2581trust": 1446,
  "\u2581Just": 1447,
  "\u2581fino": 1448,
  "\u2581kredis": 1449,
  "\u2581hours": 1450,
  "du": 1451,
  "\u2581eniris": 1452,
  "\u2581enter": 1453,
  "\u2581trying": 1454,
  "\u2581certain": 1455,
  "\u2581facile": 1456,
  "\u2581lokon": 1457,
  "0": 1458,
  "va": 1459,
  "\u2581listen": 1460,
  "\u2581Good": 1461,
  "ar": 1462,
  "\u2581()": 1463,
  "\u2581Nia": 1464,
  "\u2581angla": 1465,
  "\u2581phone": 1466,
  "\u2581Jacob": 1467,
  "\u2581Z": 1468,
  "\u2581reading": 1469,
  "\u2581Japanese": 1470,
  "\u2581pordo": 1471,
  "\u2581story": 1472,
  "\u2581sama": 1473,
  "\u2581Edit": 1474,
  "\u2581Manjon": 1475,
  "po": 1476,
  "\u2581malfacile": 1477,
  "\u2581okulojn": 1478,
  "\u2581Text": 1479,
  "\u2581state": 1480,
  "\u2581forget": 1481,
  "EMAIL": 1482,
  "\u2581\"%": 1483,
  "\u2581Tiuj": 1484,
  "\u2581gravas": 1485,
  "M": 1486,
  "igis": 1487,
  "\u2581aperis": 1488,
  "\u2581break": 1489,
  "\u2581monato": 1490,
  "\u25817": 1491,
  "\u2581broken": 1492,
  "\u2581#": 1493,
  "\u2581hour": 1494,
  "\u2581brothers": 1495,
  "\u2581hurt": 1496,
  "\u2581venu": 1497,
  "\u2581Solomon": 1498,
  "\u2581lie": 1499,
  "\u2581feli\u0109a": 1500,
  "\u2581others": 1501,
  "\u2581anymore": 1502,
  "\u2581gate": 1503,
  "\u2581radio": 1504,
  "\u2581ses": 1505,
  "\u2581silver": 1506,
  "it": 1507,
  "\u2581After": 1508,
  "\u2581angry": 1509,
  "\u2581cry": 1510,
  "\u2581levigxis": 1511,
  "\u2581pastro": 1512,
  "\u2581po": 1513,
  "N": 1514,
  "\u2581memoras": 1515,
  "\u2581certas": 1516,
  "\u2581ilian": 1517,
  "\u2581knabino": 1518,
  "\u2581renkontis": 1519,
  "\u2581dwell": 1520,
  "\u2581lasta": 1521,
  "\u2581line": 1522,
  "ux": 1523,
  "\u2581available": 1524,
  "\u2581check": 1525,
  "\u2581difficult": 1526,
  "ru": 1527,
  "\u2581Salomono": 1528,
  "\u2581Babylon": 1529,
  "\u2581righteousness": 1530,
  "ojn": 1531,
  "\u2581May": 1532,
  "\u2581W": 1533,
  "\u2581Hodia\u016d": 1534,
  "\u2581later": 1535,
  "\u2581rigardis": 1536,
  "\u2581signifas": 1537,
  "\u2581wall": 1538,
  "\u2581\u0108io": 1539,
  "\u2581Move": 1540,
  "\u2581changed": 1541,
  "\u2581longer": 1542,
  "\u2581aren": 1543,
  "\u2581Of": 1544,
  "\u2581lay": 1545,
  "\u2581malfermi": 1546,
  "\u2581suno": 1547,
  "\u2581German": 1548,
  "\u2581Which": 1549,
  "\u2581meat": 1550,
  "\u2581built": 1551,
  "\u2581course": 1552,
  "\u2581neniun": 1553,
  "\u2581Elekti": 1554,
  "\u2581behind": 1555,
  "\u2581class": 1556,
  "\u2581opened": 1557,
  "\u2581skribis": 1558,
  "\u2581starigis": 1559,
  "ic": 1560,
  "\u2581Judoj": 1561,
  "\u2581Moab": 1562,
  "\u2581fruit": 1563,
  "\u2581spake": 1564,
  "io": 1565,
  "\u2581Thank": 1566,
  "\u2581Thou": 1567,
  "\u2581Patro": 1568,
  "\u2581burnt": 1569,
  "\u2581cxiam": 1570,
  "\u2581hold": 1571,
  "\u2581korpo": 1572,
  "\u2581station": 1573,
  "\u2581Pli": 1574,
  "\u2581montri": 1575,
  "\u2581waiting": 1576,
  "fa": 1577,
  "\u2581apartenas": 1578,
  "\u2581dezerto": 1579,
  "\u2581drive": 1580,
  "\u2581iomete": 1581,
  "\u2581using": 1582,
  "\u2581Save": 1583,
  "\u2581busxo": 1584,
  "\u2581malgranda": 1585,
  "\u2581wise": 1586,
  "\u2581Samuel": 1587,
  "\u2581cxirkaux": 1588,
  "\u2581device": 1589,
  "\u2581group": 1590,
  "\u2581size": 1591,
  "ino": 1592,
  "\u2581\u0108ar": 1593,
  "\u2581project": 1594,
  "gis": 1595,
  "\u2581Donu": 1596,
  "\u2581La\u016d": 1597,
  "\u2581real": 1598,
  "pi": 1599,
  "\u2581pretty": 1600,
  "\u2581V": 1601,
  "\u2581forgesis": 1602,
  "\u2581concern": 1603,
  "\u2581guys": 1604,
  "\u2581languages": 1605,
  "\u2581trans": 1606,
  "\u2581cent": 1607,
  "\u2581enemies": 1608,
  "\u2581laid": 1609,
  "\u2581playing": 1610,
  "\u2581Ke": 1611,
  "anto": 1612,
  "ver": 1613,
  "\u2581address": 1614,
  "\u2581altar": 1615,
  "\u2581box": 1616,
  "\u2581emails": 1617,
  "\u2581point": 1618,
  "\u2581within": 1619,
  "\u2581data": 1620,
  "\u2581though": 1621,
  "\u2581kingdom": 1622,
  "\u2581white": 1623,
  "\u2581donu": 1624,
  "\u2581means": 1625,
  "\u2581restas": 1626,
  "\u2581Cebaot": 1627,
  "\u2581passed": 1628,
  "\u2581pastroj": 1629,
  "\u2581vero": 1630,
  "\u2581labori": 1631,
  "\u2581move": 1632,
  "\u2581translation": 1633,
  "\u2581husband": 1634,
  "\u258120": 1635,
  "\u2581With": 1636,
  "\u2581deliver": 1637,
  "\u2581ludi": 1638,
  "G": 1639,
  "\u2581From": 1640,
  "\u2581atendi": 1641,
  "\u2581faith": 1642,
  "\u2581sky": 1643,
  "\u2581beda\u016dras": 1644,
  "\u2581dream": 1645,
  "\u2581empty": 1646,
  "\u2581mighty": 1647,
  "\u2581pordon": 1648,
  "\u2581Layla": 1649,
  "\u2581opinion": 1650,
  "\u2581By": 1651,
  "\u2581Joab": 1652,
  "\u2581restos": 1653,
  "\u2581search": 1654,
  "\u2581covenant": 1655,
  "\u2581kapo": 1656,
  "\u2581wrote": 1657,
  "\u2581Man": 1658,
  "\u2581hot": 1659,
  "\u2581kien": 1660,
  "\u2581kompreni": 1661,
  "CX": 1662,
  "ter": 1663,
  "\u2581On": 1664,
  "\u2581office": 1665,
  "\u2581red": 1666,
  "\u2581song": 1667,
  "\u2581past": 1668,
  "ting": 1669,
  "\u2581company": 1670,
  "\u2581delivered": 1671,
  "\u2581large": 1672,
  "\u2581preni": 1673,
  "\u2581forlasis": 1674,
  "\u2581http": 1675,
  "\u2581lift": 1676,
  "\u2581atendas": 1677,
  "\u2581brethren": 1678,
  "\u2581liajn": 1679,
  "\u2581loved": 1680,
  "\u2581plena": 1681,
  "\u2581U": 1682,
  "\u2581anger": 1683,
  "tu": 1684,
  "\u2581Tamen": 1685,
  "\u2581fun": 1686,
  "\u2581foriri": 1687,
  "\u2581forte": 1688,
  "\u2581trouble": 1689,
  "ia": 1690,
  "\u2581c": 1691,
  "\u2581sit": 1692,
  "\u2581o": 1693,
  "\u2581skribi": 1694,
  "\u2581computer": 1695,
  "\u2581news": 1696,
  "\u2581offer": 1697,
  "\u2581okazos": 1698,
  "\u2581staris": 1699,
  "\u2581units": 1700,
  "\u2581waters": 1701,
  "\u2581strange": 1702,
  "\u2581vivi": 1703,
  "\u2581least": 1704,
  "\u2581fartas": 1705,
  "\u2581ways": 1706,
  "\u2581Anka\u016d": 1707,
  "\u2581N": 1708,
  "\u2581Settings": 1709,
  "\u2581thirty": 1710,
  "\u2581TV": 1711,
  "\u2581clothes": 1712,
  "\u2581sukcesis": 1713,
  "\u25818": 1714,
  "\u2581decided": 1715,
  "\u2581glad": 1716,
  "You": 1717,
  "\u2581helpon": 1718,
  "\u2581kapon": 1719,
  "\u2581page": 1720,
  "\u2581regxoj": 1721,
  "\u2581status": 1722,
  "\u2581trees": 1723,
  "\u2581Everyone": 1724,
  "\u2581Tiel": 1725,
  "\u2581gathered": 1726,
  "\u2581koron": 1727,
  "\u2581parto": 1728,
  "\u2581thus": 1729,
  "im": 1730,
  "\u2581kampo": 1731,
  "\u2581longa": 1732,
  "\u2581age": 1733,
  "\u2581close": 1734,
  "eco": 1735,
  "pe": 1736,
  "\u2581menu": 1737,
  "\u2581sing": 1738,
  "The": 1739,
  "\u2581Jews": 1740,
  "\u2581places": 1741,
  "\u2581returned": 1742,
  "fm": 1743,
  "\u011di": 1744,
  "\u2581amount": 1745,
  "\u2581destroy": 1746,
  "\u2581leteron": 1747,
  "\u2581moment": 1748,
  "What": 1749,
  "dis": 1750,
  "vo": 1751,
  "\u2581eterne": 1752,
  "\u2581received": 1753,
  "\u2581Spirit": 1754,
  "\u2581man\u011dis": 1755,
  "\u2581rigardas": 1756,
  "\u2581spirito": 1757,
  "\u2581\u0109ambron": 1758,
  "\u2581URL": 1759,
  "\u2581Import": 1760,
  "\u2581kvaza\u016d": 1761,
  "\u2581Agordi": 1762,
  "\u2581Venu": 1763,
  "\u2581forta": 1764,
  "\u2581making": 1765,
  "\u2581malbonon": 1766,
  "\u2581ran": 1767,
  "\u2581Video": 1768,
  "\u2581m": 1769,
  "\u2581Alice": 1770,
  "\u2581Set": 1771,
  "\u2581build": 1772,
  "\u2581clean": 1773,
  "\u2581ground": 1774,
  "\u2581milito": 1775,
  "\u2581police": 1776,
  "\u2581strength": 1777,
  "lt": 1778,
  "\u2581Delete": 1779,
  "\u2581along": 1780,
  "\u2581Search": 1781,
  "\u2581knowledge": 1782,
  "\u2581legis": 1783,
  "\u2581virinoj": 1784,
  "\u2581aferojn": 1785,
  "\u2581Johano": 1786,
  "\u2581create": 1787,
  "\u2581konstruis": 1788,
  "\u2581vocxon": 1789,
  "\u2581\u015dan\u011di": 1790,
  "\u2581prenu": 1791,
  "\u2581servantoj": 1792,
  "\u2581third": 1793,
  "gt": 1794,
  "\u2581Egiptujo": 1795,
  "\u2581Rigardu": 1796,
  "onstellation": 1797,
  "per": 1798,
  "\u011das": 1799,
  "\u2581actually": 1800,
  "\u2581flanko": 1801,
  "\u2581function": 1802,
  "\u2581round": 1803,
  "\u2581seek": 1804,
  "\u2581short": 1805,
  "\u2581wilderness": 1806,
  "\u2581rather": 1807,
  "adis": 1808,
  "\u2581date": 1809,
  "\u2581human": 1810,
  "\u2581panon": 1811,
  "\u2581picture": 1812,
  "\u2581running": 1813,
  "\u2581walked": 1814,
  "\u2581Kun": 1815,
  "\u2581Type": 1816,
  "\u2581program": 1817,
  "\u2581sentence": 1818,
  "\u2581snow": 1819,
  "\u2581whatsthis": 1820,
  "\u0108u": 1821,
  "\u2581condition": 1822,
  "\u2581forever": 1823,
  "\u2581version": 1824,
  "at": 1825,
  "a\u016d": 1826,
  "sa": 1827,
  "\u2581View": 1828,
  "\u2581bear": 1829,
  "\u2581righteous": 1830,
  "U": 1831,
  "nto": 1832,
  "\u2581visit": 1833,
  "\u2581America": 1834,
  "\u2581fish": 1835,
  "\u2581grava": 1836,
  "\u2581krei": 1837,
  "\u2581milk": 1838,
  "\u2581wind": 1839,
  "\u2581Even": 1840,
  "\u2581Jakob": 1841,
  "\u2581arrived": 1842,
  "\u2581ekde": 1843,
  "\u2581count": 1844,
  "\u2581gods": 1845,
  "\u2581Color": 1846,
  "\u2581Nomo": 1847,
  "\u2581wisdom": 1848,
  "\u2581tonight": 1849,
  "\u2581Sur": 1850,
  "\u2581accident": 1851,
  "\u2581eye": 1852,
  "\u2581meeting": 1853,
  "\u2581edzo": 1854,
  "\u2581report": 1855,
  "\u2581server": 1856,
  "\u2581students": 1857,
  "\u2581\u0109iutage": 1858,
  "\u2581atendis": 1859,
  "zo": 1860,
  "\u2581mortos": 1861,
  "\u2581ludas": 1862,
  "\u2581seem": 1863,
  "\u2581tian": 1864,
  "so": 1865,
  "\u2581Image": 1866,
  "\u2581arbo": 1867,
  "\u2581chief": 1868,
  "\u2581less": 1869,
  "\u2581princes": 1870,
  "\u2581Philistines": 1871,
  "\u2581outside": 1872,
  "\u2581Lasu": 1873,
  "\u2581eating": 1874,
  "\u2581problemon": 1875,
  "\u2581town": 1876,
  "\u2581volus": 1877,
  "\u2581broke": 1878,
  "\u2581logxantoj": 1879,
  "\u2581Whe": 1880,
  "\u2581case": 1881,
  "\u2581cried": 1882,
  "\u2581daughters": 1883,
  "\u2581festo": 1884,
  "\u2581mountain": 1885,
  "noj": 1886,
  "\u2581disciples": 1887,
  "\u2581evening": 1888,
  "\u2581loves": 1889,
  "\u2581oro": 1890,
  "\u2581writing": 1891,
  "\u2581estro": 1892,
  "\u2581hungry": 1893,
  "\u2581mode": 1894,
  "\u2581ver\u015dajne": 1895,
  "ku": 1896,
  "\u25810": 1897,
  "\u2581Maybe": 1898,
  "\u2581service": 1899,
  "\u2581Bet": 1900,
  "\u2581Ja": 1901,
  "\u2581prophet": 1902,
  "ha": 1903,
  "\u2581Eraro": 1904,
  "sh": 1905,
  "\u2581>": 1906,
  "\u2581ideo": 1907,
  "\u2581iniquity": 1908,
  "ki": 1909,
  "\u2581Malfermi": 1910,
  "\u2581default": 1911,
  "\u2581Jehuda": 1912,
  "\u2581L": 1913,
  "\u2581malamas": 1914,
  "ja": 1915,
  "\u2581Usono": 1916,
  "\u2581nuna": 1917,
  "for": 1918,
  "\u2581Iru": 1919,
  "\u2581Time": 1920,
  "\u2581finis": 1921,
  "\u2581sign": 1922,
  "\u2581intencas": 1923,
  "\u2581multitude": 1924,
  "\u2581probably": 1925,
  "a\u0135o": 1926,
  "fi": 1927,
  "\u2581speaking": 1928,
  "\u2581Babel": 1929,
  "\u2581business": 1930,
  "\u2581dark": 1931,
  "\u2581judge": 1932,
  "\u2581secret": 1933,
  "\u2581stone": 1934,
  "\u2581Or": 1935,
  "\u2581dinner": 1936,
  "\u2581fojon": 1937,
  "\u2581grandaj": 1938,
  "\u2581judgment": 1939,
  "\u2581seed": 1940,
  "+": 1941,
  "H": 1942,
  "ness": 1943,
  "\u2581alive": 1944,
  "\u2581trovos": 1945,
  "\u2581weather": 1946,
  "\u2581Many": 1947,
  "eto": 1948,
  "\u2581Pardonu": 1949,
  "\u2581malamikoj": 1950,
  "\u2581prophets": 1951,
  "\u2581quickly": 1952,
  "\u2581Peter": 1953,
  "\u2581jes": 1954,
  "\u2581lord": 1955,
  "\u2581meze": 1956,
  "\u2581space": 1957,
  "\u2581franca": 1958,
  "\u2581a\u016ddi": 1959,
  "\u2581pla\u0109as": 1960,
  "\u2581sankta": 1961,
  "ron": 1962,
  "\u2581OK": 1963,
  "\u2581Multaj": 1964,
  "\u2581application": 1965,
  "\u2581choose": 1966,
  "\u2581teksto": 1967,
  "\u2581Paul": 1968,
  "\u2581tablo": 1969,
  "\u2581trajno": 1970,
  "\u2581kuracisto": 1971,
  "\u2581nacioj": 1972,
  "Se": 1973,
  "\u2581CD": 1974,
  "\u2581lasis": 1975,
  "\u2581lasu": 1976,
  "\u2581wonder": 1977,
  "i\u011di": 1978,
  "mp": 1979,
  "\u2581Description": 1980,
  "\u2581Nobody": 1981,
  "\u2581add": 1982,
  "\u2581aliajn": 1983,
  "\u2581dekstra": 1984,
  "\u2581pray": 1985,
  "\u2581taking": 1986,
  "am": 1987,
  "\u2581Estu": 1988,
  "\u2581certa": 1989,
  "\u2581fido": 1990,
  "\u2581Levites": 1991,
  "\u2581Tatoeba": 1992,
  "\u2581kutime": 1993,
  "\u2581Montru": 1994,
  "\u2581malsana": 1995,
  "\u2581parolu": 1996,
  "\u2581sidis": 1997,
  "\u2581felt": 1998,
  "\u2581questions": 1999,
  "\u2581sxin": 2000,
  "ca": 2001,
  "\u2581teach": 2002,
  "\u2581usually": 2003,
  "\u25816": 2004,
  "\u2581months": 2005,
  "uloj": 2006,
  "\u2581forto": 2007,
  "mon": 2008,
  "\u2581elektis": 2009,
  "\u2581front": 2010,
  "\u2581kredi": 2011,
  "\u2581mankas": 2012,
  "\u2581stupid": 2013,
  "ilo": 2014,
  "\u2581Ken": 2015,
  "\u2581mistake": 2016,
  "\u2581interesting": 2017,
  "\u2581match": 2018,
  "\u2581unue": 2019,
  "\u2581Tion": 2020,
  "\u2581funkcias": 2021,
  "\u2581top": 2022,
  "\u2581speaks": 2023,
  "\u2581stopped": 2024,
  "\u2581oil": 2025,
  "ion": 2026,
  "\u2581lumo": 2027,
  "\u2581mountains": 2028,
  "\u2581Elektu": 2029,
  "\u2581dosierojn": 2030,
  "\u2581gloro": 2031,
  "\u2581swim": 2032,
  "\u2581Konservi": 2033,
  "\u2581baby": 2034,
  "\u2581form": 2035,
  "\u2581garden": 2036,
  "\u2581kato": 2037,
  "\u2581niajn": 2038,
  "\u2581receive": 2039,
  "\u2581trinki": 2040,
  "ers": 2041,
  "\u2581Every": 2042,
  "\u2581beginning": 2043,
  "\u2581rivero": 2044,
  "\u2581Na": 2045,
  "\u2581alportis": 2046,
  "\u2581helpo": 2047,
  "\u2581legxo": 2048,
  "bo": 2049,
  "\u2581border": 2050,
  "\u2581needed": 2051,
  "\u2581nokton": 2052,
  "\u2581summer": 2053,
  "\u2581black": 2054,
  "\u2581bonaj": 2055,
  "\u2581propran": 2056,
  "\u2581serve": 2057,
  "\u2581thinking": 2058,
  "ven": 2059,
  "\u2581\u015cia": 2060,
  "\u0135o": 2061,
  "pu": 2062,
  "\u2581offerings": 2063,
  "\u2581plain": 2064,
  "ur": 2065,
  "\u2581Keep": 2066,
  "\u2581inside": 2067,
  "\u2581regno": 2068,
  "zi": 2069,
  "\u2581fight": 2070,
  "\u2581inheritance": 2071,
  "\u2581animon": 2072,
  "\u2581komprenis": 2073,
  "\u2581student": 2074,
  "\u2581wrath": 2075,
  "tis": 2076,
  "\u2581Gilead": 2077,
  "\u2581Vin": 2078,
  "\u2581library": 2079,
  "\u2581played": 2080,
  "\u2581preferas": 2081,
  "\u2581temple": 2082,
  "\u2581yourselves": 2083,
  "\u2581future": 2084,
  "\u2581listo": 2085,
  "\u2581sheep": 2086,
  "\u2581t": 2087,
  "\u2581tea": 2088,
  "\u2581\u0109iun": 2089,
  "igxis": 2090,
  "\u2581(%": 2091,
  "\u2581ekster": 2092,
  "8": 2093,
  "\u015d": 2094,
  "\u2581Me": 2095,
  "\u2581Start": 2096,
  "ba": 2097,
  "\u2581building": 2098,
  "\u2581changes": 2099,
  "\u2581follow": 2100,
  "\u2581host": 2101,
  "\u2581joy": 2102,
  "\u2581matene": 2103,
  "\u2581vespere": 2104,
  "\u2581Enter": 2105,
  "\u2581carried": 2106,
  "\u2581ege": 2107,
  "\u2581entered": 2108,
  "\u2581forigi": 2109,
  "nda": 2110,
  "\u2581Baal": 2111,
  "\u2581destroyed": 2112,
  "\u2581persono": 2113,
  "Ni": 2114,
  "con": 2115,
  "\u2581King": 2116,
  "\u2581army": 2117,
  "\u2581battle": 2118,
  "\u2581funkcio": 2119,
  "\u2581malfrue": 2120,
  "\u2581ser\u0109as": 2121,
  "\u2581aferon": 2122,
  "\u2581air": 2123,
  "\u2581ok": 2124,
  "\u2581perfect": 2125,
  "\u2581saved": 2126,
  "son": 2127,
  "\u2581ark": 2128,
  "\u2581twelve": 2129,
  "iko": 2130,
  "\u2581Right": 2131,
  "\u2581necesas": 2132,
  "\u2581plugin": 2133,
  "\u2581staras": 2134,
  "\u2581timu": 2135,
  "\u2581Japanio": 2136,
  "\u2581street": 2137,
  "and": 2138,
  "\u2581General": 2139,
  "\u2581Josuo": 2140,
  "\u2581Only": 2141,
  "\u2581atingis": 2142,
  "\u2581paco": 2143,
  "\u2581support": 2144,
  "\u2581sxia": 2145,
  "\u2581vetero": 2146,
  "\u2581worry": 2147,
  "\u2581Create": 2148,
  "\u2581France": 2149,
  "\u2581animals": 2150,
  "\u2581bonvolu": 2151,
  "\u2581lernis": 2152,
  "\u2581mercy": 2153,
  "\u2581profeto": 2154,
  "\u2581caught": 2155,
  "\u2581farita": 2156,
  "\u2581inhabitants": 2157,
  "\u2581supozas": 2158,
  "\u2581tria": 2159,
  "\u011do": 2160,
  "\u2581Joshua": 2161,
  "\u2581Spirito": 2162,
  "\u2581Tie": 2163,
  "\u2581ate": 2164,
  "\u2581devos": 2165,
  "ch": 2166,
  "\u2581Window": 2167,
  "\u2581discxiploj": 2168,
  "\u2581document": 2169,
  "\u2581dur": 2170,
  "\u2581piedoj": 2171,
  "\u2581ship": 2172,
  "ation": 2173,
  "\u2581angel": 2174,
  "\u2581ears": 2175,
  "igo": 2176,
  "loj": 2177,
  "\u2581librojn": 2178,
  "\u2581movie": 2179,
  "\u2581problems": 2180,
  "\u2581worked": 2181,
  "star": 2182,
  "\u2581Kiun": 2183,
  "\u2581filled": 2184,
  "ak": 2185,
  "\u2581Filisxtoj": 2186,
  "\u2581account": 2187,
  "\u2581maniero": 2188,
  "\u2581na\u011di": 2189,
  "\u2581Hey": 2190,
  "\u2581edzinon": 2191,
  "\u2581maljuna": 2192,
  "\u2581rigardu": 2193,
  "lu": 2194,
  "\u2581vokis": 2195,
  "\u2581eliri": 2196,
  "\u2581vento": 2197,
  "\u2581Files": 2198,
  "\u2581Hi": 2199,
  "\u2581hodiaux": 2200,
  "\u2581vidu": 2201,
  "\u2581bestoj": 2202,
  "\u2581historio": 2203,
  "\u2581kaptis": 2204,
  "\u2581sentis": 2205,
  "\u2581shut": 2206,
  "\u2581J": 2207,
  "\u2581ekstere": 2208,
  "\u2581\u011duste": 2209,
  "\u258112": 2210,
  "\u2581either": 2211,
  "\u2581Size": 2212,
  "\u2581flowers": 2213,
  "\u2581mortigi": 2214,
  "\u2581sense": 2215,
  "\u2581store": 2216,
  "J": 2217,
  "\u2581elekti": 2218,
  "\u2581laboris": 2219,
  "\u2581position": 2220,
  "\u2581propra": 2221,
  "\u2581viziti": 2222,
  "et": 2223,
  "\u2581Configure": 2224,
  "\u2581Daniel": 2225,
  "\u2581HTML": 2226,
  "\u2581Levidoj": 2227,
  "\u2581Make": 2228,
  "\u2581Message": 2229,
  "\u2581fenestron": 2230,
  "\u2581Check": 2231,
  "\u2581Ek": 2232,
  "\u2581Ju": 2233,
  "\u2581Saluton": 2234,
  "\u2581chance": 2235,
  "\u2581filojn": 2236,
  "\u2581translate": 2237,
  "ntoj": 2238,
  "\u2581congregation": 2239,
  "ent": 2240,
  "i\u011du": 2241,
  "\u2581dioj": 2242,
  "\u2581Australia": 2243,
  "\u2581Help": 2244,
  "\u2581komenco": 2245,
  "\u2581messages": 2246,
  "\u2581shoes": 2247,
  "\u2581vestojn": 2248,
  "ni": 2249,
  "\u2581nenia": 2250,
  "Ho": 2251,
  "\u2581Close": 2252,
  "\u2581gets": 2253,
  "\u2581helpos": 2254,
  "\u2581momento": 2255,
  "\u2581demando": 2256,
  "\u2581format": 2257,
  "\u2581muzikon": 2258,
  "\u2581pordego": 2259,
  "\u2581understanding": 2260,
  "\u2581karno": 2261,
  "\u2581Filo": 2262,
  "\u2581blue": 2263,
  "\u2581minutoj": 2264,
  "\u2581track": 2265,
  "\\": 2266,
  "fer": 2267,
  "\u2581atingi": 2268,
  "\u2581eight": 2269,
  "\u2581kunveno": 2270,
  "\u2581ones": 2271,
  "\u2581semajno": 2272,
  "\u2581supren": 2273,
  "\u2581tongue": 2274,
  "\u2581Folder": 2275,
  "\u2581Today": 2276,
  "\u2581saman": 2277,
  "\u2581trinkas": 2278,
  "igita": 2279,
  "ul": 2280,
  "\u2581Options": 2281,
  "\u2581Those": 2282,
  "ate": 2283,
  "\u2581bar": 2284,
  "\u2581forecast": 2285,
  "\u2581libera": 2286,
  "\u2581Default": 2287,
  "\u2581Unknown": 2288,
  "\u2581Joseph": 2289,
  "\u2581followed": 2290,
  "\u2581hundon": 2291,
  "\u2581landoj": 2292,
  "\u2581noise": 2293,
  "\u2581servanto": 2294,
  "\u2581tiele": 2295,
  "\u2581eaten": 2296,
  "\u2581esperanto": 2297,
  "\u2581helpis": 2298,
  "\u2581sins": 2299,
  "\u2581touch": 2300,
  "\u2581tribe": 2301,
  "\u2581kvardek": 2302,
  "\u2581nomata": 2303,
  "\u2581restu": 2304,
  "\u2581\u015cajnas": 2305,
  "unes": 2306,
  "\u2581herself": 2307,
  "\u2581input": 2308,
  "\u2581rigardi": 2309,
  "Q": 2310,
  "antoj": 2311,
  "cx": 2312,
  "ebla": 2313,
  "\u2581mesa\u011don": 2314,
  "\u2581praise": 2315,
  "\u2581provas": 2316,
  "\u2581Uzi": 2317,
  "\u2581deal": 2318,
  "\u2581f": 2319,
  "\u2581guy": 2320,
  "\u2581pura": 2321,
  "\u2581win": 2322,
  "V": 2323,
  "jara": 2324,
  "\u2581Iu": 2325,
  "\u2581Rousseau": 2326,
  "\u2581camera": 2327,
  "\u2581example": 2328,
  "\u2581rakontis": 2329,
  "\u2581uzata": 2330,
  "\u2581Du": 2331,
  "\u2581probabl": 2332,
  "\u2581crazy": 2333,
  "\u2581eniri": 2334,
  "\u2581houses": 2335,
  "\u2581miss": 2336,
  "\u2581surely": 2337,
  "\u2581yes": 2338,
  "ho": 2339,
  "\u2581Benjamin": 2340,
  "\u2581farigxos": 2341,
  "\u2581following": 2342,
  "\u2581malfermis": 2343,
  "\u2581respondi": 2344,
  "\u2581\u011cis": 2345,
  "W": 2346,
  "adon": 2347,
  "\u2581learning": 2348,
  "\u2581lose": 2349,
  "\u2581DVD": 2350,
  "\u2581See": 2351,
  "\u2581Unite": 2352,
  "\u2581bildon": 2353,
  "\u2581dialog": 2354,
  "\u2581enemy": 2355,
  "\u2581nation": 2356,
  "\u2581seeing": 2357,
  "\u2581tennis": 2358,
  "\u2581Hello": 2359,
  "\u2581Internet": 2360,
  "\u2581Number": 2361,
  "\u2581arm": 2362,
  "\u2581fidas": 2363,
  "\u2581paper": 2364,
  "\u2581windows": 2365,
  "\u2581Put": 2366,
  "\u2581favorite": 2367,
  "\u2581health": 2368,
  "\u2581kvindek": 2369,
  "\u2581mesa\u011do": 2370,
  "\u2581preta": 2371,
  "\u2581test": 2372,
  "sx": 2373,
  "\u2581Co": 2374,
  "\u2581Their": 2375,
  "\u2581pieces": 2376,
  "\u2581proud": 2377,
  "ies": 2378,
  "tas": 2379,
  "ten": 2380,
  "\u2581plenumi": 2381,
  "bu": 2382,
  "\u2581anstata\u016d": 2383,
  "\u2581b": 2384,
  "\u2581careful": 2385,
  "\u2581\u015dian": 2386,
  "igos": 2387,
  "\u2581dormas": 2388,
  "\u2581regxon": 2389,
  "\u2581bildo": 2390,
  "\u2581cup": 2391,
  "\u2581i\u011dis": 2392,
  "\u2581justeco": 2393,
  "\u2581malbone": 2394,
  "\u2581moved": 2395,
  "\u2581sklavo": 2396,
  "\u2581takes": 2397,
  "lan": 2398,
  "\u2581KD": 2399,
  "\u2581accept": 2400,
  "\u2581cubits": 2401,
  "\u2581dosierujo": 2402,
  "\u2581elektita": 2403,
  "\u2581konservi": 2404,
  "\u2581countries": 2405,
  "\u2581darkness": 2406,
  "\u2581lunch": 2407,
  "\u2581audio": 2408,
  "\u2581chosen": 2409,
  "\u2581fact": 2410,
  "\u2581malfacila": 2411,
  "\u2581master": 2412,
  "\u2581prefer": 2413,
  "up": 2414,
  "\u2581Filter": 2415,
  "\u2581a\u011da": 2416,
  "\u2581till": 2417,
  "\u2581valoro": 2418,
  "\u2581vocxo": 2419,
  "\u2581throne": 2420,
  "pro": 2421,
  "\u2581Chinese": 2422,
  "\u2581actor": 2423,
  "\u2581komputilo": 2424,
  "\u2581profetoj": 2425,
  "\u2581vino": 2426,
  "No": 2427,
  "foje": 2428,
  "\u2581clear": 2429,
  "\u2581ludo": 2430,
  "\u2581lying": 2431,
  "\u2581mallumo": 2432,
  "\u2581malsupren": 2433,
  "\u2581talked": 2434,
  "\u2581vizagxon": 2435,
  "X": 2436,
  "il": 2437,
  "ment": 2438,
  "\u2581exactly": 2439,
  "\u2581hospital": 2440,
  "\u2581older": 2441,
  "\u2581watching": 2442,
  "gos": 2443,
  "\u2581Holy": 2444,
  "\u2581Ma": 2445,
  "\u2581beach": 2446,
  "\u2581blind": 2447,
  "\u2581fat": 2448,
  "\u2581lernas": 2449,
  "\u2581sitting": 2450,
  "\u2581famous": 2451,
  "\u2581kanton": 2452,
  "\u2581labor": 2453,
  "\u2581polico": 2454,
  "\u2581sekvis": 2455,
  "tra": 2456,
  "\u2581elders": 2457,
  "\u2581sacrifice": 2458,
  "\u2581sake": 2459,
  "\u2581Server": 2460,
  "\u2581duono": 2461,
  "\u2581horse": 2462,
  "\u2581learned": 2463,
  "\u2581pluvo": 2464,
  "\u2581stayed": 2465,
  "\u2581tagojn": 2466,
  "\u2581view": 2467,
  "\u2581demandi": 2468,
  "\u2581history": 2469,
  "\u2581kvankam": 2470,
  "\u2581lingvoj": 2471,
  "\u2581pravas": 2472,
  "\u2581settings": 2473,
  "\u2581thinks": 2474,
  "\u2581\u0109ielo": 2475,
  "nomo": 2476,
  "\u2581montris": 2477,
  "\u2581strato": 2478,
  "\u2581waste": 2479,
  "\u2581display": 2480,
  "\u2581named": 2481,
  "\u2581rose": 2482,
  "\u2581A\u016dstralio": 2483,
  "\u2581Nenio": 2484,
  "\u2581akcidento": 2485,
  "\u2581ideon": 2486,
  "\u2581park": 2487,
  "\u2581prenos": 2488,
  "\u2581ri\u0109a": 2489,
  "\u2581struck": 2490,
  "\u2581vizagxo": 2491,
  "\u2581Redakti": 2492,
  "\u2581Yeah": 2493,
  "\u2581hide": 2494,
  "\u2581kids": 2495,
  "\u2581l": 2496,
  "ran": 2497,
  "\u2581<": 2498,
  "\u2581People": 2499,
  "\u2581asleep": 2500,
  "\u2581nomi\u011das": 2501,
  "\u2581promise": 2502,
  "\u2581sweet": 2503,
  "\u2581tabernacle": 2504,
  "\u2581unuan": 2505,
  "he": 2506,
  "\u2581Font": 2507,
  "\u2581Tiele": 2508,
  "\u2581covered": 2509,
  "\u2581horoj": 2510,
  "\u2581ma": 2511,
  "\u2581mondon": 2512,
  "\u2581nepre": 2513,
  "\u2581sciu": 2514,
  "ir": 2515,
  "ite": 2516,
  "\u2581closed": 2517,
  "\u2581hit": 2518,
  "\u2581worth": 2519,
  "GenericName": 2520,
  "\u25819": 2521,
  "\u2581Change": 2522,
  "\u2581altaro": 2523,
  "\u2581homon": 2524,
  "\u2581password": 2525,
  "\u2581stones": 2526,
  "fo": 2527,
  "\u2581Petro": 2528,
  "\u2581devintus": 2529,
  "\u2581helped": 2530,
  "\u2581immediately": 2531,
  "\u2581libroj": 2532,
  "\u2581main": 2533,
  "\u2581savi": 2534,
  "\u2581Anta\u016d": 2535,
  "\u2581morti": 2536,
  "\u2581\u0108esu": 2537,
  "be": 2538,
  "\u2581Everything": 2539,
  "\u2581Thanks": 2540,
  "\u2581bezonis": 2541,
  "\u2581dosieroj": 2542,
  "mal": 2543,
  "\u2581Faraono": 2544,
  "\u2581NAME": 2545,
  "\u2581believed": 2546,
  "\u2581departed": 2547,
  "\u2581sepa": 2548,
  "\u2581Audio": 2549,
  "\u2581Hiera\u016d": 2550,
  "\u2581foot": 2551,
  "\u2581lito": 2552,
  "\u2581logxis": 2553,
  "\u2581studying": 2554,
  "\u2581timo": 2555,
  "\u2581Alicio": 2556,
  "\u2581American": 2557,
  "\u2581Pharaoh": 2558,
  "\u2581Stencil": 2559,
  "\u2581biblioteko": 2560,
  "\u2581instead": 2561,
  "\u2581moon": 2562,
  "\u2581naski\u011dis": 2563,
  "\u2581nomas": 2564,
  "\u2581patron": 2565,
  "\u2581sidas": 2566,
  "\u2581tribo": 2567,
  "gr": 2568,
  "ntaj": 2569,
  "\u2581Ko": 2570,
  "\u2581dosierujon": 2571,
  "\u2581enhavas": 2572,
  "\u2581pa\u011do": 2573,
  "\u2581studi": 2574,
  "\u2581thank": 2575,
  "mb": 2576,
  "\u2581carry": 2577,
  "\u2581farus": 2578,
  "\u2581ia": 2579,
  "\u2581interested": 2580,
  "\u2581Kien": 2581,
  "\u2581Next": 2582,
  "\u2581blessed": 2583,
  "\u2581depart": 2584,
  "\u2581fakte": 2585,
  "\u2581guess": 2586,
  "\u2581lastan": 2587,
  "\u2581ordonojn": 2588,
  "\u2581paid": 2589,
  "\u2581tooltip": 2590,
  "\u2581Ephraim": 2591,
  "\u2581Play": 2592,
  "\u2581hearts": 2593,
  "\u2581pensi": 2594,
  "Kion": 2595,
  "Kiu": 2596,
  "um": 2597,
  "\u2581Agordo": 2598,
  "\u2581Copy": 2599,
  "\u2581kon": 2600,
  "\u2581supre": 2601,
  "\u2581taught": 2602,
  "\u2581wood": 2603,
  "ek": 2604,
  "ema": 2605,
  "\u2581City": 2606,
  "\u2581Nothing": 2607,
  "\u2581access": 2608,
  "\u2581agree": 2609,
  "\u2581demandon": 2610,
  "\u2581enjoy": 2611,
  "\u2581forty": 2612,
  "\u2581kafon": 2613,
  "\u2581levis": 2614,
  "\u2581surprised": 2615,
  "\u2581directory": 2616,
  "\u2581iuj": 2617,
  "\u2581legas": 2618,
  "\u2581Ra": 2619,
  "\u2581certainly": 2620,
  "\u2581malsukcesis": 2621,
  "\u2581path": 2622,
  "\u2581reigned": 2623,
  "\u2581trovas": 2624,
  "\u2581venigis": 2625,
  "\u2581wearing": 2626,
  "\u258115": 2627,
  "\u2581arose": 2628,
  "\u2581dictionary": 2629,
  "\u2581finish": 2630,
  "\u2581speech": 2631,
  "\u2581\u015datis": 2632,
  "\u2581forkuris": 2633,
  "\u2581inmenu": 2634,
  "\u2581rejoice": 2635,
  "\u2581select": 2636,
  "\u2581standing": 2637,
  "\u2581therein": 2638,
  "bi": 2639,
  "tri": 2640,
  "\u2581//": 2641,
  "\u2581fly": 2642,
  "\u2581forgot": 2643,
  "\u2581government": 2644,
  "\u2581kanto": 2645,
  "\u2581nokte": 2646,
  "\u2581reign": 2647,
  "\u2581similas": 2648,
  "\u2581special": 2649,
  "color": 2650,
  "\u2581afternoon": 2651,
  "\u2581column": 2652,
  "\u2581green": 2653,
  "\u2581prison": 2654,
  "\u2581Enable": 2655,
  "\u2581bicycle": 2656,
  "\u2581completely": 2657,
  "\u2581dormi": 2658,
  "\u2581everybody": 2659,
  "\u2581lest": 2660,
  "\u2581promesis": 2661,
  "\u2581Jerusalemon": 2662,
  "\u2581Le": 2663,
  "\u2581Pa": 2664,
  "\u2581desire": 2665,
  "\u2581donita": 2666,
  "\u2581laca": 2667,
  "\u2581media": 2668,
  "\u2581programo": 2669,
  "\u2581Bonan": 2670,
  "\u2581montoj": 2671,
  "\u2581projekto": 2672,
  "\u2581remove": 2673,
  "\u2581Desktop": 2674,
  "\u2581created": 2675,
  "\u2581dangerous": 2676,
  "\u2581limo": 2677,
  "\u2581single": 2678,
  "\u2581terrible": 2679,
  "\u2581wash": 2680,
  "ah": 2681,
  "\u2581drunk": 2682,
  "\u2581provi": 2683,
  "\u2581Dosiero": 2684,
  "\u2581Ka": 2685,
  "\u2581driver": 2686,
  "\u2581eterna": 2687,
  "\u2581lo": 2688,
  "\u2581spread": 2689,
  "\u2581vivis": 2690,
  "\u2581vizitis": 2691,
  "ck": 2692,
  "\u2581Earth": 2693,
  "\u2581Simon": 2694,
  "\u2581capital": 2695,
  "\u2581dress": 2696,
  "\u2581facila": 2697,
  "\u2581peko": 2698,
  "\u2581salvation": 2699,
  "--": 2700,
  "\u2581Most": 2701,
  "\u2581Tre": 2702,
  "\u2581bank": 2703,
  "\u2581da\u016dre": 2704,
  "\u2581east": 2705,
  "\u2581object": 2706,
  "\u2581ordo": 2707,
  "\u2581sad": 2708,
  "\u2581sistemo": 2709,
  "\u2581stars": 2710,
  "\u2581subject": 2711,
  "\u2581Neniam": 2712,
  "\u2581anybody": 2713,
  "land": 2714,
  "\u2581Export": 2715,
  "\u2581Kelkaj": 2716,
  "\u2581Krei": 2717,
  "\u2581Zion": 2718,
  "\u2581bird": 2719,
  "\u2581ci": 2720,
  "\u2581malbono": 2721,
  "\u2581offered": 2722,
  "\u2581pekoj": 2723,
  "\u2581skribas": 2724,
  "Stencil": 2725,
  "\u2581except": 2726,
  "\u2581fifty": 2727,
  "\u2581gives": 2728,
  "\u2581heavy": 2729,
  "\u2581monatoj": 2730,
  "\u2581ricevi": 2731,
  "\u2581Sankta": 2732,
  "\u2581agis": 2733,
  "\u2581piece": 2734,
  "\u2581proksime": 2735,
  "\u2581rule": 2736,
  "\u2581thanks": 2737,
  "BAR": 2738,
  "ataj": 2739,
  "\u2581a\u016ddas": 2740,
  "\u2581deep": 2741,
  "\u2581frapis": 2742,
  "\u2581kafo": 2743,
  "\u2581parolos": 2744,
  "\u2581promised": 2745,
  "\u2581road": 2746,
  "\u2581rock": 2747,
  "\u2581smoke": 2748,
  "Iru": 2749,
  "a\u0135oj": 2750,
  "\u258118": 2751,
  "\u2581Tero": 2752,
  "\u2581alarm": 2753,
  "\u2581allowed": 2754,
  "\u2581birthday": 2755,
  "\u2581burn": 2756,
  "\u2581girls": 2757,
  "\u2581glass": 2758,
  "\u2581hosts": 2759,
  "\u2581sekva": 2760,
  "\u2581Nekonata": 2761,
  "\u2581explain": 2762,
  "\u2581floor": 2763,
  "\u2581forward": 2764,
  "\u2581\u011dia": 2765,
  "\u2581Atentu": 2766,
  "\u2581Ye": 2767,
  "\u2581abroad": 2768,
  "\u2581advice": 2769,
  "\u2581agordo": 2770,
  "\u2581dormis": 2771,
  "\u2581i": 2772,
  "\u2581missing": 2773,
  "\u2581prepared": 2774,
  "\u2581renkonti": 2775,
  "\u2581sangon": 2776,
  "\u2581templo": 2777,
  "pon": 2778,
  "\u2581Egipta": 2779,
  "\u2581GOD": 2780,
  "\u2581Page": 2781,
  "\u2581anstataux": 2782,
  "\u2581caused": 2783,
  "\u2581commandment": 2784,
  "\u2581font": 2785,
  "\u2581hotel": 2786,
  "\u2581mangxu": 2787,
  "\u2581player": 2788,
  "\u2581studentoj": 2789,
  "\u2581trovi\u011das": 2790,
  "ol": 2791,
  "\u2581San": 2792,
  "\u2581across": 2793,
  "\u2581hill": 2794,
  "\u2581kvaza": 2795,
  "\u2581north": 2796,
  "\u2581potenco": 2797,
  "\u2581songs": 2798,
  "\u2581u": 2799,
  "\u258130": 2800,
  "\u2581South": 2801,
  "\u2581correct": 2802,
  "\u2581peti": 2803,
  "\u2581problemojn": 2804,
  "\u2581quiet": 2805,
  "\u2581servilo": 2806,
  "\u2581smoking": 2807,
  "integer": 2808,
  "\u2581Lo": 2809,
  "\u2581captain": 2810,
  "\u2581frazo": 2811,
  "\u2581hell": 2812,
  "\u2581precize": 2813,
  "\u2581redonas": 2814,
  "\u2581feeling": 2815,
  "\u2581helpas": 2816,
  "\u2581lips": 2817,
  "\u2581muziko": 2818,
  "It": 2819,
  "si": 2820,
  "\u2581Ser\u0109i": 2821,
  "\u2581System": 2822,
  "\u2581arbaro": 2823,
  "\u2581court": 2824,
  "\u2581description": 2825,
  "\u2581ear": 2826,
  "\u2581grow": 2827,
  "\u2581mad": 2828,
  "\u2581south": 2829,
  "\u2581uzanto": 2830,
  "Laughter": 2831,
  "\u2581Am": 2832,
  "\u2581Nombro": 2833,
  "\u2581breakfast": 2834,
  "\u2581film": 2835,
  "\u2581naskis": 2836,
  "\u2581presence": 2837,
  "\u2581specified": 2838,
  "\u2581team": 2839,
  "...\"": 2840,
  "\u2581dankon": 2841,
  "\u2581interligon": 2842,
  "\u2581pain": 2843,
  "\u2581spent": 2844,
  "sk": 2845,
  "\u2581Christmas": 2846,
  "\u2581Group": 2847,
  "\u2581Mo": 2848,
  "\u2581Movi": 2849,
  "\u2581auxskultu": 2850,
  "\u2581celo": 2851,
  "\u2581demandas": 2852,
  "\u2581grave": 2853,
  "\u2581heavens": 2854,
  "\u2581jene": 2855,
  "\u2581novajn": 2856,
  "\u2581pano": 2857,
  "id": 2858,
  "ujo": 2859,
  "\u2581almena\u016d": 2860,
  "\u2581catch": 2861,
  "\u2581lumon": 2862,
  "\u2581metu": 2863,
  "\u2581multon": 2864,
  "\u2581parton": 2865,
  "the": 2866,
  "\u2581Tokyo": 2867,
  "\u2581attention": 2868,
  "\u2581commandments": 2869,
  "\u2581gather": 2870,
  "\u2581komunumo": 2871,
  "\u2581local": 2872,
  "\u2581naskigxis": 2873,
  "\u2581serious": 2874,
  "\u2581cxia": 2875,
  "\u2581fled": 2876,
  "\u2581mount": 2877,
  "\u2581piano": 2878,
  "\u2581proksima": 2879,
  "\u2581steloj": 2880,
  "\u2581urbojn": 2881,
  "\u2581whatever": 2882,
  "a\u0135on": 2883,
  "\u2581Si": 2884,
  "\u2581Wait": 2885,
  "\u2581contact": 2886,
  "\u2581espero": 2887,
  "\u2581exist": 2888,
  "\u2581minute": 2889,
  "\u2581respondo": 2890,
  "\u2581slain": 2891,
  "\u2581Ah": 2892,
  "\u2581Mar": 2893,
  "\u2581ekparolis": 2894,
  "\u2581forgesu": 2895,
  "\u2581height": 2896,
  "\u2581horses": 2897,
  "\u2581oficejo": 2898,
  "\u2581rise": 2899,
  "one": 2900,
  "\u2581Canno": 2901,
  "\u2581MB": 2902,
  "\u2581Ve": 2903,
  "\u2581filmo": 2904,
  "\u2581leaving": 2905,
  "\u2581pre": 2906,
  "\u2581success": 2907,
  "\u2581timis": 2908,
  "\u2581\u011dardeno": 2909,
  "ber": 2910,
  "gxis": 2911,
  "i\u011do": 2912,
  "\u2581aktoro": 2913,
  "\u2581iron": 2914,
  "\u2581malproksime": 2915,
  "\u2581sesa": 2916,
  "\u2581sometimes": 2917,
  "\u2581valley": 2918,
  "Tiele": 2919,
  "\u2581Ameriko": 2920,
  "\u2581Bar": 2921,
  "\u2581Bill": 2922,
  "\u2581ashamed": 2923,
  "\u2581kindness": 2924,
  "\u2581throughout": 2925,
  "\u2581trono": 2926,
  "Y": 2927,
  "anoj": 2928,
  "eton": 2929,
  "\u2581Europe": 2930,
  "\u2581Fermi": 2931,
  "\u2581Jeremia": 2932,
  "\u2581church": 2933,
  "\u2581families": 2934,
  "\u2581heads": 2935,
  "\u2581klaso": 2936,
  "\u2581koloro": 2937,
  "\u2581malnova": 2938,
  "\u2581situacio": 2939,
  "\u2581sold": 2940,
  "\u2581transdonis": 2941,
  "Kial": 2942,
  "vespere": 2943,
  "\u2581'%1": 2944,
  "\u2581angxelo": 2945,
  "\u2581control": 2946,
  "\u2581due": 2947,
  "\u2581jxetis": 2948,
  "\u2581sir": 2949,
  "\u2581trip": 2950,
  "\u2581\u0109esis": 2951,
  "i\u011dos": 2952,
  "\u2581Efraim": 2953,
  "\u2581E\u016dropo": 2954,
  "\u2581Jeremiah": 2955,
  "\u2581crying": 2956,
  "\u2581foreign": 2957,
  "\u2581gates": 2958,
  "\u2581lies": 2959,
  "\u2581projekton": 2960,
  "\u2581tab": 2961,
  "\u2581winter": 2962,
  "\u2581\u011dusta": 2963,
  "\u2581Everybody": 2964,
  "\u2581Jam": 2965,
  "\u2581Kiuj": 2966,
  "\u2581MP": 2967,
  "\u2581beer": 2968,
  "\u2581currently": 2969,
  "\u2581expensive": 2970,
  "\u2581helpu": 2971,
  "\u2581several": 2972,
  "Do": 2973,
  "jo": 2974,
  "ze": 2975,
  "\u258119": 2976,
  "\u2581Jozef": 2977,
  "\u2581Monday": 2978,
  "\u2581Project": 2979,
  "\u2581dogs": 2980,
  "\u2581drinking": 2981,
  "\u2581forest": 2982,
  "\u2581foriru": 2983,
  "\u2581grupo": 2984,
  "\u2581lakto": 2985,
  "\u2581malanta\u016d": 2986,
  "\u2581okupata": 2987,
  "\u2581pretas": 2988,
  "\u2581remain": 2989,
  "\u2581spend": 2990,
  "\u2581tiaj": 2991,
  "of": 2992,
  "\u2581Kon": 2993,
  "\u2581Lanjo": 2994,
  "\u2581Lebanon": 2995,
  "\u2581faroj": 2996,
  "\u2581itself": 2997,
  "\u2581kreis": 2998,
  "\u2581mistakes": 2999,
  "\u2581star": 3000,
  "\u2581telling": 3001,
  "ano": 3002,
  "men": 3003,
  "\u2581alvenos": 3004,
  "\u2581false": 3005,
  "\u2581girlfriend": 3006,
  "\u2581ought": 3007,
  "\u2581Mode": 3008,
  "\u2581North": 3009,
  "\u2581fool": 3010,
  "\u2581grace": 3011,
  "\u2581low": 3012,
  "El": 3013,
  "\u2581burned": 3014,
  "\u2581cake": 3015,
  "\u2581celas": 3016,
  "\u2581fraton": 3017,
  "\u2581nine": 3018,
  "\u2581share": 3019,
  "\u2581situation": 3020,
  "\u2581tall": 3021,
  "\u2581trafis": 3022,
  "igxos": 3023,
  "\u258116": 3024,
  "\u2581Edom": 3025,
  "\u2581States": 3026,
  "\u2581block": 3027,
  "\u2581consider": 3028,
  "\u2581cxirkauxe": 3029,
  "\u2581fini": 3030,
  "\u2581hat": 3031,
  "\u2581havu": 3032,
  "\u2581hotelo": 3033,
  "\u2581montras": 3034,
  "\u2581result": 3035,
  "\u2581village": 3036,
  "\u2581viron": 3037,
  "\u2581\u0109efa": 3038,
  "vu": 3039,
  "\u0109i": 3040,
  "\u2581Cion": 3041,
  "\u2581Send": 3042,
  "\u2581St": 3043,
  "\u2581Tokio": 3044,
  "\u2581dollars": 3045,
  "\u2581mangxi": 3046,
  "\u2581necessary": 3047,
  "\u2581re\u011do": 3048,
  "NAME": 3049,
  "\u2581Turn": 3050,
  "\u2581calls": 3051,
  "\u2581cost": 3052,
  "\u2581d": 3053,
  "\u2581fari\u011dis": 3054,
  "\u2581filinoj": 3055,
  "\u2581hurry": 3056,
  "\u2581portis": 3057,
  "\u2581profunda": 3058,
  "\u2581source": 3059,
  "\u2581stranga": 3060,
  "aro": 3061,
  "clock": 3062,
  "\u2581Armies": 3063,
  "\u2581Click": 3064,
  "\u2581Prenu": 3065,
  "\u2581birds": 3066,
  "\u2581fojo": 3067,
  "\u2581kiss": 3068,
  "\u2581ludis": 3069,
  "ada": 3070,
  "non": 3071,
  "\u2581Dano": 3072,
  "\u2581Two": 3073,
  "\u2581com": 3074,
  "\u2581common": 3075,
  "\u2581gajnis": 3076,
  "\u2581impossible": 3077,
  "\u2581memory": 3078,
  "\u2581muro": 3079,
  "\u2581okupita": 3080,
  "\u2581skin": 3081,
  "\u2581trinkis": 3082,
  "\u2581vessels": 3083,
  "\u2581walking": 3084,
  "\u2581Forigu": 3085,
  "\u2581allow": 3086,
  "\u2581begin": 3087,
  "\u2581disk": 3088,
  "\u2581familioj": 3089,
  "\u2581feed": 3090,
  "\u2581network": 3091,
  "\u2581stulta": 3092,
  "\u2581Spanish": 3093,
  "\u2581Try": 3094,
  "\u2581level": 3095,
  "\u2581malamiko": 3096,
  "\u2581sort": 3097,
  "\u2581valoron": 3098,
  "akso": 3099,
  "hi": 3100,
  "\u2581Ben": 3101,
  "\u2581GXi": 3102,
  "\u2581amis": 3103,
  "\u2581letters": 3104,
  "\u2581rompis": 3105,
  "jxon": 3106,
  "\u2581Bob": 3107,
  "\u2581Cisco": 3108,
  "\u2581Game": 3109,
  "\u2581Has": 3110,
  "\u2581Kvankam": 3111,
  "\u2581None": 3112,
  "\u2581cometh": 3113,
  "\u2581counsel": 3114,
  "\u2581difference": 3115,
  "\u2581dust": 3116,
  "\u2581homa": 3117,
  "\u2581konis": 3118,
  "\u2581raised": 3119,
  "7": 3120,
  "far": 3121,
  "\u258150": 3122,
  "\u2581Choose": 3123,
  "\u2581Ekzistas": 3124,
  "\u2581Ludi": 3125,
  "\u2581appointed": 3126,
  "\u2581forgive": 3127,
  "\u2581marry": 3128,
  "\u2581respect": 3129,
  "\u2581safe": 3130,
  "\u2581savis": 3131,
  "\u2581slept": 3132,
  "itaj": 3133,
  "ut": 3134,
  "\u2581Find": 3135,
  "\u2581apple": 3136,
  "\u2581desktop": 3137,
  "\u2581fajron": 3138,
  "\u2581happens": 3139,
  "\u2581held": 3140,
  "\u2581planet": 3141,
  "\u2581process": 3142,
  "\u2581supposed": 3143,
  "\u2581tabernaklo": 3144,
  "\u2581Samio": 3145,
  "\u2581falos": 3146,
  "\u2581invalid": 3147,
  "\u2581seat": 3148,
  "\u2581sendi": 3149,
  "\u2581stacio": 3150,
  "\u2581ulnoj": 3151,
  "\u2581vinon": 3152,
  "\u2581\u015can\u011di": 3153,
  "\"?": 3154,
  "\u2581artist": 3155,
  "\u2581buso": 3156,
  "\u2581ie": 3157,
  "\u2581ill": 3158,
  "\u2581interligo": 3159,
  "\u2581machine": 3160,
  "\u2581screen": 3161,
  "\u2581temas": 3162,
  "\u2581wear": 3163,
  "min": 3164,
  "\u2581100": 3165,
  "\u2581=": 3166,
  "\u2581Kopii": 3167,
  "\u2581Ta": 3168,
  "\u2581fi": 3169,
  "\u2581finally": 3170,
  "\u2581finfine": 3171,
  "\u2581foriros": 3172,
  "\u2581kostas": 3173,
  "\u2581medicine": 3174,
  "\u2581seemed": 3175,
  "\u2581starigxis": 3176,
  "\u2581Media": 3177,
  "\u2581hejmo": 3178,
  "\u2581mail": 3179,
  "\u2581package": 3180,
  "\u2581povu": 3181,
  "\u2581speed": 3182,
  "\u2581vojoj": 3183,
  "\u2581List": 3184,
  "\u2581apena\u016d": 3185,
  "\u2581atendu": 3186,
  "\u2581couple": 3187,
  "\u2581demandojn": 3188,
  "\u2581public": 3189,
  "\u2581rimarkis": 3190,
  "\u2581subite": 3191,
  "\u2581waited": 3192,
  "ie": 3193,
  "ler": 3194,
  "pre": 3195,
  "\u2581amikojn": 3196,
  "\u2581beyond": 3197,
  "\u2581homework": 3198,
  "\u2581instruis": 3199,
  "\u2581location": 3200,
  "\u2581logxas": 3201,
  "\u2581mortintoj": 3202,
  "\u2581pure": 3203,
  "pen": 3204,
  "\u2581Bonvole": 3205,
  "\u2581China": 3206,
  "\u2581cxiun": 3207,
  "\u2581ice": 3208,
  "\u2581interesa": 3209,
  "\u2581keys": 3210,
  "\u2581malsato": 3211,
  "\u2581price": 3212,
  "\u2581relative": 3213,
  "Li": 3214,
  "ach": 3215,
  "}": 3216,
  "\u2581Ba": 3217,
  "\u2581Q": 3218,
  "\u2581User": 3219,
  "\u2581continue": 3220,
  "\u2581manager": 3221,
  "\u2581mangxis": 3222,
  "\u2581portas": 3223,
  "\u2581antauxe": 3224,
  "\u2581cover": 3225,
  "\u2581images": 3226,
  "\u2581length": 3227,
  "\u2581map": 3228,
  "\u2581parts": 3229,
  "\u2581visited": 3230,
  "\u2581Asa": 3231,
  "\u2581Bo": 3232,
  "\u2581Left": 3233,
  "\u2581Priskribo": 3234,
  "\u2581Tri": 3235,
  "\u2581alvokis": 3236,
  "\u2581boys": 3237,
  "\u2581charge": 3238,
  "\u2581gonna": 3239,
  "\u2581pagi": 3240,
  "\u2581respondon": 3241,
  "\u2581unclean": 3242,
  "\u2581weight": 3243,
  "\u2581wonderful": 3244,
  "\u2581Certe": 3245,
  "\u2581Germany": 3246,
  "\u2581Information": 3247,
  "\u2581Plugin": 3248,
  "\u2581akiri": 3249,
  "\u2581ekzameno": 3250,
  "\u2581eliros": 3251,
  "\u2581ricevos": 3252,
  "\u2581tekston": 3253,
  "\u2581worse": 3254,
  "\u2581\u0109efurbo": 3255,
  "\u2581Faru": 3256,
  "\u2581Po": 3257,
  "\u2581fama": 3258,
  "\u2581seconds": 3259,
  "\u2581shame": 3260,
  "\u2581vain": 3261,
  "gon": 3262,
  "\u2581Ku": 3263,
  "\u2581aldoni": 3264,
  "\u2581aparato": 3265,
  "\u2581a\u016dskulti": 3266,
  "\u2581dear": 3267,
  "\u2581draw": 3268,
  "\u2581hid": 3269,
  "\u2581instruas": 3270,
  "\u2581request": 3271,
  "\u2581studas": 3272,
  "\u2581terura": 3273,
  "\u2581\u011dojas": 3274,
  "em": 3275,
  "\u2581Sorry": 3276,
  "\u2581keston": 3277,
  "\u2581plian": 3278,
  "\u2581translated": 3279,
  "\u2581{": 3280,
  "9": 3281,
  "pl": 3282,
  "\u2581Yet": 3283,
  "\u2581birdoj": 3284,
  "\u2581bonas": 3285,
  "\u2581h": 3286,
  "\u2581pasis": 3287,
  "\u2581pleasure": 3288,
  "\u2581ricevas": 3289,
  "\u2581showed": 3290,
  "\u2581uncle": 3291,
  "\u2581ve": 3292,
  "world": 3293,
  "\u2581Beth": 3294,
  "\u2581ID": 3295,
  "\u2581eraron": 3296,
  "\u2581haltis": 3297,
  "\u2581kara": 3298,
  "\u2581konduto": 3299,
  "\u2581lasi": 3300,
  "\u2581mesa\u011dojn": 3301,
  "\u2581mouse": 3302,
  "\u2581regiono": 3303,
  "\u2581simila": 3304,
  "der": 3305,
  "ina": 3306,
  "tre": 3307,
  "\u2581Atendu": 3308,
  "\u2581Pauxlo": 3309,
  "\u2581dance": 3310,
  "\u2581lady": 3311,
  "\u2581malplena": 3312,
  "\u2581sleeping": 3313,
  "\u0135oj": 3314,
  "\u2581DPI": 3315,
  "\u2581Date": 3316,
  "\u2581Manasseh": 3317,
  "\u2581Vidu": 3318,
  "\u2581Wherefore": 3319,
  "\u2581character": 3320,
  "\u2581kanti": 3321,
  "\u2581lead": 3322,
  "\u2581liked": 3323,
  "\u2581proksimume": 3324,
  "\u2581sought": 3325,
  "\u2581w": 3326,
  "\u2581zorgu": 3327,
  "st": 3328,
  "\u2581HXizkija": 3329,
  "\u2581Title": 3330,
  "\u2581animal": 3331,
  "\u2581camp": 3332,
  "\u2581gift": 3333,
  "\u2581na": 3334,
  "\u2581registaro": 3335,
  "\u2581rules": 3336,
  "fu": 3337,
  "\u2581Device": 3338,
  "\u2581Display": 3339,
  "\u2581Granda": 3340,
  "\u2581Hezekiah": 3341,
  "\u2581Jane": 3342,
  "\u2581Plej": 3343,
  "\u2581assembly": 3344,
  "\u2581below": 3345,
  "\u2581gxojo": 3346,
  "\u2581intencis": 3347,
  "\u2581novaj": 3348,
  "\u2581provu": 3349,
  "\u2581root": 3350,
  "\u2581scio": 3351,
  "\u2581statutes": 3352,
  "\u2581width": 3353,
  "\u2581younger": 3354,
  "istoj": 3355,
  "\u2581Never": 3356,
  "\u2581Properties": 3357,
  "\u2581arboj": 3358,
  "\u2581knabinoj": 3359,
  "\u2581konsentas": 3360,
  "\u2581linio": 3361,
  "\u2581stato": 3362,
  "\u2581studento": 3363,
  "\u2581\u015dajnis": 3364,
  "\u2581\u015dancon": 3365,
  "\u2581Gad": 3366,
  "\u2581Levi": 3367,
  "\u2581Network": 3368,
  "\u2581Pe": 3369,
  "\u2581bonajn": 3370,
  "\u2581choice": 3371,
  "\u2581decision": 3372,
  "\u2581escape": 3373,
  "\u2581generation": 3374,
  "\u2581honor": 3375,
  "\u2581montros": 3376,
  "\u2581personoj": 3377,
  "\u2581witness": 3378,
  "\u2581\u015dipo": 3379,
  "\u2581Address": 3380,
  "\u2581bonon": 3381,
  "\u2581ekstermos": 3382,
  "\u2581malaperis": 3383,
  "\u2581meti": 3384,
  "\u2581okulo": 3385,
  "\u2581spoil": 3386,
  "\u2581Asirio": 3387,
  "\u2581Moreover": 3388,
  "\u2581Up": 3389,
  "\u2581bare": 3390,
  "\u2581click": 3391,
  "\u2581configuration": 3392,
  "\u2581desolate": 3393,
  "\u2581fail": 3394,
  "\u2581fallen": 3395,
  "\u2581malbonan": 3396,
  "\u2581patrinon": 3397,
  "\u2581quit": 3398,
  "\u2581sell": 3399,
  "\u2581solvi": 3400,
  "gxu": 3401,
  "\u2581Call": 3402,
  "\u2581Jehu": 3403,
  "\u2581Life": 3404,
  "\u2581Pi": 3405,
  "\u2581amikon": 3406,
  "\u2581angulo": 3407,
  "\u2581connection": 3408,
  "\u2581homamaso": 3409,
  "\u2581kisis": 3410,
  "\u2581labortablo": 3411,
  "\u2581lion": 3412,
  "\u2581suddenly": 3413,
  "antaj": 3414,
  "\u2581Data": 3415,
  "\u2581Iuj": 3416,
  "\u2581Tipo": 3417,
  "\u2581belan": 3418,
  "\u2581grandajn": 3419,
  "\u2581middle": 3420,
  "\u2581natural": 3421,
  "\u2581plane": 3422,
  "\u2581sentences": 3423,
  "\u2581signo": 3424,
  "\u2581\u0108e": 3425,
  "Pro": 3426,
  "\u2581Sunday": 3427,
  "\u2581buried": 3428,
  "\u2581busxon": 3429,
  "\u2581fr": 3430,
  "\u2581kuris": 3431,
  "\u2581stuff": 3432,
  "\u2581\u015dan\u011di\u011dis": 3433,
  "less": 3434,
  "lex": 3435,
  "\u2581Clear": 3436,
  "\u2581Print": 3437,
  "\u2581Status": 3438,
  "\u2581coat": 3439,
  "\u2581dry": 3440,
  "\u2581ekvidis": 3441,
  "\u2581fault": 3442,
  "\u2581konsilon": 3443,
  "\u2581malmulte": 3444,
  "\u2581monton": 3445,
  "\u2581teeth": 3446,
  "\u2581\u015dtelis": 3447,
  "ad": 3448,
  "can": 3449,
  "ity": 3450,
  "\u2581First": 3451,
  "\u2581Mark": 3452,
  "\u2581Sa": 3453,
  "\u2581besto": 3454,
  "\u2581committed": 3455,
  "\u2581kesto": 3456,
  "\u2581knaboj": 3457,
  "\u2581pasigis": 3458,
  "\u2581perish": 3459,
  "\u2581worried": 3460,
  "Z": 3461,
  "bon": 3462,
  "ulino": 3463,
  "\u2581Ro": 3464,
  "\u2581a\u011do": 3465,
  "\u2581bag": 3466,
  "\u2581moving": 3467,
  "\u2581prince": 3468,
  "\u2581\u0109esi": 3469,
  "\u2581Jonathan": 3470,
  "\u2581Listen": 3471,
  "\u2581London": 3472,
  "\u2581estroj": 3473,
  "\u2581grew": 3474,
  "\u2581legxojn": 3475,
  "\u2581lingvojn": 3476,
  "\u2581luno": 3477,
  "\u2581mortigos": 3478,
  "\u2581pleased": 3479,
  "\u2581ride": 3480,
  "\u2581umbrella": 3481,
  "\u2581useful": 3482,
  "\u2581values": 3483,
  "\u2581y": 3484,
  "\u2581beside": 3485,
  "\u2581i\u011di": 3486,
  "\u2581ludon": 3487,
  "\u2581male": 3488,
  "\u2581numero": 3489,
  "\u2581shot": 3490,
  "\u2581sukcesos": 3491,
  "ris": 3492,
  "\u2581Africa": 3493,
  "\u2581Samaria": 3494,
  "\u2581belega": 3495,
  "\u2581ene": 3496,
  "\u2581feast": 3497,
  "\u2581oleo": 3498,
  "\u2581onklo": 3499,
  "\u2581twice": 3500,
  "\u2581valo": 3501,
  "ive": 3502,
  "\u011du": 3503,
  "\u2581CXiuj": 3504,
  "\u2581Di": 3505,
  "\u2581cloud": 3506,
  "\u2581email": 3507,
  "\u2581klarigi": 3508,
  "\u2581telefono": 3509,
  "\u2581theme": 3510,
  "\u2581wickedness": 3511,
  "cia": 3512,
  "ig": 3513,
  "igxas": 3514,
  "mu": 3515,
  "\u2581Current": 3516,
  "\u2581beat": 3517,
  "\u2581blanka": 3518,
  "\u2581fumi": 3519,
  "\u2581wives": 3520,
  "ok": 3521,
  "\u2581A\u016d": 3522,
  "\u2581indeed": 3523,
  "\u2581leaves": 3524,
  "\u2581ordono": 3525,
  "\u2581prenas": 3526,
  "\u2581sonas": 3527,
  "\u2581\u015dajne": 3528,
  "Ili": 3529,
  "idoj": 3530,
  "kaj": 3531,
  "san": 3532,
  "xcuse": 3533,
  "\u258111": 3534,
  "\u25812)": 3535,
  "\u2581Global": 3536,
  "\u2581Manase": 3537,
  "\u2581aspektis": 3538,
  "\u2581bound": 3539,
  "\u2581captivity": 3540,
  "\u2581ekscios": 3541,
  "\u2581elkondukis": 3542,
  "\u2581kondukis": 3543,
  "\u2581\u0109ie": 3544,
  "\u2581inlistbox": 3545,
  "\u2581malpura": 3546,
  "\u2581mal\u015datas": 3547,
  "\u2581plenumis": 3548,
  "\u2581removed": 3549,
  "\u2581suburbs": 3550,
  "\u2581understood": 3551,
  "Behold": 3552,
  "Go": 3553,
  "Kiel": 3554,
  "We": 3555,
  "ry": 3556,
  "\u2581Assyria": 3557,
  "\u2581alte": 3558,
  "\u2581driving": 3559,
  "\u2581klare": 3560,
  "\u2581konata": 3561,
  "\u2581leg": 3562,
  "\u2581nature": 3563,
  "\u2581sxafoj": 3564,
  "\u2581tears": 3565,
  "He": 3566,
  "sek": 3567,
  "\u011dos": 3568,
  "\u2581Eli": 3569,
  "\u2581Shall": 3570,
  "\u2581filinon": 3571,
  "\u2581filmon": 3572,
  "\u2581kom": 3573,
  "\u2581kriis": 3574,
  "\u2581lots": 3575,
  "\u2581opcio": 3576,
  "\u2581scared": 3577,
  "koncerne": 3578,
  "\u2581Inter": 3579,
  "\u2581Tab": 3580,
  "\u2581area": 3581,
  "\u2581cook": 3582,
  "\u2581dan\u011dero": 3583,
  "\u2581donacon": 3584,
  "\u2581enabled": 3585,
  "\u2581interna": 3586,
  "\u2581operation": 3587,
  "\u2581pacon": 3588,
  "\u2581pekis": 3589,
  "\u2581popular": 3590,
  "\u2581spring": 3591,
  "\u2581tasko": 3592,
  "\u2581teaching": 3593,
  "\u2581teamo": 3594,
  "\u2581voja\u011do": 3595,
  "\u2581youth": 3596,
  "Why": 3597,
  "org": 3598,
  "\u2581Banshee": 3599,
  "\u2581ambaux": 3600,
  "\u2581article": 3601,
  "\u2581butonon": 3602,
  "\u2581duan": 3603,
  "\u2581kantojn": 3604,
  "\u2581led": 3605,
  "\u2581neighbor": 3606,
  "\u2581prefere": 3607,
  "\u2581shew": 3608,
  "\u2581trovita": 3609,
  "\u2581viandon": 3610,
  "tojn": 3611,
  "\u00e9": 3612,
  "\u2581ISO": 3613,
  "\u2581LexUriServ": 3614,
  "\u2581Was": 3615,
  "\u2581beast": 3616,
  "\u2581easily": 3617,
  "\u2581innocent": 3618,
  "\u2581kissed": 3619,
  "\u2581konstrui": 3620,
  "\u2581listening": 3621,
  "\u2581ser\u0109i": 3622,
  "\u2581singing": 3623,
  "\u2581television": 3624,
  "\u2581Jonatan": 3625,
  "\u2581Spain": 3626,
  "\u2581Teksto": 3627,
  "\u2581plant": 3628,
  "\u2581purpose": 3629,
  "\u2581sano": 3630,
  "\u2581ulo": 3631,
  "\u2581yea": 3632,
  "\u2581Poste": 3633,
  "\u2581Run": 3634,
  "\u2581appear": 3635,
  "\u2581artisto": 3636,
  "\u2581formo": 3637,
  "\u2581horojn": 3638,
  "\u2581japana": 3639,
  "\u2581jaron": 3640,
  "\u2581required": 3641,
  "\u2581swimming": 3642,
  "\u2581synonym": 3643,
  "\u2581ties": 3644,
  "\u2581travel": 3645,
  "\u2581unknown": 3646,
  "\u2581zorgas": 3647,
  "gan": 3648,
  "ist": 3649,
  "\u25811'": 3650,
  "\u2581Ri": 3651,
  "\u2581Should": 3652,
  "\u2581While": 3653,
  "\u2581beloved": 3654,
  "\u2581bones": 3655,
  "\u2581breath": 3656,
  "\u2581bruo": 3657,
  "\u2581lake": 3658,
  "\u2581partition": 3659,
  "\u2581peoples": 3660,
  "\u2581prayer": 3661,
  "\u2581sounds": 3662,
  "\u2581style": 3663,
  "\u2581valid": 3664,
  "\u2581worship": 3665,
  "ac": 3666,
  "ng": 3667,
  "\u0135on": 3668,
  "\u2581Abner": 3669,
  "\u2581Dr": 3670,
  "\u2581Free": 3671,
  "\u2581argxento": 3672,
  "\u2581bebo": 3673,
  "\u2581contains": 3674,
  "\u2581expect": 3675,
  "\u2581generacio": 3676,
  "\u2581increase": 3677,
  "\u2581konforme": 3678,
  "\u2581loud": 3679,
  "\u2581mateno": 3680,
  "\u2581riches": 3681,
  "\u2581served": 3682,
  "\u2581Agordoj": 3683,
  "\u2581Amen": 3684,
  "\u2581Jim": 3685,
  "\u2581akceptis": 3686,
  "\u2581appeared": 3687,
  "\u2581dio": 3688,
  "\u2581doubt": 3689,
  "\u2581eks": 3690,
  "\u2581freneza": 3691,
  "\u2581happening": 3692,
  "\u2581jxuris": 3693,
  "\u2581laugh": 3694,
  "\u2581memoro": 3695,
  "\u2581parko": 3696,
  "\u2581telephone": 3697,
  "\u2581vespero": 3698,
  "\u25810.": 3699,
  "\u258113": 3700,
  "\u2581Viajn": 3701,
  "\u2581active": 3702,
  "\u2581checked": 3703,
  "\u2581details": 3704,
  "\u2581letero": 3705,
  "\u2581malliberejo": 3706,
  "\u2581pa\u0109jo": 3707,
  "\u2581permesas": 3708,
  "\u2581sendos": 3709,
  "\u2581smote": 3710,
  "\u2581thoughts": 3711,
  "\u2581veras": 3712,
  "\u2581warm": 3713,
  "\u2581Mike": 3714,
  "\u2581Since": 3715,
  "\u2581bono": 3716,
  "\u2581brass": 3717,
  "\u2581entry": 3718,
  "\u2581forgotten": 3719,
  "\u2581manner": 3720,
  "\u2581ploris": 3721,
  "\u2581sinjorino": 3722,
  "sto": 3723,
  "\u2581George": 3724,
  "\u2581Paris": 3725,
  "\u2581akceptas": 3726,
  "\u2581beauty": 3727,
  "\u2581bless": 3728,
  "\u2581hidden": 3729,
  "\u2581instruo": 3730,
  "\u2581plano": 3731,
  "\u2581rilate": 3732,
  "\u2581versio": 3733,
  "They": 3734,
  "cio": 3735,
  "unit": 3736,
  "\u0109o": 3737,
  "\u2581Remember": 3738,
  "\u2581Sub": 3739,
  "\u2581copy": 3740,
  "\u2581dwelt": 3741,
  "\u2581fruktojn": 3742,
  "\u2581giving": 3743,
  "\u2581greater": 3744,
  "\u2581kontroli": 3745,
  "\u2581nomojn": 3746,
  "\u2581prepare": 3747,
  "\u2581vila\u011do": 3748,
  "\u2581\u015datata": 3749,
  "\u2581\u015dategas": 3750,
  "ego": 3751,
  "real": 3752,
  "valoro": 3753,
  "\u2581%1:": 3754,
  "\u2581asking": 3755,
  "\u2581eviti": 3756,
  "\u2581exists": 3757,
  "\u2581expected": 3758,
  "\u2581incense": 3759,
  "\u2581ligno": 3760,
  "\u2581maron": 3761,
  "\u2581normal": 3762,
  "\u2581panjo": 3763,
  "\u2581rekte": 3764,
  "\u2581sanctuary": 3765,
  "\u2581satisfied": 3766,
  "\u2581string": 3767,
  "\u2581throw": 3768,
  "\u2581venigos": 3769,
  "\u2581{1}": 3770,
  "\")": 3771,
  "ana": 3772,
  "sen": 3773,
  "su": 3774,
  "\u2581Bi": 3775,
  "\u2581Center": 3776,
  "\u2581Homoj": 3777,
  "\u2581Music": 3778,
  "\u2581Track": 3779,
  "\u2581alportu": 3780,
  "\u2581axis": 3781,
  "\u2581bega": 3782,
  "\u2581glavon": 3783,
  "\u2581koloron": 3784,
  "\u2581options": 3785,
  "\u2581savo": 3786,
  "\u2581stranger": 3787,
  "\u2581viza\u011do": 3788,
  "adi": 3789,
  "das": 3790,
  "port": 3791,
  "sta": 3792,
  "\u2581*.": 3793,
  "\u2581Like": 3794,
  "\u2581Out": 3795,
  "\u2581Panjo": 3796,
  "\u2581Vere": 3797,
  "\u2581akiris": 3798,
  "\u2581dad": 3799,
  "\u2581deziris": 3800,
  "\u2581diversaj": 3801,
  "\u2581kapti": 3802,
  "\u2581non": 3803,
  "\u2581piedojn": 3804,
  "\u2581sukceso": 3805,
  "\u2581tenis": 3806,
  "\u2581valoras": 3807,
  "For": 3808,
  "dan": 3809,
  "jxo": 3810,
  "\u258140": 3811,
  "\u2581However": 3812,
  "\u2581Invalid": 3813,
  "\u2581Player": 3814,
  "\u2581Someone": 3815,
  "\u2581York": 3816,
  "\u2581danger": 3817,
  "\u2581delete": 3818,
  "\u2581equals": 3819,
  "\u2581established": 3820,
  "\u2581neniel": 3821,
  "\u2581nigra": 3822,
  "\u2581ourselves": 3823,
  "\u2581photos": 3824,
  "\u2581r": 3825,
  "\u2581rifuzis": 3826,
  "\u2581sam": 3827,
  "\u2581simpla": 3828,
  "\u2581spiriton": 3829,
  "\u2581thyself": 3830,
  "\u2581turnis": 3831,
  "time": 3832,
  "\u2581Author": 3833,
  "\u2581Blessed": 3834,
  "\u2581Failed": 3835,
  "\u2581Mu": 3836,
  "\u2581Toolbar": 3837,
  "\u2581act": 3838,
  "\u2581altaron": 3839,
  "\u2581aspekto": 3840,
  "\u2581boat": 3841,
  "\u2581boss": 3842,
  "\u2581doors": 3843,
  "\u2581favor": 3844,
  "\u2581grass": 3845,
  "\u2581igis": 3846,
  "\u2581malsano": 3847,
  "\u2581mortas": 3848,
  "\u2581multan": 3849,
  "\u2581obey": 3850,
  "\u2581planon": 3851,
  "\u2581suferas": 3852,
  "\u2581suffer": 3853,
  "tur": 3854,
  "ya": 3855,
  "\u2581Japanujo": 3856,
  "\u2581forton": 3857,
  "\u2581haltigi": 3858,
  "\u2581hardly": 3859,
  "\u2581million": 3860,
  "\u2581ne\u011do": 3861,
  "\u2581rando": 3862,
  "\u2581rapida": 3863,
  "\u2581smell": 3864,
  "\u2581sufi\u0109as": 3865,
  "\u2581tipo": 3866,
  "\u2581vivanta": 3867,
  "\u2581wilt": 3868,
  "10": 3869,
  "gen": 3870,
  "nkaux": 3871,
  "\u015di": 3872,
  "\u2581Jo": 3873,
  "\u2581Pa\u0109jo": 3874,
  "\u2581ian": 3875,
  "\u2581junuloj": 3876,
  "\u2581konvinki": 3877,
  "\u2581restaurant": 3878,
  "\u2581\u015dlosilon": 3879,
  "How": 3880,
  "dosiero": 3881,
  "\u2581Ask": 3882,
  "\u2581Hear": 3883,
  "\u2581Hide": 3884,
  "\u2581Koloro": 3885,
  "\u2581Okay": 3886,
  "\u2581brutoj": 3887,
  "\u2581experience": 3888,
  "\u2581pasinta": 3889,
  "\u2581pictures": 3890,
  "\u2581raise": 3891,
  "\u2581unit": 3892,
  "\u2581volo": 3893,
  "\u2581weak": 3894,
  "\u2581weeks": 3895,
  "lar": 3896,
  "\u2581Line": 3897,
  "\u2581Necesas": 3898,
  "\u2581Port": 3899,
  "\u2581god": 3900,
  "\u2581kitchen": 3901,
  "\u2581porti": 3902,
  "\u2581vesperman\u011do": 3903,
  "\u2581\u266a": 3904,
  "Kio": 3905,
  "bar": 3906,
  "ntus": 3907,
  "\u2581Background": 3908,
  "\u2581Object": 3909,
  "\u2581Windows": 3910,
  "\u2581chariots": 3911,
  "\u2581ex": 3912,
  "\u2581fini\u011dis": 3913,
  "\u2581join": 3914,
  "\u2581kid": 3915,
  "\u2581sinned": 3916,
  "\u2581sukcesas": 3917,
  "ks": 3918,
  "ram": 3919,
  "\u2581Both": 3920,
  "\u2581Hej": 3921,
  "\u2581armeo": 3922,
  "\u2581bug": 3923,
  "\u2581center": 3924,
  "\u2581content": 3925,
  "\u2581eliras": 3926,
  "\u2581equal": 3927,
  "\u2581komenci": 3928,
  "\u2581queen": 3929,
  "\u2581reach": 3930,
  "\u2581skribite": 3931,
  "\"-": 3932,
  "listo": 3933,
  "matene": 3934,
  "tempe": 3935,
  "\u015do": 3936,
  "\u25811)": 3937,
  "\u2581Absalom": 3938,
  "\u2581Hav": 3939,
  "\u2581Selection": 3940,
  "\u2581a\u016dskultas": 3941,
  "\u2581bow": 3942,
  "\u2581morton": 3943,
  "\u2581servo": 3944,
  "\u2581task": 3945,
  "\u2581tent": 3946,
  "\u2581\u011dustatempe": 3947,
  "om": 3948,
  "\u258114": 3949,
  "\u2581Haman": 3950,
  "\u2581auxskultis": 3951,
  "\u2581birdo": 3952,
  "\u2581brita": 3953,
  "\u2581curse": 3954,
  "\u2581drew": 3955,
  "\u2581event": 3956,
  "\u2581possess": 3957,
  "\u2581re\u011dimo": 3958,
  "\u2581ser\u0109is": 3959,
  "\u2581sklavoj": 3960,
  "\u2581vokas": 3961,
  "ara": 3962,
  "que": 3963,
  "ster": 3964,
  "\u2581(\"": 3965,
  "\u2581Gentiles": 3966,
  "\u2581aplika\u0135o": 3967,
  "\u2581aside": 3968,
  "\u2581bottle": 3969,
  "\u2581cats": 3970,
  "\u2581cool": 3971,
  "\u2581eksciis": 3972,
  "\u2581escaped": 3973,
  "\u2581havus": 3974,
  "\u2581informojn": 3975,
  "\u2581tribes": 3976,
  "\u2581vestoj": 3977,
  "\u2581wake": 3978,
  "\u2581web": 3979,
  "6": 3980,
  "kul": 3981,
  "old": 3982,
  "tro": 3983,
  "\u011de": 3984,
  "\u2581Amazon": 3985,
  "\u2581Day": 3986,
  "\u2581angle": 3987,
  "\u2581demandu": 3988,
  "\u2581flee": 3989,
  "\u2581invited": 3990,
  "\u2581mangxos": 3991,
  "\u2581mark": 3992,
  "\u2581pluvos": 3993,
  "\u2581portion": 3994,
  "\u2581poured": 3995,
  "\u2581su": 3996,
  "by": 3997,
  "iga": 3998,
  "igxu": 3999,
  "pri": 4000,
  "\u015da": 4001,
  "\u2581Kingdom": 4002,
  "\u2581Parizo": 4003,
  "\u2581akcepti": 4004,
  "\u2581avo": 4005,
  "\u2581batis": 4006,
  "\u2581captains": 4007,
  "\u2581cattle": 4008,
  "\u2581dolarojn": 4009,
  "\u2581funny": 4010,
  "\u2581junulo": 4011,
  "\u2581malfermita": 4012,
  "\u2581memori": 4013,
  "\u2581opinio": 4014,
  "\u2581streets": 4015,
  "\u2581varma": 4016,
  "\u2581venonta": 4017,
  "Jes": 4018,
  "fe": 4019,
  "\u0135": 4020,
  "\u2581More": 4021,
  "\u2581agas": 4022,
  "\u2581daily": 4023,
  "\u2581flock": 4024,
  "\u2581healthy": 4025,
  "\u2581kuras": 4026,
  "\u2581likely": 4027,
  "\u2581nomis": 4028,
  "\u2581oreloj": 4029,
  "\u2581uzis": 4030,
  "\u2581uzu": 4031,
  "roj": 4032,
  "\u25813.": 4033,
  "\u2581Amonidoj": 4034,
  "\u2581Iri": 4035,
  "\u2581apart": 4036,
  "\u2581aparte": 4037,
  "\u2581destruction": 4038,
  "\u2581fojojn": 4039,
  "\u2581generations": 4040,
  "\u2581guard": 4041,
  "\u2581historion": 4042,
  "\u2581konstrua\u0135o": 4043,
  "\u2581loving": 4044,
  "\u2581objekto": 4045,
  "\u2581refused": 4046,
  "\u2581sxafojn": 4047,
  "\u2581transdonos": 4048,
  "lojn": 4049,
  "rs": 4050,
  "\u2581Mount": 4051,
  "\u2581Stay": 4052,
  "\u2581ahead": 4053,
  "\u2581aktiva": 4054,
  "\u2581amuza": 4055,
  "\u2581atentu": 4056,
  "\u2581batalo": 4057,
  "\u2581card": 4058,
  "\u2581dokumento": 4059,
  "\u2581efektive": 4060,
  "\u2581fill": 4061,
  "\u2581ge": 4062,
  "\u2581infanon": 4063,
  "\u2581interne": 4064,
  "\u2581man\u011da\u0135o": 4065,
  "\u2581minutojn": 4066,
  "\u2581nervous": 4067,
  "\u2581percent": 4068,
  "\u2581ru\u011da": 4069,
  "\u2581scivolas": 4070,
  "\u2581self": 4071,
  "\u2581solve": 4072,
  "\u2581somebody": 4073,
  "\u2581step": 4074,
  "\u2581straight": 4075,
  "\u2581walls": 4076,
  "ala": 4077,
  "den": 4078,
  "ido": 4079,
  "zon": 4080,
  "\u2581Jeroboam": 4081,
  "\u2581Simple": 4082,
  "\u2581bezonos": 4083,
  "\u2581eggs": 4084,
  "\u2581floroj": 4085,
  "\u2581harojn": 4086,
  "\u2581honest": 4087,
  "\u2581movies": 4088,
  "\u2581problemoj": 4089,
  "\u2581provinces": 4090,
  "\u2581rakonto": 4091,
  "\u2581shop": 4092,
  "\u2581somewhere": 4093,
  "\u2581telefonis": 4094,
  "\u2581triboj": 4095,
  "\u2581z": 4096,
  "\u2581\u015dan\u011dis": 4097,
  "ian": 4098,
  "\u2581Brazil": 4099,
  "\u2581Ekd": 4100,
  "\u2581Eleazar": 4101,
  "\u2581Insert": 4102,
  "\u2581Izraelon": 4103,
  "\u2581Jerobeam": 4104,
  "\u2581Lu": 4105,
  "\u2581aviadilo": 4106,
  "\u2581a\u016dtoro": 4107,
  "\u2581desk": 4108,
  "\u2581helping": 4109,
  "\u2581n": 4110,
  "\u2581plene": 4111,
  "\u2581reto": 4112,
  "\u2581slow": 4113,
  "\u2581software": 4114,
  "\u2581unless": 4115,
  "\u2581\u011cenerala": 4116,
  "Mia": 4117,
  "if": 4118,
  "zer": 4119,
  "\u2581Leave": 4120,
  "\u2581Malfermu": 4121,
  "\u2581Neither": 4122,
  "\u2581Watch": 4123,
  "\u2581afabla": 4124,
  "\u2581arrive": 4125,
  "\u2581based": 4126,
  "\u2581calling": 4127,
  "\u2581gloron": 4128,
  "\u2581idols": 4129,
  "\u2581korto": 4130,
  "\u2581lucky": 4131,
  "\u2581malgrandaj": 4132,
  "\u2581missed": 4133,
  "\u2581mortigu": 4134,
  "\u2581mortinta": 4135,
  "\u2581perfekta": 4136,
  "\u2581planedo": 4137,
  "\u2581postulas": 4138,
  "\u2581responde": 4139,
  "De": 4140,
  "var": 4141,
  "\u011da": 4142,
  "\u2581Bring": 4143,
  "\u2581Latin": 4144,
  "\u2581Switch": 4145,
  "\u2581alie": 4146,
  "\u2581ekkriis": 4147,
  "\u2581eliru": 4148,
  "\u2581eron": 4149,
  "\u2581korpon": 4150,
  "\u2581lar\u011do": 4151,
  "\u2581le": 4152,
  "\u2581malvarma": 4153,
  "\u2581members": 4154,
  "\u2581metos": 4155,
  "\u2581photo": 4156,
  "\u2581pick": 4157,
  "\u2581sercxas": 4158,
  "\u2581sugar": 4159,
  "\u2581unufoje": 4160,
  "\u2581utterly": 4161,
  "\u2581wild": 4162,
  "gra": 4163,
  "\u2581Ar": 4164,
  "\u2581End": 4165,
  "\u2581Were": 4166,
  "\u2581album": 4167,
  "\u2581erarojn": 4168,
  "\u2581kolektis": 4169,
  "\u2581lago": 4170,
  "\u2581lan\u0109i": 4171,
  "\u2581pen": 4172,
  "\u2581plue": 4173,
  "\u2581president": 4174,
  "\u2581raining": 4175,
  "\u2581silence": 4176,
  "\u2581soldiers": 4177,
  "\u2581surhavas": 4178,
  "\u2581'%.25": 4179,
  "\u2581Da": 4180,
  "\u2581IP": 4181,
  "\u2581Location": 4182,
  "\u2581lo\u011dis": 4183,
  "\u2581malsatas": 4184,
  "\u2581mensogis": 4185,
  "\u2581patient": 4186,
  "\u2581seventh": 4187,
  "\u2581square": 4188,
  "\u2581sxtonoj": 4189,
  "\u2581tenas": 4190,
  "\u2581traduki": 4191,
  "ang": 4192,
  "q": 4193,
  "two": 4194,
  "\u2581Bona": 4195,
  "\u2581Londono": 4196,
  "\u2581Tro": 4197,
  "\u2581Write": 4198,
  "\u2581burning": 4199,
  "\u2581dreams": 4200,
  "\u2581faithful": 4201,
  "\u2581installed": 4202,
  "\u2581journey": 4203,
  "\u2581komputilon": 4204,
  "\u2581luck": 4205,
  "\u2581plays": 4206,
  "\u2581regas": 4207,
  "\u2581teni": 4208,
  "\u2581trajnon": 4209,
  "ER": 4210,
  "rio": 4211,
  "\u25812013": 4212,
  "\u2581Dis": 4213,
  "\u2581Password": 4214,
  "\u2581biciklon": 4215,
  "\u2581bonega": 4216,
  "\u2581decide": 4217,
  "\u2581deka": 4218,
  "\u2581eats": 4219,
  "\u2581emas": 4220,
  "\u2581fair": 4221,
  "\u2581france": 4222,
  "\u2581fratojn": 4223,
  "\u2581lernejon": 4224,
  "\u2581naskigis": 4225,
  "\u2581nu": 4226,
  "\u2581plans": 4227,
  "\u2581tool": 4228,
  "\u2581traffic": 4229,
  "\u2581\u015dan\u011dojn": 4230,
  "\u016d": 4231,
  "\u2581Aren": 4232,
  "\u2581Format": 4233,
  "\u2581Jack": 4234,
  "\u2581Samario": 4235,
  "\u2581agoj": 4236,
  "\u2581amaso": 4237,
  "\u2581angels": 4238,
  "\u2581cxielon": 4239,
  "\u2581ideas": 4240,
  "\u2581justice": 4241,
  "\u2581kioma": 4242,
  "\u2581kvina": 4243,
  "\u2581lango": 4244,
  "\u2581malsanulejo": 4245,
  "\u2581meaning": 4246,
  "\u2581reveni": 4247,
  "\u2581row": 4248,
  "\u2581sepdek": 4249,
  "\u2581situas": 4250,
  "\u2581slew": 4251,
  "\u2581teon": 4252,
  "Al": 4253,
  "mer": 4254,
  "mor": 4255,
  "select": 4256,
  "\u2581Ca": 4257,
  "\u2581Morga\u016d": 4258,
  "\u2581Par": 4259,
  "\u2581Russian": 4260,
  "\u2581Source": 4261,
  "\u2581feli\u0109aj": 4262,
  "\u2581lokoj": 4263,
  "\u2581precious": 4264,
  "\u2581religion": 4265,
  "\u2581silent": 4266,
  "Don": 4267,
  "\u2581Also": 4268,
  "\u2581A\u016dskultu": 4269,
  "\u2581arms": 4270,
  "\u2581a\u011das": 4271,
  "\u2581cross": 4272,
  "\u2581dependas": 4273,
  "\u2581drank": 4274,
  "\u2581fought": 4275,
  "\u2581idaro": 4276,
  "\u2581measure": 4277,
  "\u2581newspaper": 4278,
  "\u2581peza": 4279,
  "\u2581thousands": 4280,
  "\u2581vortaro": 4281,
  "ero": 4282,
  "ling": 4283,
  "ot": 4284,
  "\u2581Absxalom": 4285,
  "\u2581Manager": 4286,
  "\u2581Trovi": 4287,
  "\u2581auxdas": 4288,
  "\u2581boyfriend": 4289,
  "\u2581considered": 4290,
  "\u2581domoj": 4291,
  "\u2581instrui": 4292,
  "\u2581kde": 4293,
  "\u2581kvara": 4294,
  "\u2581maldekstra": 4295,
  "\u2581mensogas": 4296,
  "\u2581property": 4297,
  "\u2581storm": 4298,
  "\u2581ventro": 4299,
  "bel": 4300,
  "name": 4301,
  "net": 4302,
  "\u258117": 4303,
  "\u2581Light": 4304,
  "\u2581Quit": 4305,
  "\u2581distri": 4306,
  "\u2581doloras": 4307,
  "\u2581effect": 4308,
  "\u2581florojn": 4309,
  "\u2581imagi": 4310,
  "\u2581method": 4311,
  "\u2581nobody": 4312,
  "\u2581revenu": 4313,
  "\u2581savos": 4314,
  "\u2581sole": 4315,
  "\u2581tag": 4316,
  "\u2581utila": 4317,
  "\u2581Elija": 4318,
  "\u2581Sir": 4319,
  "\u2581apartment": 4320,
  "\u2581exam": 4321,
  "\u2581figure": 4322,
  "\u2581frazon": 4323,
  "\u2581jugxon": 4324,
  "\u2581komando": 4325,
  "\u2581load": 4326,
  "\u2581minister": 4327,
  "\u2581native": 4328,
  "\u2581perdi": 4329,
  "\u2581remained": 4330,
  "\u2581sanktaj": 4331,
  "\u2581shell": 4332,
  "\u2581trankvila": 4333,
  "\u2581types": 4334,
  "\u2581wings": 4335,
  "):": 4336,
  "Co": 4337,
  "red": 4338,
  "res": 4339,
  "\u2581Gi": 4340,
  "\u2581Kate": 4341,
  "\u2581Red": 4342,
  "\u2581Scale": 4343,
  "\u2581Smith": 4344,
  "\u2581adreson": 4345,
  "\u2581corner": 4346,
  "\u2581icon": 4347,
  "\u2581import": 4348,
  "\u2581invitis": 4349,
  "\u2581jealous": 4350,
  "\u2581nunan": 4351,
  "\u2581pagis": 4352,
  "\u2581preter": 4353,
  "\u2581te": 4354,
  "tino": 4355,
  "\u2581About": 4356,
  "\u2581Afriko": 4357,
  "\u2581Dad": 4358,
  "\u2581Fenestro": 4359,
  "\u2581Io": 4360,
  "\u2581Uzu": 4361,
  "\u2581anta\u016da": 4362,
  "\u2581ekzemple": 4363,
  "\u2581fonto": 4364,
  "\u2581greatly": 4365,
  "\u2581joke": 4366,
  "\u2581kulpo": 4367,
  "\u2581lines": 4368,
  "\u2581malfruas": 4369,
  "\u2581malofte": 4370,
  "\u2581nekonata": 4371,
  "\u2581ruler": 4372,
  "\u2581selection": 4373,
  "\u2581shown": 4374,
  "\u2581stacidomo": 4375,
  "If": 4376,
  "kri": 4377,
  "\u2581Chi": 4378,
  "\u2581Configuration": 4379,
  "\u2581India": 4380,
  "\u2581October": 4381,
  "\u2581agu": 4382,
  "\u2581belaj": 4383,
  "\u2581brako": 4384,
  "\u2581elektitan": 4385,
  "\u2581faces": 4386,
  "\u2581famine": 4387,
  "\u2581malbonaj": 4388,
  "\u2581okazi": 4389,
  "\u2581samtempe": 4390,
  "\u2581sanktejo": 4391,
  "\u2581tage": 4392,
  "mas": 4393,
  "par": 4394,
  "\u2581Aldonu": 4395,
  "\u2581Con": 4396,
  "\u2581Control": 4397,
  "\u2581Editor": 4398,
  "\u2581Main": 4399,
  "\u2581Michael": 4400,
  "\u2581Provu": 4401,
  "\u2581commit": 4402,
  "\u2581dirus": 4403,
  "\u2581estonteco": 4404,
  "\u2581lawyer": 4405,
  "\u2581neck": 4406,
  "\u2581original": 4407,
  "\u2581output": 4408,
  "\u2581press": 4409,
  "\u2581progress": 4410,
  "\u2581saints": 4411,
  "\u2581sono": 4412,
  "\u2581viza\u011don": 4413,
  "\u2581Francio": 4414,
  "\u2581Metu": 4415,
  "\u2581Movu": 4416,
  "\u2581Value": 4417,
  "\u2581code": 4418,
  "\u2581declare": 4419,
  "\u2581dekstre": 4420,
  "\u2581feston": 4421,
  "\u2581fields": 4422,
  "\u2581inteligenta": 4423,
  "\u2581malkovris": 4424,
  "\u2581mezo": 4425,
  "\u2581pleasant": 4426,
  "\u2581ree": 4427,
  "\u2581teo": 4428,
  "\u2581tiajn": 4429,
  "\u2581trovigxas": 4430,
  "\u2581universitato": 4431,
  "\u2581vivos": 4432,
  "france": 4433,
  "\u2581Ad": 4434,
  "\u2581Custom": 4435,
  "\u2581Enporti": 4436,
  "\u2581Fakte": 4437,
  "\u2581Fari": 4438,
  "\u2581Sin": 4439,
  "\u2581Voices": 4440,
  "\u2581disappointed": 4441,
  "\u2581elekto": 4442,
  "\u2581etc": 4443,
  "\u2581fe": 4444,
  "\u2581foton": 4445,
  "\u2581imagine": 4446,
  "\u2581pasvorton": 4447,
  "\u2581rate": 4448,
  "\u2581semajnon": 4449,
  "\u2581supported": 4450,
  "\u2581virinon": 4451,
  "\u2581weekend": 4452,
  "\u2581\u015c": 4453,
  "ary": 4454,
  "ismo": 4455,
  "ser": 4456,
  "\u2581%3": 4457,
  "\u2581Ahab": 4458,
  "\u2581Ammon": 4459,
  "\u2581Command": 4460,
  "\u2581Greek": 4461,
  "\u2581Say": 4462,
  "\u2581banko": 4463,
  "\u2581clouds": 4464,
  "\u2581fix": 4465,
  "\u2581forlasi": 4466,
  "\u2581fourth": 4467,
  "\u2581germana": 4468,
  "\u2581koleras": 4469,
  "\u2581kor": 4470,
  "\u2581kreskis": 4471,
  "\u2581mesa\u011doj": 4472,
  "\u2581militistaro": 4473,
  "\u2581planas": 4474,
  "\u2581regnon": 4475,
  "\u2581roof": 4476,
  "\u2581session": 4477,
  "\u2581\u015duojn": 4478,
  "MB": 4479,
  "hu": 4480,
  "iru": 4481,
  "rm": 4482,
  "tajn": 4483,
  "\u2581Document": 4484,
  "\u2581Kompreneble": 4485,
  "\u2581Loko": 4486,
  "\u2581added": 4487,
  "\u2581dan\u011dera": 4488,
  "\u2581donaco": 4489,
  "\u2581eta": 4490,
  "\u2581firstborn": 4491,
  "\u2581interest": 4492,
  "\u2581setting": 4493,
  "\u2581soup": 4494,
  "\u2581swear": 4495,
  "ludo": 4496,
  "ple": 4497,
  "uk": 4498,
  "\u2581Asia": 4499,
  "\u2581Cancel": 4500,
  "\u2581Gu": 4501,
  "\u2581Mak": 4502,
  "\u2581acts": 4503,
  "\u2581amon": 4504,
  "\u2581behavior": 4505,
  "\u2581consumed": 4506,
  "\u2581excellent": 4507,
  "\u2581fidi": 4508,
  "\u2581glasses": 4509,
  "\u2581instruon": 4510,
  "\u2581lasos": 4511,
  "\u2581legs": 4512,
  "\u2581listened": 4513,
  "\u2581malrapide": 4514,
  "\u2581plezuro": 4515,
  "\u2581quick": 4516,
  "\u2581reached": 4517,
  "\u2581rent": 4518,
  "\u2581succeed": 4519,
  "\u2581televidon": 4520,
  "\u2581tenison": 4521,
  "ap": 4522,
  "ham": 4523,
  "\u2581Ahxab": 4524,
  "\u2581Disc": 4525,
  "\u2581Ilia": 4526,
  "\u2581Nebukadnecar": 4527,
  "\u2581Restu": 4528,
  "\u2581Something": 4529,
  "\u2581Width": 4530,
  "\u2581author": 4531,
  "\u2581drop": 4532,
  "\u2581ducent": 4533,
  "\u2581ekrano": 4534,
  "\u2581jugxo": 4535,
  "\u2581log": 4536,
  "\u2581mangxas": 4537,
  "\u2581oka": 4538,
  "\u2581pi": 4539,
  "\u2581salt": 4540,
  "\u2581wallet": 4541,
  "\u2581watched": 4542,
  "\u2581west": 4543,
  "ika": 4544,
  "ine": 4545,
  "lia": 4546,
  "pas": 4547,
  "\u2581Azio": 4548,
  "\u2581Remote": 4549,
  "\u2581cxefoj": 4550,
  "\u2581horlo\u011do": 4551,
  "\u2581huge": 4552,
  "\u2581justecon": 4553,
  "\u2581lakton": 4554,
  "\u2581liston": 4555,
  "\u2581neniom": 4556,
  "\u2581numbers": 4557,
  "\u2581prezidanto": 4558,
  "\u2581provide": 4559,
  "\u2581raportis": 4560,
  "\u2581shadow": 4561,
  "\u2581subtenas": 4562,
  "a\u0135ojn": 4563,
  "\u2581Advanced": 4564,
  "\u2581Other": 4565,
  "\u2581Rain": 4566,
  "\u2581agreed": 4567,
  "\u2581anyway": 4568,
  "\u2581audience": 4569,
  "\u2581distance": 4570,
  "\u2581etendis": 4571,
  "\u2581fin": 4572,
  "\u2581honoro": 4573,
  "\u2581lastaj": 4574,
  "\u2581vision": 4575,
  "\u2581\u0109apelon": 4576,
  "This": 4577,
  "\u2581Benjamen": 4578,
  "\u2581Ci": 4579,
  "\u2581Ji": 4580,
  "\u2581Rename": 4581,
  "\u2581Screen": 4582,
  "\u2581Stato": 4583,
  "\u2581bill": 4584,
  "\u2581devour": 4585,
  "\u2581filter": 4586,
  "\u2581hated": 4587,
  "\u2581informoj": 4588,
  "\u2581knife": 4589,
  "\u2581malfelicxo": 4590,
  "\u2581meal": 4591,
  "\u2581okay": 4592,
  "\u2581science": 4593,
  "\u2581sesdek": 4594,
  "\u2581\u0108iam": 4595,
  "Re": 4596,
  "\u2581Alia": 4597,
  "\u2581Path": 4598,
  "\u2581Tiun": 4599,
  "\u2581aero": 4600,
  "\u2581background": 4601,
  "\u2581birth": 4602,
  "\u2581blame": 4603,
  "\u2581blua": 4604,
  "\u2581dokumenton": 4605,
  "\u2581foolish": 4606,
  "\u2581la\u016dte": 4607,
  "\u2581longan": 4608,
  "\u2581ombro": 4609,
  "\u2581reward": 4610,
  "\u2581stolen": 4611,
  "\u2581temo": 4612,
  "we": 4613,
  "\u2581Vertical": 4614,
  "\u2581West": 4615,
  "\u2581adreso": 4616,
  "\u2581boneco": 4617,
  "\u2581brain": 4618,
  "\u2581context": 4619,
  "\u2581flower": 4620,
  "\u2581further": 4621,
  "\u2581knowing": 4622,
  "\u2581mar": 4623,
  "\u2581nose": 4624,
  "\u2581note": 4625,
  "\u2581remnant": 4626,
  "\u2581sabato": 4627,
  "\u2581sekvi": 4628,
  "\u2581similar": 4629,
  "\u2581spaco": 4630,
  "\u2581sxiaj": 4631,
  "\u2581ta\u016dgas": 4632,
  "\u2581tendaro": 4633,
  "ilon": 4634,
  "ous": 4635,
  "usa": 4636,
  "{1}": 4637,
  "\u2581Alt": 4638,
  "\u2581Ankora\u016d": 4639,
  "\u2581Job": 4640,
  "\u2581Linda": 4641,
  "\u2581dirty": 4642,
  "\u2581ends": 4643,
  "\u2581entire": 4644,
  "\u2581fakto": 4645,
  "\u2581graco": 4646,
  "\u2581handle": 4647,
  "\u2581kelkfoje": 4648,
  "\u2581konsideras": 4649,
  "\u2581man\u011da\u0135on": 4650,
  "\u2581nomoj": 4651,
  "\u2581novel": 4652,
  "\u2581permission": 4653,
  "\u2581possession": 4654,
  "\u2581regxis": 4655,
  "\u2581renkonte": 4656,
  "\u2581sekvas": 4657,
  "\u2581skribita": 4658,
  "\u2581sonon": 4659,
  "\u2581surprise": 4660,
  "\u2581voja\u011di": 4661,
  "Language": 4662,
  "ama": 4663,
  "bla": 4664,
  "\u258125": 4665,
  "\u2581Fo": 4666,
  "\u2581Local": 4667,
  "\u2581Once": 4668,
  "\u2581Pharisees": 4669,
  "\u2581agxon": 4670,
  "\u2581anointed": 4671,
  "\u2581bovoj": 4672,
  "\u2581cars": 4673,
  "\u2581fari\u011di": 4674,
  "\u2581farojn": 4675,
  "\u2581keeps": 4676,
  "\u2581lack": 4677,
  "\u2581movi": 4678,
  "\u2581nombron": 4679,
  "\u2581pardonu": 4680,
  "\u2581pordegoj": 4681,
  "\u2581port": 4682,
  "\u2581posedas": 4683,
  "\u2581rezulto": 4684,
  "\u2581shopping": 4685,
  "\u2581speco": 4686,
  "\u2581vacation": 4687,
  "\u2581worthy": 4688,
  "&": 4689,
  ".'\"": 4690,
  "\u2581Facebook": 4691,
  "\u2581Great": 4692,
  "\u2581High": 4693,
  "\u2581Isaac": 4694,
  "\u2581War": 4695,
  "\u2581a\u016dtomate": 4696,
  "\u2581fenestroj": 4697,
  "\u2581filinojn": 4698,
  "\u2581guilty": 4699,
  "\u2581interface": 4700,
  "\u2581malamikojn": 4701,
  "\u2581militon": 4702,
  "\u2581multekosta": 4703,
  "\u2581notice": 4704,
  "\u2581oron": 4705,
  "\u2581painting": 4706,
  "\u2581remote": 4707,
  "\u2581sanktan": 4708,
  "\u2581smile": 4709,
  "\u2581souls": 4710,
  "\u2581tracks": 4711,
  "Shortcut": 4712,
  "kan": 4713,
  "tik": 4714,
  "ty": 4715,
  "\u2581Brazilo": 4716,
  "\u2581Pasvorto": 4717,
  "\u2581avino": 4718,
  "\u2581dika": 4719,
  "\u2581dressed": 4720,
  "\u2581ilobreto": 4721,
  "\u2581konsistas": 4722,
  "\u2581malbonagoj": 4723,
  "\u2581range": 4724,
  "\u2581reproach": 4725,
  "\u2581servi": 4726,
  "\u2581trinku": 4727,
  "\u2581uri": 4728,
  "\u2581workers": 4729,
  "cal": 4730,
  "ger": 4731,
  "line": 4732,
  "\u2581+": 4733,
  "\u2581Copyright": 4734,
  "\u2581Finfine": 4735,
  "\u2581James": 4736,
  "\u2581Korea": 4737,
  "\u2581Lejla": 4738,
  "\u2581Noun": 4739,
  "\u2581Previous": 4740,
  "\u2581cell": 4741,
  "\u2581custom": 4742,
  "\u2581devil": 4743,
  "\u2581elektu": 4744,
  "\u2581flu": 4745,
  "\u2581kompreneble": 4746,
  "\u2581kovris": 4747,
  "\u2581norda": 4748,
  "\u2581pan": 4749,
  "\u2581pit": 4750,
  "\u2581pretend": 4751,
  "\u2581soldatoj": 4752,
  "\u2581vico": 4753,
  "\u2581~": 4754,
  "\u2581\u0108inio": 4755,
  "ff": 4756,
  "\u2581Fariseoj": 4757,
  "\u2581Long": 4758,
  "\u2581White": 4759,
  "\u2581complete": 4760,
  "\u2581ekstermis": 4761,
  "\u2581familion": 4762,
  "\u2581fermi": 4763,
  "\u2581frame": 4764,
  "\u2581generacioj": 4765,
  "\u2581ha": 4766,
  "\u2581iel": 4767,
  "\u2581ka\u015di": 4768,
  "\u2581license": 4769,
  "\u2581meant": 4770,
  "\u2581meritas": 4771,
  "\u2581revealed": 4772,
  "\u2581social": 4773,
  "\u2581starting": 4774,
  "\u2581suppose": 4775,
  "\u2581translations": 4776,
  "\u2581usona": 4777,
  "EX": 4778,
  "Let": 4779,
  "ccording": 4780,
  "\u2581Auto": 4781,
  "\u2581Log": 4782,
  "\u2581Tempo": 4783,
  "\u2581ball": 4784,
  "\u2581beasts": 4785,
  "\u2581bieron": 4786,
  "\u2581database": 4787,
  "\u2581edge": 4788,
  "\u2581fiaskis": 4789,
  "\u2581firmao": 4790,
  "\u2581haroj": 4791,
  "\u2581kontenta": 4792,
  "\u2581leterujo": 4793,
  "\u2581montru": 4794,
  "\u2581nubo": 4795,
  "\u2581okazo": 4796,
  "\u2581plejagxuloj": 4797,
  "\u2581smart": 4798,
  "\u2581somero": 4799,
  "\u2581studied": 4800,
  "\u2581universe": 4801,
  "\u2581virojn": 4802,
  "Pa": 4803,
  "aci": 4804,
  "umi": 4805,
  "\u2581Jehoshaphat": 4806,
  "\u2581Normal": 4807,
  "\u2581a\u016dskultis": 4808,
  "\u2581calm": 4809,
  "\u2581college": 4810,
  "\u2581di": 4811,
  "\u2581difinita": 4812,
  "\u2581domojn": 4813,
  "\u2581drinks": 4814,
  "\u2581former": 4815,
  "\u2581fratinon": 4816,
  "\u2581honour": 4817,
  "\u2581index": 4818,
  "\u2581koleron": 4819,
  "\u2581komencas": 4820,
  "\u2581laughed": 4821,
  "\u2581lend": 4822,
  "\u2581logxantojn": 4823,
  "\u2581manko": 4824,
  "\u2581mizero": 4825,
  "\u2581naked": 4826,
  "\u2581programon": 4827,
  "\u2581season": 4828,
  "\u2581taste": 4829,
  "\u2581threw": 4830,
  "\u2581tiamaniere": 4831,
  "\u2581vo\u0109o": 4832,
  "\u2581willing": 4833,
  "AR": 4834,
  "Who": 4835,
  "Yes": 4836,
  "flu": 4837,
  "kto": 4838,
  "lin": 4839,
  "link": 4840,
  "op": 4841,
  "\u0109e": 4842,
  "\u2581Children": 4843,
  "\u2581Jehosxafat": 4844,
  "\u2581Pas": 4845,
  "\u2581Toggle": 4846,
  "\u2581agrabla": 4847,
  "\u2581anti": 4848,
  "\u2581demandoj": 4849,
  "\u2581garments": 4850,
  "\u2581hearing": 4851,
  "\u2581lower": 4852,
  "\u2581rakonti": 4853,
  "\u2581ripari": 4854,
  "\u2581torento": 4855,
  "\u2581wedding": 4856,
  "era": 4857,
  "ize": 4858,
  "nde": 4859,
  "tipo": 4860,
  "\u2581Chico": 4861,
  "\u2581Dek": 4862,
  "\u2581Mer": 4863,
  "\u2581Pre": 4864,
  "\u2581Speak": 4865,
  "\u2581biciklo": 4866,
  "\u2581bike": 4867,
  "\u2581bildojn": 4868,
  "\u2581ceteraj": 4869,
  "\u2581cute": 4870,
  "\u2581danci": 4871,
  "\u2581greatest": 4872,
  "\u2581idoloj": 4873,
  "\u2581linen": 4874,
  "\u2581malvarme": 4875,
  "\u2581pereos": 4876,
  "\u2581placxas": 4877,
  "\u2581recently": 4878,
  "\u2581ro": 4879,
  "\u2581sisters": 4880,
  "\u2581stole": 4881,
  "\u2581tablon": 4882,
  "\u2581venki": 4883,
  "\u2581venontan": 4884,
  "\u2581violence": 4885,
  "gl": 4886,
  "sxa": 4887,
  "\u00e1": 4888,
  "\u2581A\u016dtoro": 4889,
  "\u2581Enmeti": 4890,
  "\u2581Fa": 4891,
  "\u2581Hold": 4892,
  "\u2581bridge": 4893,
  "\u2581climb": 4894,
  "\u2581direkto": 4895,
  "\u2581dying": 4896,
  "\u2581frazojn": 4897,
  "\u2581glason": 4898,
  "\u2581guitar": 4899,
  "\u2581havante": 4900,
  "\u2581honesta": 4901,
  "\u2581informo": 4902,
  "\u2581interesi\u011das": 4903,
  "\u2581klarigis": 4904,
  "\u2581pla\u011do": 4905,
  "\u2581reen": 4906,
  "\u2581rivers": 4907,
  "\u2581tower": 4908,
  "\u2581trumpet": 4909,
  "cts": 4910,
  "\u2581200": 4911,
  "\u2581CXi": 4912,
  "\u2581Elijah": 4913,
  "\u2581Fine": 4914,
  "\u2581Ga": 4915,
  "\u2581Marie": 4916,
  "\u2581Sal": 4917,
  "\u2581Sta": 4918,
  "\u2581Though": 4919,
  "\u2581Top": 4920,
  "\u2581Zoom": 4921,
  "\u2581concert": 4922,
  "\u2581desert": 4923,
  "\u2581dolaroj": 4924,
  "\u2581donacojn": 4925,
  "\u2581eminentuloj": 4926,
  "\u2581farigxu": 4927,
  "\u2581kialo": 4928,
  "\u2581kolektigxis": 4929,
  "\u2581komencu": 4930,
  "\u2581mom": 4931,
  "\u2581printer": 4932,
  "\u2581promeson": 4933,
  "\u2581remembered": 4934,
  "\u2581savu": 4935,
  "\u2581sekura": 4936,
  "\u2581slowly": 4937,
  "\u2581spare": 4938,
  "\u2581stories": 4939,
  "\u2581tason": 4940,
  "\u2581tip": 4941,
  "Sinjoro": 4942,
  "administrilo": 4943,
  "por": 4944,
  "tajxo": 4945,
  "\u25811%": 4946,
  "\u2581England": 4947,
  "\u2581Konqueror": 4948,
  "\u2581Syria": 4949,
  "\u2581branches": 4950,
  "\u2581chose": 4951,
  "\u2581clock": 4952,
  "\u2581contents": 4953,
  "\u2581education": 4954,
  "\u2581elekton": 4955,
  "\u2581enami\u011dis": 4956,
  "\u2581eniros": 4957,
  "\u2581flag": 4958,
  "\u2581gajni": 4959,
  "\u2581general": 4960,
  "\u2581konsentis": 4961,
  "\u2581kuirejo": 4962,
  "\u2581kutimis": 4963,
  "\u2581locked": 4964,
  "\u2581maybe": 4965,
  "\u2581menso": 4966,
  "\u2581posedajxo": 4967,
  "\u2581potenca": 4968,
  "\u2581propono": 4969,
  "\u2581role": 4970,
  "\u2581shows": 4971,
  "\u2581villages": 4972,
  "\u2581\u0109arma": 4973,
  "\u2581\u015dlosilo": 4974,
  "50": 4975,
  "ula": 4976,
  "\u2581Ecoj": 4977,
  "\u2581Lan\u0109i": 4978,
  "\u2581Mouse": 4979,
  "\u2581Nevalida": 4980,
  "\u2581Snow": 4981,
  "\u2581Tuj": 4982,
  "\u2581absolute": 4983,
  "\u2581automatically": 4984,
  "\u2581a\u0135ojn": 4985,
  "\u2581diablo": 4986,
  "\u2581ended": 4987,
  "\u2581fidela": 4988,
  "\u2581grandeco": 4989,
  "\u2581hazarde": 4990,
  "\u2581justa": 4991,
  "\u2581kantoj": 4992,
  "\u2581mallonga": 4993,
  "\u2581natura": 4994,
  "\u2581nelonge": 4995,
  "\u2581occurred": 4996,
  "\u2581onto": 4997,
  "\u2581profunde": 4998,
  "\u2581signs": 4999,
  "\u2581\u015diaj": 5000,
  "eo": 5001,
  "estro": 5002,
  "great": 5003,
  "mar": 5004,
  "\u2581*": 5005,
  "\u2581Artist": 5006,
  "\u2581Manka": 5007,
  "\u2581Mother": 5008,
  "\u2581Three": 5009,
  "\u2581Thy": 5010,
  "\u2581absent": 5011,
  "\u2581airport": 5012,
  "\u2581atesto": 5013,
  "\u2581chair": 5014,
  "\u2581clothing": 5015,
  "\u2581discovered": 5016,
  "\u2581enterigis": 5017,
  "\u2581expression": 5018,
  "\u2581happiness": 5019,
  "\u2581kreskas": 5020,
  "\u2581kuri": 5021,
  "\u2581lasas": 5022,
  "\u2581man\u011do": 5023,
  "\u2581man\u011du": 5024,
  "\u2581neighbour": 5025,
  "\u2581ordonon": 5026,
  "\u2581policy": 5027,
  "\u2581sendas": 5028,
  "\u2581solaj": 5029,
  "\u2581stratoj": 5030,
  "\u2581strike": 5031,
  "\u2581tabela": 5032,
  "\u2581valida": 5033,
  "\u2581vesto": 5034,
  "\u2581\u0109esu": 5035,
  "ard": 5036,
  "ban": 5037,
  "econ": 5038,
  "ega": 5039,
  "mis": 5040,
  "pt": 5041,
  "tio": 5042,
  "\u0135ojn": 5043,
  "\u2581Language": 5044,
  "\u2581Note": 5045,
  "\u2581Property": 5046,
  "\u2581Sela": 5047,
  "\u2581Super": 5048,
  "\u2581Te": 5049,
  "\u2581Very": 5050,
  "\u2581agi": 5051,
  "\u2581base": 5052,
  "\u2581bat": 5053,
  "\u2581devices": 5054,
  "\u2581divided": 5055,
  "\u2581eksteren": 5056,
  "\u2581everlasting": 5057,
  "\u2581fulfilled": 5058,
  "\u2581healed": 5059,
  "\u2581kantis": 5060,
  "\u2581la\u016deble": 5061,
  "\u2581leono": 5062,
  "\u2581loka": 5063,
  "\u2581opcioj": 5064,
  "\u2581planning": 5065,
  "\u2581plen": 5066,
  "\u2581ploras": 5067,
  "\u2581proksimulo": 5068,
  "\u2581protect": 5069,
  "\u2581provos": 5070,
  "\u2581restoracio": 5071,
  "\u2581sana": 5072,
  "\u2581simile": 5073,
  "\u2581vendas": 5074,
  "eblas": 5075,
  "ites": 5076,
  "\u2581Download": 5077,
  "\u2581Pablo": 5078,
  "\u2581Position": 5079,
  "\u2581Yesterday": 5080,
  "\u2581bath": 5081,
  "\u2581cursor": 5082,
  "\u2581double": 5083,
  "\u2581flugi": 5084,
  "\u2581hates": 5085,
  "\u2581heat": 5086,
  "\u2581judgments": 5087,
  "\u2581kampon": 5088,
  "\u2581katon": 5089,
  "\u2581le\u011do": 5090,
  "\u2581lights": 5091,
  "\u2581mm": 5092,
  "\u2581net": 5093,
  "\u2581pillars": 5094,
  "\u2581plenumu": 5095,
  "\u2581probable": 5096,
  "\u2581prophesy": 5097,
  "\u2581revo": 5098,
  "\u2581rigardo": 5099,
  "\u2581sorrow": 5100,
  "\u2581taskon": 5101,
  "\u2581v": 5102,
  "\u2581viva": 5103,
  "\u2581yen": 5104,
  "gxas": 5105,
  "\u2581\"%1\"": 5106,
  "\u2581Welcome": 5107,
  "\u2581arto": 5108,
  "\u2581energy": 5109,
  "\u2581fixed": 5110,
  "\u2581force": 5111,
  "\u2581foto": 5112,
  "\u2581higher": 5113,
  "\u2581honey": 5114,
  "\u2581japanan": 5115,
  "\u2581kap": 5116,
  "\u2581malsata": 5117,
  "\u2581numbered": 5118,
  "\u2581playlist": 5119,
  "\u2581pozicio": 5120,
  "\u2581prove": 5121,
  "\u2581rajton": 5122,
  "\u2581regxa": 5123,
  "\u2581requested": 5124,
  "\u2581rid": 5125,
  "\u2581rilatas": 5126,
  "\u2581sanktuloj": 5127,
  "\u2581sum": 5128,
  "\u2581update": 5129,
  "\u2581ver": 5130,
  "\u2581vivu": 5131,
  "\u2581washed": 5132,
  "\u2581wherein": 5133,
  "\u2581wide": 5134,
  ">": 5135,
  "LE": 5136,
  "law": 5137,
  "\u2581$": 5138,
  "\u2581Book": 5139,
  "\u2581Connection": 5140,
  "\u2581Sekva": 5141,
  "\u2581Theme": 5142,
  "\u2581crown": 5143,
  "\u2581da\u016drigi": 5144,
  "\u2581diskon": 5145,
  "\u2581duon": 5146,
  "\u2581golden": 5147,
  "\u2581grown": 5148,
  "\u2581patrodomoj": 5149,
  "\u2581popolojn": 5150,
  "\u2581proponis": 5151,
  "\u2581studis": 5152,
  "\u2581teruro": 5153,
  "eblaj": 5154,
  "fra": 5155,
  "\u011d": 5156,
  "\u015du": 5157,
  "\u258124": 5158,
  "\u2581Gideon": 5159,
  "\u2581Har": 5160,
  "\u2581Isaak": 5161,
  "\u2581Sirio": 5162,
  "\u2581anywhere": 5163,
  "\u2581arrested": 5164,
  "\u2581bonvole": 5165,
  "\u2581borrow": 5166,
  "\u2581burden": 5167,
  "\u2581conversation": 5168,
  "\u2581ekregxi": 5169,
  "\u2581grandfather": 5170,
  "\u2581gun": 5171,
  "\u2581harvest": 5172,
  "\u2581laughing": 5173,
  "\u2581mortu": 5174,
  "\u2581previous": 5175,
  "\u2581ring": 5176,
  "\u2581roko": 5177,
  "\u2581shirt": 5178,
  "\u2581solution": 5179,
  "\u2581venkis": 5180,
  "\u2581\u015duoj": 5181,
  "Applause": 5182,
  "Description": 5183,
  "ab": 5184,
  "ier": 5185,
  "igitaj": 5186,
  "ish": 5187,
  "lik": 5188,
  "pur": 5189,
  "ras": 5190,
  "tic": 5191,
  "\u00a9": 5192,
  "\u2581Germanio": 5193,
  "\u2581allows": 5194,
  "\u2581alto": 5195,
  "\u2581courage": 5196,
  "\u2581cxefpastro": 5197,
  "\u2581earlier": 5198,
  "\u2581finita": 5199,
  "\u2581kantas": 5200,
  "\u2581koncerto": 5201,
  "\u2581mortigita": 5202,
  "\u2581nacianoj": 5203,
  "\u2581na\u016d": 5204,
  "\u2581ordered": 5205,
  "\u2581pity": 5206,
  "\u2581prezo": 5207,
  "\u2581pre\u011dejo": 5208,
  "\u2581ret": 5209,
  "\u2581sciante": 5210,
  "\u2581strangers": 5211,
  "\u2581supreniris": 5212,
  "\u2581taxi": 5213,
  "\u2581touched": 5214,
  "Region": 5215,
  "ble": 5216,
  "koj": 5217,
  "teco": 5218,
  "\u2581(12": 5219,
  "\u2581Canadian": 5220,
  "\u2581Dia": 5221,
  "\u2581Fi": 5222,
  "\u2581Unue": 5223,
  "\u2581agordi": 5224,
  "\u2581ami": 5225,
  "\u2581argument": 5226,
  "\u2581arise": 5227,
  "\u2581bo": 5228,
  "\u2581continually": 5229,
  "\u2581ekdormis": 5230,
  "\u2581feelings": 5231,
  "\u2581fenestrojn": 5232,
  "\u2581interesas": 5233,
  "\u2581maldekstre": 5234,
  "\u2581mirinda": 5235,
  "\u2581population": 5236,
  "\u2581practice": 5237,
  "\u2581regret": 5238,
  "\u2581ri": 5239,
  "\u2581rulers": 5240,
  "\u2581sekvu": 5241,
  "\u2581simply": 5242,
  "\u2581trovigxis": 5243,
  "end": 5244,
  "eno": 5245,
  "les": 5246,
  "ros": 5247,
  "\u2581Car": 5248,
  "\u2581Jesuon": 5249,
  "\u2581License": 5250,
  "\u2581Mom": 5251,
  "\u2581Read": 5252,
  "\u2581Sodom": 5253,
  "\u2581Support": 5254,
  "\u2581abundance": 5255,
  "\u2581attend": 5256,
  "\u2581authority": 5257,
  "\u2581breadth": 5258,
  "\u2581browser": 5259,
  "\u2581certificate": 5260,
  "\u2581edit": 5261,
  "\u2581express": 5262,
  "\u2581faster": 5263,
  "\u2581foriras": 5264,
  "\u2581ju": 5265,
  "\u2581junaj": 5266,
  "\u2581krimo": 5267,
  "\u2581metas": 5268,
  "\u2581numeron": 5269,
  "\u2581opiniis": 5270,
  "\u2581orelojn": 5271,
  "\u2581pekon": 5272,
  "\u2581preferata": 5273,
  "\u2581quality": 5274,
  "\u2581servis": 5275,
  "\u2581transaction": 5276,
  "\u2581turns": 5277,
  "\u2581veki\u011dis": 5278,
  "\u2581veston": 5279,
  "\u2581woke": 5280,
  "\u2581\u0108efa": 5281,
  "ST": 5282,
  "gxa": 5283,
  "\u00fc": 5284,
  "\u0131": 5285,
  "\u2581Archive": 5286,
  "\u2581En\u015dalti": 5287,
  "\u2581Library": 5288,
  "\u2581News": 5289,
  "\u2581Russia": 5290,
  "\u2581bright": 5291,
  "\u2581cxevaloj": 5292,
  "\u2581fermita": 5293,
  "\u2581flughaveno": 5294,
  "\u2581grando": 5295,
  "\u2581guide": 5296,
  "\u2581header": 5297,
  "\u2581kalkuli": 5298,
  "\u2581kondukas": 5299,
  "\u2581kredu": 5300,
  "\u2581kulpas": 5301,
  "\u2581lied": 5302,
  "\u2581observas": 5303,
  "\u2581orienta": 5304,
  "\u2581pride": 5305,
  "\u2581regions": 5306,
  "\u2581testimony": 5307,
  "\u2581verda": 5308,
  "Tio": 5309,
  "che": 5310,
  "iri": 5311,
  "\u2581Account": 5312,
  "\u2581Mac": 5313,
  "\u2581Menu": 5314,
  "\u2581Nebuchadnezzar": 5315,
  "\u2581Sometimes": 5316,
  "\u2581Surely": 5317,
  "\u2581cerbo": 5318,
  "\u2581decidi": 5319,
  "\u2581decido": 5320,
  "\u2581decidon": 5321,
  "\u2581ebria": 5322,
  "\u2581ekzakte": 5323,
  "\u2581elteni": 5324,
  "\u2581eniru": 5325,
  "\u2581ero": 5326,
  "\u2581esperis": 5327,
  "\u2581estante": 5328,
  "\u2581extremely": 5329,
  "\u2581kolera": 5330,
  "\u2581lernantoj": 5331,
  "\u2581normala": 5332,
  "\u2581permesis": 5333,
  "\u2581posedajxon": 5334,
  "\u2581regi": 5335,
  "\u2581risk": 5336,
  "\u2581sacrifices": 5337,
  "\u2581sagxeco": 5338,
  "\u2581sidi": 5339,
  "\u2581suferis": 5340,
  "\u2581teachers": 5341,
  "\u2581thirsty": 5342,
  "\u2581ticket": 5343,
  "\u2581yellow": 5344,
  ".250": 5345,
  "adas": 5346,
  "ful": 5347,
  "ile": 5348,
  "ud": 5349,
  "\u2581Auxskultu": 5350,
  "\u2581Details": 5351,
  "\u2581KMail": 5352,
  "\u2581Mesa\u011do": 5353,
  "\u2581Nov": 5354,
  "\u2581Preview": 5355,
  "\u2581Propra": 5356,
  "\u2581Titolo": 5357,
  "\u2581Tra": 5358,
  "\u2581arangxis": 5359,
  "\u2581auxskultos": 5360,
  "\u2581bowed": 5361,
  "\u2581comfort": 5362,
  "\u2581eternal": 5363,
  "\u2581feared": 5364,
  "\u2581goats": 5365,
  "\u2581konstelaci": 5366,
  "\u2581login": 5367,
  "\u2581malgrandan": 5368,
  "\u2581nuboj": 5369,
  "\u2581obeis": 5370,
  "\u2581purigi": 5371,
  "\u2581remains": 5372,
  "\u2581remind": 5373,
  "\u2581results": 5374,
  "\u2581sekundoj": 5375,
  "\u2581semajnoj": 5376,
  "\u2581separate": 5377,
  "\u2581shoot": 5378,
  "\u2581shower": 5379,
  "\u2581taller": 5380,
  "\u2581tricent": 5381,
  "En": 5382,
  "ila": 5383,
  "\u2581Adam": 5384,
  "\u2581California": 5385,
  "\u2581Infanoj": 5386,
  "\u2581Italy": 5387,
  "\u2581Kyoto": 5388,
  "\u2581Regxo": 5389,
  "\u2581State": 5390,
  "\u2581Sun": 5391,
  "\u2581Woe": 5392,
  "\u2581alporti": 5393,
  "\u2581engine": 5394,
  "\u2581fellow": 5395,
  "\u2581frukto": 5396,
  "\u2581iradis": 5397,
  "\u2581iujn": 5398,
  "\u2581kinds": 5399,
  "\u2581matenon": 5400,
  "\u2581oxen": 5401,
  "\u2581parolo": 5402,
  "\u2581pluraj": 5403,
  "\u2581prayed": 5404,
  "\u2581reiri": 5405,
  "\u2581religio": 5406,
  "\u2581sidigxis": 5407,
  "\u2581staying": 5408,
  "\u2581suda": 5409,
  "\u2581vendejo": 5410,
  "\u2581venkobatis": 5411,
  "\u2581viando": 5412,
  "\u2581vintro": 5413,
  "gxos": 5414,
  "un": 5415,
  "\u2581Disable": 5416,
  "\u2581Love": 5417,
  "\u2581Mario": 5418,
  "\u2581US": 5419,
  "\u2581argxenton": 5420,
  "\u2581belongs": 5421,
  "\u2581brings": 5422,
  "\u2581dankas": 5423,
  "\u2581fieras": 5424,
  "\u2581garment": 5425,
  "\u2581grand": 5426,
  "\u2581heathen": 5427,
  "\u2581malnovan": 5428,
  "\u2581plimulto": 5429,
  "\u2581standard": 5430,
  "\u2581thick": 5431,
  "\u2581tombo": 5432,
  "\u2581unuaj": 5433,
  "\u2581vundita": 5434,
  "cent": 5435,
  "jxojn": 5436,
  "kso": 5437,
  "lum": 5438,
  "tran": 5439,
  "van": 5440,
  "with": 5441,
  "\u00b7": 5442,
  "\u00ed": 5443,
  "\u201f": 5444,
  "\u2581Boaz": 5445,
  "\u2581CA": 5446,
  "\u2581Dato": 5447,
  "\u2581Gibeon": 5448,
  "\u2581MIME": 5449,
  "\u2581Selah": 5450,
  "\u2581Test": 5451,
  "\u2581XML": 5452,
  "\u2581accepted": 5453,
  "\u2581apples": 5454,
  "\u2581batali": 5455,
  "\u2581benis": 5456,
  "\u2581cease": 5457,
  "\u2581crime": 5458,
  "\u2581fifteen": 5459,
  "\u2581gifts": 5460,
  "\u2581hang": 5461,
  "\u2581issue": 5462,
  "\u2581lipoj": 5463,
  "\u2581oktobro": 5464,
  "\u2581pane": 5465,
  "\u2581raporto": 5466,
  "\u2581ruin": 5467,
  "\u2581stiri": 5468,
  "\u2581trakti": 5469,
  "\u2581various": 5470,
  "\u2581whatsoever": 5471,
  "Where": 5472,
  "bro": 5473,
  "goj": 5474,
  "inte": 5475,
  "jon": 5476,
  "vis": 5477,
  "\u2581Down": 5478,
  "\u2581Link": 5479,
  "\u2581Men": 5480,
  "\u2581Normala": 5481,
  "\u2581Whose": 5482,
  "\u2581believes": 5483,
  "\u2581co": 5484,
  "\u2581falas": 5485,
  "\u2581flying": 5486,
  "\u2581goal": 5487,
  "\u2581i\u011das": 5488,
  "\u2581judged": 5489,
  "\u2581loss": 5490,
  "\u2581messengers": 5491,
  "\u2581nivelo": 5492,
  "\u2581prey": 5493,
  "\u2581private": 5494,
  "\u2581scattered": 5495,
  "\u2581telefonon": 5496,
  "\u2581\u0109evalo": 5497,
  "\u2581\u266b": 5498,
  "etoj": 5499,
  "ntan": 5500,
  "tion": 5501,
  "ura": 5502,
  "ville": 5503,
  "\u2581Again": 5504,
  "\u2581Bu": 5505,
  "\u2581East": 5506,
  "\u2581GNOME": 5507,
  "\u2581Mag": 5508,
  "\u2581Ol": 5509,
  "\u2581Zebulun": 5510,
  "\u2581abominations": 5511,
  "\u2581absolutely": 5512,
  "\u2581anstata\u016digi": 5513,
  "\u2581atingos": 5514,
  "\u2581bottom": 5515,
  "\u2581club": 5516,
  "\u2581connect": 5517,
  "\u2581eraroj": 5518,
  "\u2581familiar": 5519,
  "\u2581fermis": 5520,
  "\u2581gotten": 5521,
  "\u2581harder": 5522,
  "\u2581ludu": 5523,
  "\u2581malforta": 5524,
  "\u2581political": 5525,
  "\u2581push": 5526,
  "\u2581rotation": 5527,
  "\u2581sand": 5528,
  "\u2581security": 5529,
  "://": 5530,
  "doj": 5531,
  "ussia": 5532,
  "\u2581Action": 5533,
  "\u2581Application": 5534,
  "\u2581Helpu": 5535,
  "\u2581Niaj": 5536,
  "\u2581True": 5537,
  "\u2581baseball": 5538,
  "\u2581board": 5539,
  "\u2581bon": 5540,
  "\u2581cards": 5541,
  "\u2581enhavo": 5542,
  "\u2581execute": 5543,
  "\u2581install": 5544,
  "\u2581malalta": 5545,
  "\u2581malproksima": 5546,
  "\u2581permesu": 5547,
  "\u2581populara": 5548,
  "\u2581princo": 5549,
  "\u2581princoj": 5550,
  "\u2581sa\u011da": 5551,
  "\u2581sxtono": 5552,
  "\u2581thence": 5553,
  "\u2581vane": 5554,
  "\u2581vanity": 5555,
  "\u2581virinojn": 5556,
  "20": 5557,
  "centro": 5558,
  "gar": 5559,
  "kis": 5560,
  "las": 5561,
  "mulo": 5562,
  "pm": 5563,
  "wa": 5564,
  "\u2581Art": 5565,
  "\u2581GenericName": 5566,
  "\u2581Iam": 5567,
  "\u2581Portuguese": 5568,
  "\u2581Without": 5569,
  "\u2581ability": 5570,
  "\u2581amikino": 5571,
  "\u2581distingi": 5572,
  "\u2581dropped": 5573,
  "\u2581frukton": 5574,
  "\u2581marriage": 5575,
  "\u2581matters": 5576,
  "\u2581module": 5577,
  "\u2581piedo": 5578,
  "\u2581pool": 5579,
  "\u2581regulojn": 5580,
  "\u2581skribu": 5581,
  "\u2581stari": 5582,
  "\u2581steps": 5583,
  "\u2581transiris": 5584,
  "\u2581vazojn": 5585,
  "\u2581vendi": 5586,
  "CXi": 5587,
  "KChar": 5588,
  "ance": 5589,
  "iro": 5590,
  "nicode": 5591,
  "tempa": 5592,
  "tempo": 5593,
  "\u2581CXiu": 5594,
  "\u2581GNU": 5595,
  "\u2581Galilee": 5596,
  "\u2581Nek": 5597,
  "\u2581SXi": 5598,
  "\u2581Word": 5599,
  "\u2581ancient": 5600,
  "\u2581centro": 5601,
  "\u2581dekstren": 5602,
  "\u2581deny": 5603,
  "\u2581eraras": 5604,
  "\u2581esperon": 5605,
  "\u2581germanan": 5606,
  "\u2581island": 5607,
  "\u2581kapablis": 5608,
  "\u2581kialon": 5609,
  "\u2581lum": 5610,
  "\u2581op": 5611,
  "\u2581pa\u011don": 5612,
  "\u2581plenigis": 5613,
  "\u2581plori": 5614,
  "\u2581ponto": 5615,
  "\u2581protokolo": 5616,
  "\u2581race": 5617,
  "\u2581region": 5618,
  "\u2581returne": 5619,
  "\u2581sciigis": 5620,
  "\u2581soccer": 5621,
  "\u2581troubled": 5622,
  "\u2581trovi\u011dis": 5623,
  "\u2581universo": 5624,
  "\u2581uses": 5625,
  "\";": 5626,
  "11": 5627,
  "je": 5628,
  "kt": 5629,
  "ld": 5630,
  "lk": 5631,
  "nokte": 5632,
  "ung": 5633,
  "\u2581Cha": 5634,
  "\u2581EN": 5635,
  "\u2581Hurry": 5636,
  "\u2581Italian": 5637,
  "\u2581Ver\u015dajne": 5638,
  "\u2581[-": 5639,
  "\u2581advised": 5640,
  "\u2581advokato": 5641,
  "\u2581angxeloj": 5642,
  "\u2581appearance": 5643,
  "\u2581applications": 5644,
  "\u2581bele": 5645,
  "\u2581bildoj": 5646,
  "\u2581compare": 5647,
  "\u2581eklezio": 5648,
  "\u2581favoron": 5649,
  "\u2581grandega": 5650,
  "\u2581idiot": 5651,
  "\u2581intend": 5652,
  "\u2581jobs": 5653,
  "\u2581joined": 5654,
  "\u2581kre": 5655,
  "\u2581lazy": 5656,
  "\u2581lo\u011di": 5657,
  "\u2581nome": 5658,
  "\u2581partoj": 5659,
  "\u2581plenumas": 5660,
  "\u2581realize": 5661,
  "\u2581se\u011do": 5662,
  "\u2581signature": 5663,
  "\u2581steal": 5664,
  "\u2581sxtonojn": 5665,
  "\u2581vendis": 5666,
  "\u2581womb": 5667,
  "But": 5668,
  "Is": 5669,
  "laj": 5670,
  "mail": 5671,
  "\u2581Arabic": 5672,
  "\u2581Grandeco": 5673,
  "\u2581Krom": 5674,
  "\u2581Lot": 5675,
  "\u2581Martin": 5676,
  "\u2581Master": 5677,
  "\u2581Mor": 5678,
  "\u2581Nepomuk": 5679,
  "\u2581Opcioj": 5680,
  "\u2581Sit": 5681,
  "\u2581arbon": 5682,
  "\u2581burst": 5683,
  "\u2581carefully": 5684,
  "\u2581clothed": 5685,
  "\u2581dancing": 5686,
  "\u2581dividi": 5687,
  "\u2581download": 5688,
  "\u2581environment": 5689,
  "\u2581freedom": 5690,
  "\u2581grandmother": 5691,
  "\u2581herbo": 5692,
  "\u2581lists": 5693,
  "\u2581observe": 5694,
  "\u2581ordonas": 5695,
  "\u2581personal": 5696,
  "\u2581repeat": 5697,
  "\u2581shape": 5698,
  "\u2581tegmento": 5699,
  "\u2581tendaron": 5700,
  "\u2581tendo": 5701,
  "\u2581welcome": 5702,
  "\u2581zorgi": 5703,
  "eraro": 5704,
  "\u2581Esperanton": 5705,
  "\u2581HXaldeoj": 5706,
  "\u2581Horizontal": 5707,
  "\u2581Ok": 5708,
  "\u2581Replace": 5709,
  "\u2581River": 5710,
  "\u2581Twitter": 5711,
  "\u2581agordon": 5712,
  "\u2581assistant": 5713,
  "\u2581avoid": 5714,
  "\u2581awake": 5715,
  "\u2581bonege": 5716,
  "\u2581characters": 5717,
  "\u2581cookies": 5718,
  "\u2581fa": 5719,
  "\u2581failure": 5720,
  "\u2581forced": 5721,
  "\u2581forsaken": 5722,
  "\u2581fremdulo": 5723,
  "\u2581konto": 5724,
  "\u2581malsupreniris": 5725,
  "\u2581minimum": 5726,
  "\u2581mixed": 5727,
  "\u2581patience": 5728,
  "\u2581ridis": 5729,
  "\u2581rooms": 5730,
  "\u2581seventy": 5731,
  "\u2581severe": 5732,
  "\u2581socio": 5733,
  "\u2581stick": 5734,
  "\u2581utilas": 5735,
  "\u2581vestita": 5736,
  "\u2581wounded": 5737,
  "Come": 5738,
  "Kie": 5739,
  "bal": 5740,
  "ever": 5741,
  "iel": 5742,
  "ili": 5743,
  "jxoj": 5744,
  "momente": 5745,
  "uro": 5746,
  "val": 5747,
  "\u2581300": 5748,
  "\u2581Bonvenon": 5749,
  "\u2581Chaldeans": 5750,
  "\u2581Contact": 5751,
  "\u2581Email": 5752,
  "\u2581Kioto": 5753,
  "\u2581Tia": 5754,
  "\u2581affliction": 5755,
  "\u2581array": 5756,
  "\u2581deziro": 5757,
  "\u2581exalted": 5758,
  "\u2581fo": 5759,
  "\u2581forgesi": 5760,
  "\u2581havanta": 5761,
  "\u2581hired": 5762,
  "\u2581household": 5763,
  "\u2581koramikino": 5764,
  "\u2581kuiri": 5765,
  "\u2581majesto": 5766,
  "\u2581online": 5767,
  "\u2581orelon": 5768,
  "\u2581playback": 5769,
  "\u2581plurajn": 5770,
  "\u2581raporton": 5771,
  "\u2581rejected": 5772,
  "\u2581sang": 5773,
  "\u2581suffered": 5774,
  "\u2581terminal": 5775,
  "\u2581vizitas": 5776,
  "ism": 5777,
  "\u2581Amba\u016d": 5778,
  "\u2581Far": 5779,
  "\u2581Hebron": 5780,
  "\u2581Loading": 5781,
  "\u2581Mrs": 5782,
  "\u2581Photo": 5783,
  "\u2581Rome": 5784,
  "\u2581attack": 5785,
  "\u2581beleco": 5786,
  "\u2581bore": 5787,
  "\u2581chocolate": 5788,
  "\u2581collection": 5789,
  "\u2581cream": 5790,
  "\u2581easier": 5791,
  "\u2581fit": 5792,
  "\u2581foje": 5793,
  "\u2581fremduloj": 5794,
  "\u2581iTunes": 5795,
  "\u2581kaptita": 5796,
  "\u2581ka\u015dis": 5797,
  "\u2581kompare": 5798,
  "\u2581ludliston": 5799,
  "\u2581malpiuloj": 5800,
  "\u2581ostoj": 5801,
  "\u2581polvo": 5802,
  "\u2581proponon": 5803,
  "\u2581refuge": 5804,
  "\u2581shit": 5805,
  "\u2581signojn": 5806,
  "\u2581starigo": 5807,
  "\u2581tenth": 5808,
  "\u2581verkis": 5809,
  "\u2581writer": 5810,
  "\u2581\u0109efo": 5811,
  "amount": 5812,
  "hx": 5813,
  "list": 5814,
  "ski": 5815,
  "soever": 5816,
  "\u2581Fina": 5817,
  "\u2581Kian": 5818,
  "\u2581Layer": 5819,
  "\u2581Obed": 5820,
  "\u2581Table": 5821,
  "\u2581afford": 5822,
  "\u2581aperos": 5823,
  "\u2581cxiutage": 5824,
  "\u2581disc": 5825,
  "\u2581dufoje": 5826,
  "\u2581flight": 5827,
  "\u2581hararon": 5828,
  "\u2581haste": 5829,
  "\u2581horlo\u011don": 5830,
  "\u2581hundoj": 5831,
  "\u2581international": 5832,
  "\u2581juneco": 5833,
  "\u2581mantelon": 5834,
  "\u2581mon": 5835,
  "\u2581nuda": 5836,
  "\u2581pardoni": 5837,
  "\u2581plenumos": 5838,
  "\u2581pour": 5839,
  "\u2581proprajn": 5840,
  "\u2581realized": 5841,
  "\u2581sagxo": 5842,
  "\u2581serioze": 5843,
  "\u2581trinkos": 5844,
  "\u2581truly": 5845,
  "\u2581wealth": 5846,
  "\u2581\u011custe": 5847,
  "eta": 5848,
  "ima": 5849,
  "kor": 5850,
  "ure": 5851,
  "\u25811:": 5852,
  "\u2581Accessible": 5853,
  "\u2581Count": 5854,
  "\u2581Draw": 5855,
  "\u2581El\u015duti": 5856,
  "\u2581Marian": 5857,
  "\u2581Perhaps": 5858,
  "\u2581Playlist": 5859,
  "\u2581Tag": 5860,
  "\u2581Water": 5861,
  "\u2581adorklinigxis": 5862,
  "\u2581alportas": 5863,
  "\u2581bodies": 5864,
  "\u2581continued": 5865,
  "\u2581cooking": 5866,
  "\u2581crowd": 5867,
  "\u2581delight": 5868,
  "\u2581desired": 5869,
  "\u2581detruis": 5870,
  "\u2581dormo": 5871,
  "\u2581duty": 5872,
  "\u2581gradient": 5873,
  "\u2581hospitalo": 5874,
  "\u2581ka\u016dzis": 5875,
  "\u2581kontakti": 5876,
  "\u2581malfermu": 5877,
  "\u2581malvirtuloj": 5878,
  "\u2581momenton": 5879,
  "\u2581papero": 5880,
  "\u2581perform": 5881,
  "\u2581shoulder": 5882,
  "\u2581sore": 5883,
  "\u2581tents": 5884,
  ");": 5885,
  "av": 5886,
  "ito": 5887,
  "ria": 5888,
  "\u2581Abram": 5889,
  "\u2581Bela": 5890,
  "\u2581Lake": 5891,
  "\u2581Printer": 5892,
  "\u2581altaj": 5893,
  "\u2581belong": 5894,
  "\u2581bordo": 5895,
  "\u2581calendar": 5896,
  "\u2581cetera": 5897,
  "\u2581feels": 5898,
  "\u2581i\u011dos": 5899,
  "\u2581levigxas": 5900,
  "\u2581malsanas": 5901,
  "\u2581matematiko": 5902,
  "\u2581murder": 5903,
  "\u2581panelo": 5904,
  "\u2581sabbath": 5905,
  "\u2581scios": 5906,
  "\u2581senti": 5907,
  "\u2581severa": 5908,
  "\u2581shewed": 5909,
  "\u2581sides": 5910,
  "\u2581spektas": 5911,
  "\u2581thief": 5912,
  "\u2581total": 5913,
  "\u2581volume": 5914,
  "\u2581\u0109eestas": 5915,
  "My": 5916,
  "bus": 5917,
  "nton": 5918,
  "object": 5919,
  "\u0109a": 5920,
  "\u2581000": 5921,
  "\u2581African": 5922,
  "\u2581Grupo": 5923,
  "\u2581Height": 5924,
  "\u2581Messages": 5925,
  "\u2581Public": 5926,
  "\u2581Tomorrow": 5927,
  "\u2581Update": 5928,
  "\u2581alvenas": 5929,
  "\u2581animacio": 5930,
  "\u2581a\u0109etas": 5931,
  "\u2581bebon": 5932,
  "\u2581contain": 5933,
  "\u2581credit": 5934,
  "\u2581disease": 5935,
  "\u2581etoso": 5936,
  "\u2581everywhere": 5937,
  "\u2581explained": 5938,
  "\u2581forlasos": 5939,
  "\u2581gepatrojn": 5940,
  "\u2581hi": 5941,
  "\u2581hiding": 5942,
  "\u2581ka": 5943,
  "\u2581kolekti": 5944,
  "\u2581konsilis": 5945,
  "\u2581lud": 5946,
  "\u2581man\u011dos": 5947,
  "\u2581ma\u015dino": 5948,
  "\u2581mess": 5949,
  "\u2581nearly": 5950,
  "\u2581opening": 5951,
  "\u2581plague": 5952,
  "\u2581rod": 5953,
  "\u2581scribes": 5954,
  "\u2581shake": 5955,
  "\u2581sharp": 5956,
  "\u2581sta": 5957,
  "\u2581starigi": 5958,
  "\u2581ta\u016dga": 5959,
  "\u2581trespass": 5960,
  "\u2581vineyard": 5961,
  "\u2581vortaron": 5962,
  "\u2581\u0109eestis": 5963,
  "ai": 5964,
  "ena": 5965,
  "ium": 5966,
  "iv": 5967,
  "kas": 5968,
  "nca": 5969,
  "ny": 5970,
  "ong": 5971,
  "ua": 5972,
  "\u2581Any": 5973,
  "\u2581Friday": 5974,
  "\u2581Importi": 5975,
  "\u2581Session": 5976,
  "\u2581Sort": 5977,
  "\u2581Total": 5978,
  "\u2581URI": 5979,
  "\u2581Vertikala": 5980,
  "\u2581atendos": 5981,
  "\u2581a\u0135oj": 5982,
  "\u2581band": 5983,
  "\u2581blessing": 5984,
  "\u2581celon": 5985,
  "\u2581dare": 5986,
  "\u2581edzinoj": 5987,
  "\u2581enjoyed": 5988,
  "\u2581faro": 5989,
  "\u2581gas": 5990,
  "\u2581goeth": 5991,
  "\u2581governor": 5992,
  "\u2581harm": 5993,
  "\u2581homaj": 5994,
  "\u2581honto": 5995,
  "\u2581interno": 5996,
  "\u2581kompanio": 5997,
  "\u2581lerta": 5998,
  "\u2581lundo": 5999,
  "\u2581pet": 6000,
  "\u2581plenan": 6001,
  "\u2581politiko": 6002,
  "\u2581redoni": 6003,
  "\u2581renkontos": 6004,
  "\u2581rigardon": 6005,
  "\u2581sagxa": 6006,
  "\u2581senkulpa": 6007,
  "\u2581servado": 6008,
  "\u2581specify": 6009,
  "\u2581wept": 6010,
  "\u2581wheat": 6011,
  "\u2581\u015dargi": 6012,
  "000": 6013,
  "com": 6014,
  "fenestro": 6015,
  "hilippines": 6016,
  "lis": 6017,
  "\u2581Akvo": 6018,
  "\u2581A\u016dtomate": 6019,
  "\u2581Br": 6020,
  "\u2581Defa\u016dlta": 6021,
  "\u2581Gilgal": 6022,
  "\u2581Hu": 6023,
  "\u2581Nevertheless": 6024,
  "\u2581Program": 6025,
  "\u2581Sendi": 6026,
  "\u2581a\u016dskultu": 6027,
  "\u2581beg": 6028,
  "\u2581captive": 6029,
  "\u2581diligente": 6030,
  "\u2581editor": 6031,
  "\u2581elektas": 6032,
  "\u2581fare": 6033,
  "\u2581female": 6034,
  "\u2581fumo": 6035,
  "\u2581gravan": 6036,
  "\u2581klara": 6037,
  "\u2581konduton": 6038,
  "\u2581malmultaj": 6039,
  "\u2581monteto": 6040,
  "\u2581onklino": 6041,
  "\u2581pekojn": 6042,
  "\u2581permesi": 6043,
  "\u2581peto": 6044,
  "\u2581plus": 6045,
  "\u2581priskribo": 6046,
  "\u2581profit": 6047,
  "\u2581rakonton": 6048,
  "\u2581servu": 6049,
  "\u2581signifon": 6050,
  "\u2581stream": 6051,
  "\u2581whither": 6052,
  "\u2581\u011denas": 6053,
  "To": 6054,
  "az": 6055,
  "ep": 6056,
  "ps": 6057,
  "stru": 6058,
  "\u258160": 6059,
  "\u2581Aj": 6060,
  "\u2581Beda\u016drinde": 6061,
  "\u2581Benjamenidoj": 6062,
  "\u2581Egyptians": 6063,
  "\u2581Icon": 6064,
  "\u2581Ten": 6065,
  "\u2581abomination": 6066,
  "\u2581altajxoj": 6067,
  "\u2581alvoki": 6068,
  "\u2581batalis": 6069,
  "\u2581cubic": 6070,
  "\u2581divide": 6071,
  "\u2581egalas": 6072,
  "\u2581eltrovi": 6073,
  "\u2581fotojn": 6074,
  "\u2581foundation": 6075,
  "\u2581fresh": 6076,
  "\u2581koloroj": 6077,
  "\u2581krias": 6078,
  "\u2581kvanto": 6079,
  "\u2581mention": 6080,
  "\u2581multo": 6081,
  "\u2581ocean": 6082,
  "\u2581officers": 6083,
  "\u2581posttagmeze": 6084,
  "\u2581pretigis": 6085,
  "\u2581prezentis": 6086,
  "\u2581proposal": 6087,
  "\u2581sekvanta": 6088,
  "\u2581signoj": 6089,
  "\u2581society": 6090,
  "\u2581stretched": 6091,
  "\u2581tertremo": 6092,
  "\u2581truck": 6093,
  "\u2581users": 6094,
  "\u2581vesta\u0135ojn": 6095,
  "\u2581whosoever": 6096,
  "bri": 6097,
  "dek": 6098,
  "kra": 6099,
  "stra": 6100,
  "\u2581Naomi": 6101,
  "\u2581Tema": 6102,
  "\u2581Tiparo": 6103,
  "\u2581Tool": 6104,
  "\u2581amata": 6105,
  "\u2581cxefo": 6106,
  "\u2581denied": 6107,
  "\u2581devenas": 6108,
  "\u2581ebla": 6109,
  "\u2581esprimo": 6110,
  "\u2581fifth": 6111,
  "\u2581fruktoj": 6112,
  "\u2581instali": 6113,
  "\u2581judges": 6114,
  "\u2581keyword": 6115,
  "\u2581levigxos": 6116,
  "\u2581link": 6117,
  "\u2581miles": 6118,
  "\u2581mo": 6119,
  "\u2581noticed": 6120,
  "\u2581pasigi": 6121,
  "\u2581print": 6122,
  "\u2581record": 6123,
  "\u2581scius": 6124,
  "\u2581sees": 6125,
  "\u2581sencon": 6126,
  "\u2581shy": 6127,
  "\u2581speaker": 6128,
  "\u2581supozis": 6129,
  "\u2581tempoj": 6130,
  "\u2581terure": 6131,
  "\u2581trafos": 6132,
  "\u2581widow": 6133,
  "OR": 6134,
  "ida": 6135,
  "oName": 6136,
  "signo": 6137,
  "\u2581Black": 6138,
  "\u2581Brown": 6139,
  "\u2581Dania": 6140,
  "\u2581Helpo": 6141,
  "\u2581Kanto": 6142,
  "\u2581Ontario": 6143,
  "\u2581Return": 6144,
  "\u2581Sam": 6145,
  "\u2581Selected": 6146,
  "\u2581Simeon": 6147,
  "\u2581Tim": 6148,
  "\u2581Valoro": 6149,
  "\u2581aunt": 6150,
  "\u2581aware": 6151,
  "\u2581brave": 6152,
  "\u2581connected": 6153,
  "\u2581doloro": 6154,
  "\u2581entrance": 6155,
  "\u2581fed": 6156,
  "\u2581hole": 6157,
  "\u2581igi": 6158,
  "\u2581kukon": 6159,
  "\u2581kuraciston": 6160,
  "\u2581ku\u015das": 6161,
  "\u2581limit": 6162,
  "\u2581limoj": 6163,
  "\u2581liton": 6164,
  "\u2581malsupre": 6165,
  "\u2581pianon": 6166,
  "\u2581policeman": 6167,
  "\u2581punkto": 6168,
  "\u2581ski": 6169,
  "\u2581stands": 6170,
  "\u2581tiparo": 6171,
  "\u2581trusted": 6172,
  "\u2581voki": 6173,
  "\u2581volos": 6174,
  "dos": 6175,
  "ono": 6176,
  "side": 6177,
  "turo": 6178,
  "umo": 6179,
  "\u2581500": 6180,
  "\u2581Alto": 6181,
  "\u2581Ban\u015dio": 6182,
  "\u2581Beer": 6183,
  "\u2581Davidon": 6184,
  "\u2581Maksimuma": 6185,
  "\u2581Nancy": 6186,
  "\u2581Output": 6187,
  "\u2581Queen": 6188,
  "\u2581Samo": 6189,
  "\u2581Star": 6190,
  "\u2581Thomas": 6191,
  "\u2581atenton": 6192,
  "\u2581auxdinte": 6193,
  "\u2581bigger": 6194,
  "\u2581borders": 6195,
  "\u2581bovojn": 6196,
  "\u2581cxefpastroj": 6197,
  "\u2581diojn": 6198,
  "\u2581energio": 6199,
  "\u2581eniras": 6200,
  "\u2581feli\u0109as": 6201,
  "\u2581homaro": 6202,
  "\u2581injured": 6203,
  "\u2581kamerao": 6204,
  "\u2581kolumno": 6205,
  "\u2581opcion": 6206,
  "\u2581potencon": 6207,
  "\u2581prevent": 6208,
  "\u2581prezenti": 6209,
  "\u2581recognize": 6210,
  "\u2581salajro": 6211,
  "\u2581signon": 6212,
  "\u2581singer": 6213,
  "\u2581skribistoj": 6214,
  "\u2581solvo": 6215,
  "\u2581talks": 6216,
  "\u2581upright": 6217,
  "\u2581vo\u0109on": 6218,
  "\u2581whoever": 6219,
  "\u2581writes": 6220,
  "\u2581{2}": 6221,
  "bat": 6222,
  "ficial": 6223,
  "kar": 6224,
  "rdo": 6225,
  "ring": 6226,
  "uzi": 6227,
  "\u00f6": 6228,
  "\u258180": 6229,
  "\u2581Amoridoj": 6230,
  "\u2581Anta\u016da": 6231,
  "\u2581Egiptujon": 6232,
  "\u2581Over": 6233,
  "\u2581Station": 6234,
  "\u2581anta\u016den": 6235,
  "\u2581attempt": 6236,
  "\u2581boring": 6237,
  "\u2581dorso": 6238,
  "\u2581finos": 6239,
  "\u2581forgesos": 6240,
  "\u2581gardu": 6241,
  "\u2581hundojn": 6242,
  "\u2581int": 6243,
  "\u2581ka\u016dzas": 6244,
  "\u2581levigxu": 6245,
  "\u2581liberigis": 6246,
  "\u2581likewise": 6247,
  "\u2581logxos": 6248,
  "\u2581muzik": 6249,
  "\u2581pereis": 6250,
  "\u2581presilo": 6251,
  "\u2581rice": 6252,
  "\u2581starigu": 6253,
  "\u2581sukceson": 6254,
  "\u2581survoje": 6255,
  "\u2581telefoni": 6256,
  "\u2581valoroj": 6257,
  "\u2581\u0109apo": 6258,
  "\u2581\u011cenerale": 6259,
  "\u2581\u015dlosilojn": 6260,
  "Ma": 6261,
  "ameroon": 6262,
  "bit": 6263,
  "gh": 6264,
  "\u2581Ana": 6265,
  "\u2581Atingebla": 6266,
  "\u2581Komento": 6267,
  "\u2581Plasma": 6268,
  "\u2581Quick": 6269,
  "\u2581TTT": 6270,
  "\u2581amason": 6271,
  "\u2581aperas": 6272,
  "\u2581bitter": 6273,
  "\u2581cel": 6274,
  "\u2581doloron": 6275,
  "\u2581fidon": 6276,
  "\u2581inform": 6277,
  "\u2581instruado": 6278,
  "\u2581instruments": 6279,
  "\u2581kelka": 6280,
  "\u2581legxon": 6281,
  "\u2581maketh": 6282,
  "\u2581maljunulo": 6283,
  "\u2581mal\u011dusta": 6284,
  "\u2581observis": 6285,
  "\u2581oferon": 6286,
  "\u2581ovojn": 6287,
  "\u2581pasintan": 6288,
  "\u2581puno": 6289,
  "\u2581regxado": 6290,
  "\u2581reiris": 6291,
  "\u2581slaughter": 6292,
  "\u2581stronger": 6293,
  "\u2581terms": 6294,
  "\u2581uzo": 6295,
  "\u2581\u0109iumatene": 6296,
  "Kaj": 6297,
  "Ridoj": 6298,
  "Whose": 6299,
  "ani": 6300,
  "fr": 6301,
  "\u258122": 6302,
  "\u2581Balda\u016d": 6303,
  "\u2581CXe": 6304,
  "\u2581Google": 6305,
  "\u2581Pardonon": 6306,
  "\u2581Parolu": 6307,
  "\u2581Radio": 6308,
  "\u2581SSL": 6309,
  "\u2581Tenu": 6310,
  "\u2581Tu": 6311,
  "\u2581amazing": 6312,
  "\u2581answers": 6313,
  "\u2581colors": 6314,
  "\u2581crash": 6315,
  "\u2581dealt": 6316,
  "\u2581delicious": 6317,
  "\u2581element": 6318,
  "\u2581fek": 6319,
  "\u2581fidinda": 6320,
  "\u2581forsake": 6321,
  "\u2581giveth": 6322,
  "\u2581growing": 6323,
  "\u2581hearken": 6324,
  "\u2581heed": 6325,
  "\u2581hills": 6326,
  "\u2581lock": 6327,
  "\u2581maldekstren": 6328,
  "\u2581monatojn": 6329,
  "\u2581najbaro": 6330,
  "\u2581nova\u0135o": 6331,
  "\u2581release": 6332,
  "\u2581respondas": 6333,
  "\u2581roll": 6334,
  "\u2581sablo": 6335,
  "\u2581starts": 6336,
  "\u2581sukcesi": 6337,
  "\u2581supro": 6338,
  "\u2581university": 6339,
  "\u2581vidante": 6340,
  "\u2581volonte": 6341,
  "\u2581weapons": 6342,
  "ant": 6343,
  "bin": 6344,
  "file": 6345,
  "fon": 6346,
  "ren": 6347,
  "tor": 6348,
  "uma": 6349,
  "\u25812000": 6350,
  "\u2581Always": 6351,
  "\u2581Bethel": 6352,
  "\u2581Cidkija": 6353,
  "\u2581Damascus": 6354,
  "\u2581European": 6355,
  "\u2581Gardu": 6356,
  "\u2581Ge": 6357,
  "\u2581Judas": 6358,
  "\u2581Kanado": 6359,
  "\u2581World": 6360,
  "\u2581blow": 6361,
  "\u2581bother": 6362,
  "\u2581buson": 6363,
  "\u2581century": 6364,
  "\u2581direction": 6365,
  "\u2581diversajn": 6366,
  "\u2581ekzistis": 6367,
  "\u2581events": 6368,
  "\u2581fal": 6369,
  "\u2581finger": 6370,
  "\u2581grain": 6371,
  "\u2581kiaj": 6372,
  "\u2581lovely": 6373,
  "\u2581lo\u011dantaro": 6374,
  "\u2581lu": 6375,
  "\u2581medium": 6376,
  "\u2581pres": 6377,
  "\u2581script": 6378,
  "\u2581sekvan": 6379,
  "\u2581sending": 6380,
  "\u2581slay": 6381,
  "\u2581vizitos": 6382,
  "\u2581\u015d": 6383,
  "\u2581\u015duldas": 6384,
  "'!": 6385,
  "...)": 6386,
  "igebla": 6387,
  "nt": 6388,
  "\u2581Eksporti": 6389,
  "\u2581Fe": 6390,
  "\u2581Gaza": 6391,
  "\u2581LA": 6392,
  "\u2581Memory": 6393,
  "\u2581Pordego": 6394,
  "\u2581Really": 6395,
  "\u2581Syrians": 6396,
  "\u2581Version": 6397,
  "\u2581Zedekiah": 6398,
  "\u2581apostles": 6399,
  "\u2581bonvolas": 6400,
  "\u2581bruloferon": 6401,
  "\u2581cheese": 6402,
  "\u2581completed": 6403,
  "\u2581dezirus": 6404,
  "\u2581ebligas": 6405,
  "\u2581evangelio": 6406,
  "\u2581evidente": 6407,
  "\u2581fortaj": 6408,
  "\u2581gain": 6409,
  "\u2581gloros": 6410,
  "\u2581items": 6411,
  "\u2581kalkulas": 6412,
  "\u2581knabon": 6413,
  "\u2581komencos": 6414,
  "\u2581koramiko": 6415,
  "\u2581laboristoj": 6416,
  "\u2581lineara": 6417,
  "\u2581mangxajxon": 6418,
  "\u2581miloj": 6419,
  "\u2581muron": 6420,
  "\u2581opportunity": 6421,
  "\u2581regard": 6422,
  "\u2581scienco": 6423,
  "\u2581site": 6424,
  "\u2581temperature": 6425,
  "\u2581vine": 6426,
  "\u2581whenever": 6427,
  "\u2581worst": 6428,
  "cxar": 6429,
  "hava": 6430,
  "qui": 6431,
  "rigi": 6432,
  "\u2581Babelon": 6433,
  "\u2581Komenca": 6434,
  "\u2581Su": 6435,
  "\u2581baptized": 6436,
  "\u2581buying": 6437,
  "\u2581convinced": 6438,
  "\u2581detaloj": 6439,
  "\u2581displayed": 6440,
  "\u2581falling": 6441,
  "\u2581flocks": 6442,
  "\u2581forigis": 6443,
  "\u2581holiday": 6444,
  "\u2581kisi": 6445,
  "\u2581leterojn": 6446,
  "\u2581listelo": 6447,
  "\u2581ludanto": 6448,
  "\u2581malfeli\u0109a": 6449,
  "\u2581manage": 6450,
  "\u2581milionoj": 6451,
  "\u2581ordinances": 6452,
  "\u2581painted": 6453,
  "\u2581persons": 6454,
  "\u2581pliajn": 6455,
  "\u2581resource": 6456,
  "\u2581respondos": 6457,
  "\u2581runs": 6458,
  "\u2581scion": 6459,
  "\u2581sekve": 6460,
  "\u2581serioza": 6461,
  "\u2581skatolo": 6462,
  "\u2581spektis": 6463,
  "\u2581stultulo": 6464,
  "\u2581suit": 6465,
  "\u2581supra": 6466,
  "\u2581surface": 6467,
  "\u2581tear": 6468,
  "\u2581veturis": 6469,
  "\u2581zono": 6470,
  "Mal": 6471,
  "Pos": 6472,
  "View": 6473,
  "han": 6474,
  "oble": 6475,
  "pozicio": 6476,
  "\u25811\"": 6477,
  "\u2581Before": 6478,
  "\u2581Canaan": 6479,
  "\u2581Green": 6480,
  "\u2581Homo": 6481,
  "\u2581LongName": 6482,
  "\u2581Miss": 6483,
  "\u2581Permesu": 6484,
  "\u2581Web": 6485,
  "\u2581apologize": 6486,
  "\u2581ban": 6487,
  "\u2581bestojn": 6488,
  "\u2581br": 6489,
  "\u2581cancer": 6490,
  "\u2581dirite": 6491,
  "\u2581driven": 6492,
  "\u2581dwelling": 6493,
  "\u2581faint": 6494,
  "\u2581horns": 6495,
  "\u2581include": 6496,
  "\u2581increased": 6497,
  "\u2581larger": 6498,
  "\u2581lavis": 6499,
  "\u2581metodo": 6500,
  "\u2581naturo": 6501,
  "\u2581oath": 6502,
  "\u2581pardonon": 6503,
  "\u2581particular": 6504,
  "\u2581pene": 6505,
  "\u2581pensoj": 6506,
  "\u2581rakontos": 6507,
  "\u2581restore": 6508,
  "\u2581rul": 6509,
  "\u2581suicide": 6510,
  "\u2581supo": 6511,
  "\u2581surhavis": 6512,
  "\u2581technology": 6513,
  "\u2581timi": 6514,
  "\u2581treasures": 6515,
  "\u2581treat": 6516,
  "\u2581turni": 6517,
  "\u2581yoke": 6518,
  "IN": 6519,
  "ahx": 6520,
  "bas": 6521,
  "hxa": 6522,
  "ick": 6523,
  "sessi": 6524,
  "value": 6525,
  "\u2581Albert": 6526,
  "\u2581Enmet": 6527,
  "\u2581Izraelidojn": 6528,
  "\u2581Satano": 6529,
  "\u2581Ti": 6530,
  "\u2581Ven": 6531,
  "\u2581apostoloj": 6532,
  "\u2581bind": 6533,
  "\u2581blinda": 6534,
  "\u2581coast": 6535,
  "\u2581corn": 6536,
  "\u2581danki": 6537,
  "\u2581europ": 6538,
  "\u2581fero": 6539,
  "\u2581instance": 6540,
  "\u2581jarcento": 6541,
  "\u2581kolonoj": 6542,
  "\u2581komenci\u011dis": 6543,
  "\u2581kontakto": 6544,
  "\u2581linioj": 6545,
  "\u2581material": 6546,
  "\u2581necese": 6547,
  "\u2581ox": 6548,
  "\u2581pal": 6549,
  "\u2581penis": 6550,
  "\u2581perfekte": 6551,
  "\u2581promeni": 6552,
  "\u2581pun": 6553,
  "\u2581saving": 6554,
  "\u2581shekels": 6555,
  "\u2581sidanta": 6556,
  "\u2581speciala": 6557,
  "\u2581spekti": 6558,
  "3-": 6559,
  "ID": 6560,
  "ovintus": 6561,
  "set": 6562,
  "tigi": 6563,
  "toro": 6564,
  "voj": 6565,
  "\u2581Angle": 6566,
  "\u2581Disk": 6567,
  "\u2581Elisxa": 6568,
  "\u2581Esther": 6569,
  "\u2581Load": 6570,
  "\u2581Lock": 6571,
  "\u2581Okazis": 6572,
  "\u2581agadis": 6573,
  "\u2581albumo": 6574,
  "\u2581apply": 6575,
  "\u2581archive": 6576,
  "\u2581a\u0109etos": 6577,
  "\u2581declared": 6578,
  "\u2581dentojn": 6579,
  "\u2581documents": 6580,
  "\u2581elektitaj": 6581,
  "\u2581elements": 6582,
  "\u2581facilas": 6583,
  "\u2581fruits": 6584,
  "\u2581humans": 6585,
  "\u2581inherit": 6586,
  "\u2581kutimas": 6587,
  "\u2581lastatempe": 6588,
  "\u2581levi": 6589,
  "\u2581libereco": 6590,
  "\u2581malgra\u016d": 6591,
  "\u2581malsamaj": 6592,
  "\u2581maltrafis": 6593,
  "\u2581member": 6594,
  "\u2581muso": 6595,
  "\u2581okdek": 6596,
  "\u2581otherwise": 6597,
  "\u2581pagos": 6598,
  "\u2581ram": 6599,
  "\u2581refuse": 6600,
  "\u2581seanco": 6601,
  "\u2581shout": 6602,
  "\u2581signed": 6603,
  "\u2581suggest": 6604,
  "\u2581tagman\u011do": 6605,
  "dosierujo": 6606,
  "gxi": 6607,
  "ip": 6608,
  "\u2581Ester": 6609,
  "\u2581Mordecai": 6610,
  "\u2581Sav": 6611,
  "\u2581Seir": 6612,
  "\u2581Van": 6613,
  "\u2581agos": 6614,
  "\u2581antikva": 6615,
  "\u2581atakis": 6616,
  "\u2581becomes": 6617,
  "\u2581clipboard": 6618,
  "\u2581cruel": 6619,
  "\u2581dubas": 6620,
  "\u2581eternan": 6621,
  "\u2581fishing": 6622,
  "\u2581fully": 6623,
  "\u2581guests": 6624,
  "\u2581ka\u016dzo": 6625,
  "\u2581ko": 6626,
  "\u2581komenci\u011das": 6627,
  "\u2581konstante": 6628,
  "\u2581mensogo": 6629,
  "\u2581nazo": 6630,
  "\u2581ora": 6631,
  "\u2581permeson": 6632,
  "\u2581pizza": 6633,
  "\u2581rekonis": 6634,
  "\u2581riveron": 6635,
  "\u2581sendu": 6636,
  "\u2581vidvino": 6637,
  "\u2581viv": 6638,
  "\u2581\u0135etis": 6639,
  "9:": 6640,
  "Apla\u016ddo": 6641,
  "CEL": 6642,
  "ON": 6643,
  "age": 6644,
  "day": 6645,
  "dr": 6646,
  "ev": 6647,
  "ik": 6648,
  "shire": 6649,
  "\u25813200": 6650,
  "\u2581Anstata\u016digi": 6651,
  "\u2581Antaux": 6652,
  "\u2581Clutter": 6653,
  "\u2581Demandu": 6654,
  "\u2581Esau": 6655,
  "\u2581Esav": 6656,
  "\u2581Jericho": 6657,
  "\u2581Mono": 6658,
  "\u2581Satan": 6659,
  "\u2581Servilo": 6660,
  "\u2581Siaj": 6661,
  "\u2581Vojo": 6662,
  "\u2581agordojn": 6663,
  "\u2581auxdos": 6664,
  "\u2581clearly": 6665,
  "\u2581devoured": 6666,
  "\u2581diferenco": 6667,
  "\u2581disko": 6668,
  "\u2581edzi\u011dis": 6669,
  "\u2581establish": 6670,
  "\u2581eur": 6671,
  "\u2581folders": 6672,
  "\u2581kindled": 6673,
  "\u2581kolo": 6674,
  "\u2581konekti": 6675,
  "\u2581lavi": 6676,
  "\u2581manieron": 6677,
  "\u2581market": 6678,
  "\u2581ombrelon": 6679,
  "\u2581partopreni": 6680,
  "\u2581perfectly": 6681,
  "\u2581pregnant": 6682,
  "\u2581pretaj": 6683,
  "\u2581reasons": 6684,
  "\u2581ridetis": 6685,
  "\u2581scale": 6686,
  "\u2581sekreto": 6687,
  "\u2581smite": 6688,
  "\u2581suggested": 6689,
  "\u2581tables": 6690,
  "\u2581target": 6691,
  "\u2581uzante": 6692,
  "\u2581\u015derco": 6693,
  "005": 6694,
  "All": 6695,
  "\\\\\\\\": 6696,
  "bil": 6697,
  "emaj": 6698,
  "ira": 6699,
  "portu": 6700,
  "rum": 6701,
  "yo": 6702,
  "\u0109jo": 6703,
  "\u2581Christian": 6704,
  "\u2581Cut": 6705,
  "\u2581Ijob": 6706,
  "\u2581Kara": 6707,
  "\u2581MD": 6708,
  "\u2581Peppino": 6709,
  "\u2581Permesilo": 6710,
  "\u2581Preferences": 6711,
  "\u2581RAM": 6712,
  "\u2581Saturday": 6713,
  "\u2581Tools": 6714,
  "\u2581atentis": 6715,
  "\u2581butiko": 6716,
  "\u2581butono": 6717,
  "\u2581cheap": 6718,
  "\u2581deaf": 6719,
  "\u2581diro": 6720,
  "\u2581earthquake": 6721,
  "\u2581edzini\u011dis": 6722,
  "\u2581eu": 6723,
  "\u2581firm": 6724,
  "\u2581fuck": 6725,
  "\u2581honoron": 6726,
  "\u2581however": 6727,
  "\u2581ka\u015das": 6728,
  "\u2581klavo": 6729,
  "\u2581komprenos": 6730,
  "\u2581kroma\u0135o": 6731,
  "\u2581largest": 6732,
  "\u2581lignon": 6733,
  "\u2581ludlisto": 6734,
  "\u2581malpravas": 6735,
  "\u2581mendis": 6736,
  "\u2581neighbors": 6737,
  "\u2581nurse": 6738,
  "\u2581pereigi": 6739,
  "\u2581perhaps": 6740,
  "\u2581pomon": 6741,
  "\u2581propraj": 6742,
  "\u2581protekti": 6743,
  "\u2581responsible": 6744,
  "\u2581rigardos": 6745,
  "\u2581ru\u011dan": 6746,
  "\u2581sekreton": 6747,
  "\u2581staff": 6748,
  "\u2581usual": 6749,
  "\u2581\u011denerale": 6750,
  "\u2581\u015dtormo": 6751,
  "eb": 6752,
  "iloj": 6753,
  "into": 6754,
  "istino": 6755,
  "ona": 6756,
  "ov": 6757,
  "ph": 6758,
  "\u2581Album": 6759,
  "\u2581Almighty": 6760,
  "\u2581Americans": 6761,
  "\u2581Ctrl": 6762,
  "\u2581Dosieroj": 6763,
  "\u2581Elisha": 6764,
  "\u2581Esto": 6765,
  "\u2581Full": 6766,
  "\u2581Kar": 6767,
  "\u2581Key": 6768,
  "\u2581Module": 6769,
  "\u2581Og": 6770,
  "\u2581Praise": 6771,
  "\u2581ShortName": 6772,
  "\u2581Sinjorino": 6773,
  "\u2581Tomason": 6774,
  "\u2581Unua": 6775,
  "\u2581blankan": 6776,
  "\u2581bruloferojn": 6777,
  "\u2581chariot": 6778,
  "\u2581confidence": 6779,
  "\u2581constant": 6780,
  "\u2581costs": 6781,
  "\u2581cousin": 6782,
  "\u2581cxaroj": 6783,
  "\u2581decree": 6784,
  "\u2581disabled": 6785,
  "\u2581dominion": 6786,
  "\u2581especially": 6787,
  "\u2581et": 6788,
  "\u2581fired": 6789,
  "\u2581flugas": 6790,
  "\u2581fora": 6791,
  "\u2581games": 6792,
  "\u2581gepatra": 6793,
  "\u2581instalita": 6794,
  "\u2581karnon": 6795,
  "\u2581kastelo": 6796,
  "\u2581kasxis": 6797,
  "\u2581kruela": 6798,
  "\u2581lar\u011da": 6799,
  "\u2581na\u016da": 6800,
  "\u2581nomi": 6801,
  "\u2581oferojn": 6802,
  "\u2581paint": 6803,
  "\u2581pasvorto": 6804,
  "\u2581pecon": 6805,
  "\u2581prava": 6806,
  "\u2581preparis": 6807,
  "\u2581sex": 6808,
  "\u2581stir": 6809,
  "\u2581suffering": 6810,
  "\u2581surprizita": 6811,
  "\u2581symbol": 6812,
  "\u2581tenu": 6813,
  "\u2581upset": 6814,
  "\u2581vote": 6815,
  "\u2581wonders": 6816,
  "\u2581\u0108esi": 6817,
  "\u2581\u011ceneralo": 6818,
  "\u2581\u011duis": 6819,
  "a\u0135": 6820,
  "chi": 6821,
  "ence": 6822,
  "lite": 6823,
  "ret": 6824,
  "\u2581(1": 6825,
  "\u2581A\u016dtomata": 6826,
  "\u2581Ban": 6827,
  "\u2581Devhelp": 6828,
  "\u2581Germanujo": 6829,
  "\u2581Haku": 6830,
  "\u2581Hebrew": 6831,
  "\u2581Kies": 6832,
  "\u2581Maintainer": 6833,
  "\u2581Maximum": 6834,
  "\u2581Santa": 6835,
  "\u2581alportos": 6836,
  "\u2581atenti": 6837,
  "\u2581bu\u015don": 6838,
  "\u2581curious": 6839,
  "\u2581determined": 6840,
  "\u2581dishes": 6841,
  "\u2581eMusic": 6842,
  "\u2581edukado": 6843,
  "\u2581edzon": 6844,
  "\u2581ekhavi": 6845,
  "\u2581enirejo": 6846,
  "\u2581eraris": 6847,
  "\u2581forigos": 6848,
  "\u2581hire": 6849,
  "\u2581identity": 6850,
  "\u2581larmoj": 6851,
  "\u2581malfermas": 6852,
  "\u2581malri\u0109a": 6853,
  "\u2581militistoj": 6854,
  "\u2581pagas": 6855,
  "\u2581parolado": 6856,
  "\u2581paths": 6857,
  "\u2581pluvon": 6858,
  "\u2581pull": 6859,
  "\u2581safety": 6860,
  "\u2581sekureco": 6861,
  "\u2581sooner": 6862,
  "\u2581spirits": 6863,
  "\u2581term": 6864,
  "\u2581virtulo": 6865,
  "\u2581washing": 6866,
  "\u2581\u0109ef": 6867,
  "Help": 6868,
  "Now": 6869,
  "coming": 6870,
  "dio": 6871,
  "gard": 6872,
  "numero": 6873,
  "\u00f8": 6874,
  "\u2581(*.": 6875,
  "\u25815.": 6876,
  "\u2581Automatic": 6877,
  "\u2581Bostonon": 6878,
  "\u2581Column": 6879,
  "\u2581Haltu": 6880,
  "\u2581Home": 6881,
  "\u2581Kristnasko": 6882,
  "\u2581Lingvo": 6883,
  "\u2581Tute": 6884,
  "\u2581admit": 6885,
  "\u2581afflicted": 6886,
  "\u2581alproksimigxis": 6887,
  "\u2581branch": 6888,
  "\u2581despised": 6889,
  "\u2581enhavon": 6890,
  "\u2581eta\u011do": 6891,
  "\u2581exit": 6892,
  "\u2581fighting": 6893,
  "\u2581final": 6894,
  "\u2581keyboard": 6895,
  "\u2581lambs": 6896,
  "\u2581malbeno": 6897,
  "\u2581mirror": 6898,
  "\u2581morta": 6899,
  "\u2581nacio": 6900,
  "\u2581national": 6901,
  "\u2581nura": 6902,
  "\u2581pattern": 6903,
  "\u2581petos": 6904,
  "\u2581preferus": 6905,
  "\u2581publika": 6906,
  "\u2581puto": 6907,
  "\u2581q": 6908,
  "\u2581rapido": 6909,
  "\u2581revidi": 6910,
  "\u2581sercxis": 6911,
  "\u2581textbox": 6912,
  "\u2581trompis": 6913,
  "\u2581venkos": 6914,
  "\u2581warned": 6915,
  "\u2581warning": 6916,
  "\u2581\u0135aluza": 6917,
  "Aldoni": 6918,
  "RE": 6919,
  "kado": 6920,
  "kiel": 6921,
  "tado": 6922,
  "zu": 6923,
  "\u2581Barnabas": 6924,
  "\u2581Chris": 6925,
  "\u2581Class": 6926,
  "\u2581Colors": 6927,
  "\u2581Follow": 6928,
  "\u2581Islands": 6929,
  "\u2581Original": 6930,
  "\u2581Park": 6931,
  "\u2581Pilate": 6932,
  "\u2581Pilato": 6933,
  "\u2581President": 6934,
  "\u2581Ru": 6935,
  "\u2581Sara": 6936,
  "\u2581Shechem": 6937,
  "\u2581Sirianoj": 6938,
  "\u2581Uzanto": 6939,
  "\u2581Za": 6940,
  "\u2581belas": 6941,
  "\u2581bored": 6942,
  "\u2581category": 6943,
  "\u2581classroom": 6944,
  "\u2581coordinate": 6945,
  "\u2581culture": 6946,
  "\u2581defiled": 6947,
  "\u2581dr": 6948,
  "\u2581faranta": 6949,
  "\u2581farante": 6950,
  "\u2581favora": 6951,
  "\u2581flat": 6952,
  "\u2581forgesas": 6953,
  "\u2581forlasu": 6954,
  "\u2581fortan": 6955,
  "\u2581fremdaj": 6956,
  "\u2581groups": 6957,
  "\u2581headache": 6958,
  "\u2581highly": 6959,
  "\u2581horon": 6960,
  "\u2581kingdoms": 6961,
  "\u2581lageto": 6962,
  "\u2581mayest": 6963,
  "\u2581membroj": 6964,
  "\u2581midnight": 6965,
  "\u2581najbaroj": 6966,
  "\u2581naski\u011dtago": 6967,
  "\u2581nuntempe": 6968,
  "\u2581observu": 6969,
  "\u2581paro": 6970,
  "\u2581pordojn": 6971,
  "\u2581prezentas": 6972,
  "\u2581promesas": 6973,
  "\u2581reported": 6974,
  "\u2581rights": 6975,
  "\u2581san": 6976,
  "\u2581sport": 6977,
  "\u2581subskribo": 6978,
  "\u2581veturi": 6979,
  "\u2581vokos": 6980,
  "\u2581woods": 6981,
  "\u2581zoo": 6982,
  "\u2581\u0109esigi": 6983,
  "moj": 6984,
  "ner": 6985,
  "post": 6986,
  "\u258123": 6987,
  "\u2581Aux": 6988,
  "\u2581Bildo": 6989,
  "\u2581Cor": 6990,
  "\u2581Damasko": 6991,
  "\u2581Ekiga": 6992,
  "\u2581Laban": 6993,
  "\u2581Matt": 6994,
  "\u2581Mexico": 6995,
  "\u2581Phil": 6996,
  "\u2581Reuben": 6997,
  "\u2581Template": 6998,
  "\u2581Women": 6999,
  "\u2581amu": 7000,
  "\u2581difficulty": 7001,
  "\u2581entering": 7002,
  "\u2581eroj": 7003,
  "\u2581farigxas": 7004,
  "\u2581farm": 7005,
  "\u2581fiera": 7006,
  "\u2581fluo": 7007,
  "\u2581goodness": 7008,
  "\u2581impressed": 7009,
  "\u2581inner": 7010,
  "\u2581insulo": 7011,
  "\u2581laboroj": 7012,
  "\u2581laws": 7013,
  "\u2581model": 7014,
  "\u2581mult": 7015,
  "\u2581multiple": 7016,
  "\u2581owe": 7017,
  "\u2581pafis": 7018,
  "\u2581palace": 7019,
  "\u2581pregxis": 7020,
  "\u2581repaired": 7021,
  "\u2581require": 7022,
  "\u2581respondu": 7023,
  "\u2581sagxuloj": 7024,
  "\u2581sescent": 7025,
  "\u2581shed": 7026,
  "\u2581signal": 7027,
  "\u2581strando": 7028,
  "\u2581substance": 7029,
  "\u2581sukero": 7030,
  "\u2581tape": 7031,
  "\u2581tendare": 7032,
  "\u2581titolo": 7033,
  "\u2581towns": 7034,
  "\u2581transdoni": 7035,
  "\u2581uzantoj": 7036,
  "\u2581weep": 7037,
  "\u2581\u015cajne": 7038,
  "As": 7039,
  "gxo": 7040,
  "ments": 7041,
  "oka": 7042,
  "test": 7043,
  "\u2581\")": 7044,
  "\u258127": 7045,
  "\u25812:30.": 7046,
  "\u258190": 7047,
  "\u2581Amo": 7048,
  "\u2581Amorites": 7049,
  "\u2581Arise": 7050,
  "\u2581Ekzemple": 7051,
  "\u2581Elam": 7052,
  "\u2581Folders": 7053,
  "\u2581Francujo": 7054,
  "\u2581Ham": 7055,
  "\u2581Install": 7056,
  "\u2581Jones": 7057,
  "\u2581Maro": 7058,
  "\u2581Merari": 7059,
  "\u2581Meta": 7060,
  "\u2581Sendu": 7061,
  "\u2581Subite": 7062,
  "\u2581Wa": 7063,
  "\u2581amato": 7064,
  "\u2581auxskultas": 7065,
  "\u2581devigis": 7066,
  "\u2581discuss": 7067,
  "\u2581examination": 7068,
  "\u2581fadenon": 7069,
  "\u2581fari\u011das": 7070,
  "\u2581fina": 7071,
  "\u2581formed": 7072,
  "\u2581intelligent": 7073,
  "\u2581interpretation": 7074,
  "\u2581knabinon": 7075,
  "\u2581kovras": 7076,
  "\u2581lacas": 7077,
  "\u2581malsagxulo": 7078,
  "\u2581museum": 7079,
  "\u2581oferi": 7080,
  "\u2581picked": 7081,
  "\u2581pressure": 7082,
  "\u2581princess": 7083,
  "\u2581protocol": 7084,
  "\u2581regxino": 7085,
  "\u2581sako": 7086,
  "\u2581talents": 7087,
  "\u2581thrown": 7088,
  "\u2581tran\u0109ilo": 7089,
  "\u2581varme": 7090,
  "\u2581witnesses": 7091,
  "AP": 7092,
  "Levigxu": 7093,
  "antan": 7094,
  "au": 7095,
  "eble": 7096,
  "ix": 7097,
  "kura": 7098,
  "maj": 7099,
  "out": 7100,
  "province": 7101,
  "rus": 7102,
  "sxi": 7103,
  "taro": 7104,
  "www": 7105,
  "\u2581Abimelech": 7106,
  "\u2581Another": 7107,
  "\u2581Elekto": 7108,
  "\u2581Fog": 7109,
  "\u2581Iloj": 7110,
  "\u2581Joram": 7111,
  "\u2581Ka\u015di": 7112,
  "\u2581Lar\u011do": 7113,
  "\u2581Max": 7114,
  "\u2581Pia": 7115,
  "\u2581Plu": 7116,
  "\u2581Report": 7117,
  "\u2581Rezigni": 7118,
  "\u2581Sure": 7119,
  "\u2581Ver": 7120,
  "\u2581agon": 7121,
  "\u2581atestanto": 7122,
  "\u2581conscience": 7123,
  "\u2581drove": 7124,
  "\u2581edzinojn": 7125,
  "\u2581ekscii": 7126,
  "\u2581ekstermi": 7127,
  "\u2581evidence": 7128,
  "\u2581feli\u0109o": 7129,
  "\u2581fond": 7130,
  "\u2581forbruligis": 7131,
  "\u2581fremda": 7132,
  "\u2581friendly": 7133,
  "\u2581interreto": 7134,
  "\u2581lamb": 7135,
  "\u2581latter": 7136,
  "\u2581legxoj": 7137,
  "\u2581minuto": 7138,
  "\u2581mourning": 7139,
  "\u2581nova\u0135ojn": 7140,
  "\u2581nova\u0135on": 7141,
  "\u2581opposite": 7142,
  "\u2581pa": 7143,
  "\u2581pair": 7144,
  "\u2581pa\u011d": 7145,
  "\u2581piede": 7146,
  "\u2581plants": 7147,
  "\u2581plenty": 7148,
  "\u2581po\u015do": 7149,
  "\u2581premis": 7150,
  "\u2581promeso": 7151,
  "\u2581rams": 7152,
  "\u2581regulo": 7153,
  "\u2581robo": 7154,
  "\u2581servas": 7155,
  "\u2581spot": 7156,
  "\u2581ter": 7157,
  "\u2581treasure": 7158,
  "\u2581vessel": 7159,
  "\u2581veturas": 7160,
  "*": 7161,
  "jara\u011da": 7162,
  "nd": 7163,
  "not": 7164,
  "plena": 7165,
  "ptic": 7166,
  "ww": 7167,
  "ye": 7168,
  "\u00e4": 7169,
  "\u011don": 7170,
  "\u2581Alklak": 7171,
  "\u2581Amnon": 7172,
  "\u2581Berlin": 7173,
  "\u2581Ezra": 7174,
  "\u2581Kir": 7175,
  "\u2581Konservu": 7176,
  "\u2581Marki": 7177,
  "\u2581Mars": 7178,
  "\u2581Presi": 7179,
  "\u2581Sha": 7180,
  "\u2581Sign": 7181,
  "\u2581Software": 7182,
  "\u2581Trans": 7183,
  "\u2581Va": 7184,
  "\u2581Yea": 7185,
  "\u2581altars": 7186,
  "\u2581anta\u016dan": 7187,
  "\u2581bell": 7188,
  "\u2581biero": 7189,
  "\u2581brulofero": 7190,
  "\u2581clever": 7191,
  "\u2581consume": 7192,
  "\u2581detalojn": 7193,
  "\u2581distribution": 7194,
  "\u2581encoding": 7195,
  "\u2581etendita": 7196,
  "\u2581eventually": 7197,
  "\u2581finon": 7198,
  "\u2581fi\u015do": 7199,
  "\u2581gentleman": 7200,
  "\u2581global": 7201,
  "\u2581gospel": 7202,
  "\u2581hxorestro": 7203,
  "\u2581ideojn": 7204,
  "\u2581katojn": 7205,
  "\u2581kiamaniere": 7206,
  "\u2581kolektos": 7207,
  "\u2581konton": 7208,
  "\u2581konvenas": 7209,
  "\u2581lands": 7210,
  "\u2581modulo": 7211,
  "\u2581mu": 7212,
  "\u2581nervoza": 7213,
  "\u2581oriente": 7214,
  "\u2581pages": 7215,
  "\u2581pereo": 7216,
  "\u2581phrase": 7217,
  "\u2581planted": 7218,
  "\u2581pocket": 7219,
  "\u2581prezidento": 7220,
  "\u2581published": 7221,
  "\u2581rare": 7222,
  "\u2581rezigni": 7223,
  "\u2581rising": 7224,
  "\u2581specific": 7225,
  "\u2581totally": 7226,
  "\u2581trovu": 7227,
  "\u2581tu\u015du": 7228,
  "\u2581wound": 7229,
  "30": 7230,
  "eca": 7231,
  "enda": 7232,
  "etojn": 7233,
  "ez": 7234,
  "lav": 7235,
  "\u2581(0": 7236,
  "\u25812007": 7237,
  "\u2581Egiptoj": 7238,
  "\u2581Fear": 7239,
  "\u2581Ghost": 7240,
  "\u2581Island": 7241,
  "\u2581Jerihxo": 7242,
  "\u2581Paste": 7243,
  "\u2581Reload": 7244,
  "\u2581Silentu": 7245,
  "\u2581atestantoj": 7246,
  "\u2581brakon": 7247,
  "\u2581compassion": 7248,
  "\u2581corrupt": 7249,
  "\u2581diamonds": 7250,
  "\u2581dpi": 7251,
  "\u2581drawn": 7252,
  "\u2581effects": 7253,
  "\u2581enliti\u011di": 7254,
  "\u2581faritaj": 7255,
  "\u2581fonts": 7256,
  "\u2581grandas": 7257,
  "\u2581horsemen": 7258,
  "\u2581hurts": 7259,
  "\u2581including": 7260,
  "\u2581instruistoj": 7261,
  "\u2581kinejo": 7262,
  "\u2581konscias": 7263,
  "\u2581kvincent": 7264,
  "\u2581malbon": 7265,
  "\u2581matenman\u011do": 7266,
  "\u2581math": 7267,
  "\u2581measured": 7268,
  "\u2581measures": 7269,
  "\u2581nutra\u0135o": 7270,
  "\u2581objects": 7271,
  "\u2581oleon": 7272,
  "\u2581partoprenis": 7273,
  "\u2581pencil": 7274,
  "\u2581profile": 7275,
  "\u2581rapidu": 7276,
  "\u2581relationship": 7277,
  "\u2581robon": 7278,
  "\u2581sekvos": 7279,
  "\u2581seriously": 7280,
  "\u2581sixth": 7281,
  "\u2581sperto": 7282,
  "\u2581sports": 7283,
  "\u2581stuck": 7284,
  "\u2581successful": 7285,
  "\u2581tombon": 7286,
  "\u2581turning": 7287,
  "\u2581varmega": 7288,
  "\u2581virtuloj": 7289,
  "\u2581\u0109ina": 7290,
  "\u2581\u011c": 7291,
  "five": 7292,
  "flanke": 7293,
  "iris": 7294,
  "jName": 7295,
  "meti": 7296,
  "ntojn": 7297,
  "\u2581150": 7298,
  "\u2581AB": 7299,
  "\u2581Apply": 7300,
  "\u2581Browse": 7301,
  "\u2581Fini": 7302,
  "\u2581Galileo": 7303,
  "\u2581Jackson": 7304,
  "\u2581Josiah": 7305,
  "\u2581Josxija": 7306,
  "\u2581Ki": 7307,
  "\u2581Memoru": 7308,
  "\u2581Nation": 7309,
  "\u2581Press": 7310,
  "\u2581Sabbath": 7311,
  "\u2581Terminal": 7312,
  "\u2581Tiro": 7313,
  "\u2581Tony": 7314,
  "\u2581Whoever": 7315,
  "\u2581accused": 7316,
  "\u2581advantage": 7317,
  "\u2581artistoj": 7318,
  "\u2581atingas": 7319,
  "\u2581badly": 7320,
  "\u2581bringing": 7321,
  "\u2581chat": 7322,
  "\u2581clubs": 7323,
  "\u2581community": 7324,
  "\u2581configure": 7325,
  "\u2581dauxro": 7326,
  "\u2581da\u016dris": 7327,
  "\u2581depend": 7328,
  "\u2581despise": 7329,
  "\u2581diferencon": 7330,
  "\u2581enporti": 7331,
  "\u2581finding": 7332,
  "\u2581hispana": 7333,
  "\u2581ilo": 7334,
  "\u2581improve": 7335,
  "\u2581kredos": 7336,
  "\u2581ludata": 7337,
  "\u2581mankis": 7338,
  "\u2581ofero": 7339,
  "\u2581pasxtistoj": 7340,
  "\u2581prepari": 7341,
  "\u2581redaktilo": 7342,
  "\u2581regis": 7343,
  "\u2581scribe": 7344,
  "\u2581ships": 7345,
  "\u2581smiled": 7346,
  "\u2581torrent": 7347,
  "\u2581voja\u011dis": 7348,
  "\u2581wears": 7349,
  "\u2581wore": 7350,
  "\u2581\u015cablonaro": 7351,
  "':": 7352,
  "ali": 7353,
  "ato": 7354,
  "ica": 7355,
  "igon": 7356,
  "jare": 7357,
  "unu": 7358,
  "\u015dt": 7359,
  "\u2581Alinomi": 7360,
  "\u2581Back": 7361,
  "\u2581Continue": 7362,
  "\u2581Force": 7363,
  "\u2581Kelkfoje": 7364,
  "\u2581Kontrolu": 7365,
  "\u2581Psalmo": 7366,
  "\u2581Richard": 7367,
  "\u2581Rock": 7368,
  "\u2581akceptos": 7369,
  "\u2581aparta": 7370,
  "\u2581brancxoj": 7371,
  "\u2581bullock": 7372,
  "\u2581desolation": 7373,
  "\u2581gravaj": 7374,
  "\u2581hundreds": 7375,
  "\u2581ignori": 7376,
  "\u2581intenco": 7377,
  "\u2581konsilo": 7378,
  "\u2581konstruos": 7379,
  "\u2581lan\u0109o": 7380,
  "\u2581miraklojn": 7381,
  "\u2581modern": 7382,
  "\u2581plenaj": 7383,
  "\u2581plugins": 7384,
  "\u2581profesoro": 7385,
  "\u2581reguloj": 7386,
  "\u2581revenas": 7387,
  "\u2581seka": 7388,
  "\u2581senditaj": 7389,
  "\u2581senditojn": 7390,
  "\u2581shield": 7391,
  "\u2581sleepy": 7392,
  "\u2581son\u011do": 7393,
  "\u2581sorto": 7394,
  "\u2581switch": 7395,
  "\u2581teaches": 7396,
  "\u2581templon": 7397,
  "\u2581\u0108": 7398,
  "\u2581\u0109irka\u016da\u0135o": 7399,
  "ajxo": 7400,
  "cion": 7401,
  "ejon": 7402,
  "stro": 7403,
  "uz": 7404,
  "vas": 7405,
  "\u2581April": 7406,
  "\u2581Bashan": 7407,
  "\u2581Bookmark": 7408,
  "\u2581British": 7409,
  "\u2581Cadok": 7410,
  "\u2581Fermu": 7411,
  "\u2581Jesaja": 7412,
  "\u2581Kur": 7413,
  "\u2581Mordehxaj": 7414,
  "\u2581Re\u011do": 7415,
  "\u2581Romo": 7416,
  "\u2581Service": 7417,
  "\u2581Sing": 7418,
  "\u2581Tamar": 7419,
  "\u2581Zadok": 7420,
  "\u2581actions": 7421,
  "\u2581alveno": 7422,
  "\u2581butter": 7423,
  "\u2581denaska": 7424,
  "\u2581deserve": 7425,
  "\u2581diskuti": 7426,
  "\u2581estonta": 7427,
  "\u2581faradi": 7428,
  "\u2581flankoj": 7429,
  "\u2581focus": 7430,
  "\u2581folioj": 7431,
  "\u2581insuloj": 7432,
  "\u2581kolektas": 7433,
  "\u2581konfesis": 7434,
  "\u2581kreita": 7435,
  "\u2581labour": 7436,
  "\u2581lions": 7437,
  "\u2581malvirtulo": 7438,
  "\u2581menuo": 7439,
  "\u2581miris": 7440,
  "\u2581naskita": 7441,
  "\u2581ordonoj": 7442,
  "\u2581partojn": 7443,
  "\u2581prunti": 7444,
  "\u2581redeemed": 7445,
  "\u2581requires": 7446,
  "\u2581ricevu": 7447,
  "\u2581sanctified": 7448,
  "\u2581servisto": 7449,
  "\u2581shepherd": 7450,
  "\u2581solvon": 7451,
  "\u2581states": 7452,
  "\u2581straton": 7453,
  "\u2581subtenata": 7454,
  "\u2581sudo": 7455,
  "\u2581tastes": 7456,
  "\u2581testify": 7457,
  "\u2581unuenaskito": 7458,
  "\u2581veran": 7459,
  "blo": 7460,
  "dosieron": 7461,
  "emo": 7462,
  "ige": 7463,
  "pil": 7464,
  "sistemo": 7465,
  "\u2581(%2)": 7466,
  "\u2581Being": 7467,
  "\u2581Big": 7468,
  "\u2581Cal": 7469,
  "\u2581Developer": 7470,
  "\u2581Happy": 7471,
  "\u2581Initial": 7472,
  "\u2581Interreto": 7473,
  "\u2581Kontroli": 7474,
  "\u2581Kor": 7475,
  "\u2581Kreinto": 7476,
  "\u2581Laux": 7477,
  "\u2581Rio": 7478,
  "\u2581Undo": 7479,
  "\u2581altan": 7480,
  "\u2581avertis": 7481,
  "\u2581blank": 7482,
  "\u2581bomb": 7483,
  "\u2581counted": 7484,
  "\u2581da\u016dros": 7485,
  "\u2581defined": 7486,
  "\u2581definitely": 7487,
  "\u2581dentoj": 7488,
  "\u2581duonon": 7489,
  "\u2581executed": 7490,
  "\u2581fidis": 7491,
  "\u2581floro": 7492,
  "\u2581foreigner": 7493,
  "\u2581greet": 7494,
  "\u2581gxusta": 7495,
  "\u2581hejmtaskojn": 7496,
  "\u2581hero": 7497,
  "\u2581instruistino": 7498,
  "\u2581koncernas": 7499,
  "\u2581lernu": 7500,
  "\u2581nevalida": 7501,
  "\u2581owner": 7502,
  "\u2581rains": 7503,
  "\u2581research": 7504,
  "\u2581rompita": 7505,
  "\u2581section": 7506,
  "\u2581sixty": 7507,
  "\u2581temporary": 7508,
  "\u2581trumpeto": 7509,
  "\u2581turo": 7510,
  "\u2581ununura": 7511,
  "\u2581van": 7512,
  "\u2581venko": 7513,
  "\u2581vidinte": 7514,
  "\u2581zero": 7515,
  "\u2581\u011denerala": 7516,
  "\u2581\u015dan\u011do": 7517,
  "In": 7518,
  "Venu": 7519,
  "mento": 7520,
  "oni": 7521,
  "vojo": 7522,
  "\u2581Ber": 7523,
  "\u2581Dreverhaven": 7524,
  "\u2581Eat": 7525,
  "\u2581Foriru": 7526,
  "\u2581Howl": 7527,
  "\u2581Jehojada": 7528,
  "\u2581Mail": 7529,
  "\u2581Rehxabeam": 7530,
  "\u2581Script": 7531,
  "\u2581amuze": 7532,
  "\u2581atente": 7533,
  "\u2581cells": 7534,
  "\u2581certigi": 7535,
  "\u2581childhood": 7536,
  "\u2581creation": 7537,
  "\u2581cxirkauxajxojn": 7538,
  "\u2581datumojn": 7539,
  "\u2581decidojn": 7540,
  "\u2581dig": 7541,
  "\u2581dungis": 7542,
  "\u2581elektos": 7543,
  "\u2581excited": 7544,
  "\u2581existing": 7545,
  "\u2581fake": 7546,
  "\u2581fiksita": 7547,
  "\u2581firme": 7548,
  "\u2581foresto": 7549,
  "\u2581habitation": 7550,
  "\u2581helps": 7551,
  "\u2581knoweth": 7552,
  "\u2581konservas": 7553,
  "\u2581kovrita": 7554,
  "\u2581ku\u015dis": 7555,
  "\u2581lo\u011dejo": 7556,
  "\u2581malfacilas": 7557,
  "\u2581maljunuloj": 7558,
  "\u2581period": 7559,
  "\u2581permesos": 7560,
  "\u2581pla\u0109is": 7561,
  "\u2581plendas": 7562,
  "\u2581plibonigi": 7563,
  "\u2581positive": 7564,
  "\u2581preached": 7565,
  "\u2581prize": 7566,
  "\u2581pulled": 7567,
  "\u2581queue": 7568,
  "\u2581reality": 7569,
  "\u2581regular": 7570,
  "\u2581ridi": 7571,
  "\u2581riveroj": 7572,
  "\u2581servon": 7573,
  "\u2581shine": 7574,
  "\u2581sikloj": 7575,
  "\u2581split": 7576,
  "\u2581suspect": 7577,
  "\u2581tend": 7578,
  "\u2581terror": 7579,
  "\u2581transiri": 7580,
  "\u2581ulnojn": 7581,
  "\u2581videos": 7582,
  "\u2581weird": 7583,
  "\u2581wrought": 7584,
  "\u2581\u0109inan": 7585,
  "box": 7586,
  "bsp": 7587,
  "cha": 7588,
  "iz": 7589,
  "ora": 7590,
  "tago": 7591,
  "tigu": 7592,
  "\u258121": 7593,
  "\u258126": 7594,
  "\u2581Bonege": 7595,
  "\u2581Directory": 7596,
  "\u2581Fill": 7597,
  "\u2581Gal": 7598,
  "\u2581Jehoiada": 7599,
  "\u2581Kiujn": 7600,
  "\u2581Level": 7601,
  "\u2581Preska\u016d": 7602,
  "\u2581Reset": 7603,
  "\u2581Sanktulo": 7604,
  "\u2581appreciate": 7605,
  "\u2581auxskulti": 7606,
  "\u2581backend": 7607,
  "\u2581barely": 7608,
  "\u2581begins": 7609,
  "\u2581blew": 7610,
  "\u2581broad": 7611,
  "\u2581brush": 7612,
  "\u2581causes": 7613,
  "\u2581committee": 7614,
  "\u2581cow": 7615,
  "\u2581delikata": 7616,
  "\u2581dol\u0109a": 7617,
  "\u2581ekiris": 7618,
  "\u2581football": 7619,
  "\u2581haunted": 7620,
  "\u2581humble": 7621,
  "\u2581idioto": 7622,
  "\u2581inquire": 7623,
  "\u2581internacia": 7624,
  "\u2581invite": 7625,
  "\u2581kampoj": 7626,
  "\u2581klubo": 7627,
  "\u2581krizo": 7628,
  "\u2581kupro": 7629,
  "\u2581magazine": 7630,
  "\u2581malbonajn": 7631,
  "\u2581mezuris": 7632,
  "\u2581needy": 7633,
  "\u2581nigh": 7634,
  "\u2581nuclear": 7635,
  "\u2581okcidenta": 7636,
  "\u2581orajn": 7637,
  "\u2581pensu": 7638,
  "\u2581perdos": 7639,
  "\u2581petegas": 7640,
  "\u2581plezuron": 7641,
  "\u2581pordoj": 7642,
  "\u2581portu": 7643,
  "\u2581precipe": 7644,
  "\u2581proponas": 7645,
  "\u2581punish": 7646,
  "\u2581reala": 7647,
  "\u2581sentojn": 7648,
  "\u2581sinners": 7649,
  "\u2581spear": 7650,
  "\u2581transe": 7651,
  "\u2581tut": 7652,
  "\u2581videbla": 7653,
  "\u2581vilagxoj": 7654,
  "\u2581visible": 7655,
  "\u2581\u015danco": 7656,
  "40": 7657,
  "Kiam": 7658,
  "MP": 7659,
  "That": 7660,
  "There": 7661,
  "burg": 7662,
  "long": 7663,
  "pli": 7664,
  "rab": 7665,
  "ujon": 7666,
  "way": 7667,
  "\u25812008": 7668,
  "\u2581Allow": 7669,
  "\u2581Although": 7670,
  "\u2581Basxan": 7671,
  "\u2581Bat": 7672,
  "\u2581Bottom": 7673,
  "\u2581Cu": 7674,
  "\u2581Foto": 7675,
  "\u2581HXebron": 7676,
  "\u2581Item": 7677,
  "\u2581Marika": 7678,
  "\u2581Rehoboam": 7679,
  "\u2581Val": 7680,
  "\u2581adversaries": 7681,
  "\u2581aldono": 7682,
  "\u2581bastono": 7683,
  "\u2581bio": 7684,
  "\u2581da\u016dro": 7685,
  "\u2581defend": 7686,
  "\u2581distanco": 7687,
  "\u2581dried": 7688,
  "\u2581ekstrem": 7689,
  "\u2581etoson": 7690,
  "\u2581fingers": 7691,
  "\u2581flugiloj": 7692,
  "\u2581fono": 7693,
  "\u2581forpelis": 7694,
  "\u2581fotilon": 7695,
  "\u2581fotoj": 7696,
  "\u2581frazoj": 7697,
  "\u2581fucking": 7698,
  "\u2581kantos": 7699,
  "\u2581kulpa": 7700,
  "\u2581liar": 7701,
  "\u2581limojn": 7702,
  "\u2581loto": 7703,
  "\u2581morrow": 7704,
  "\u2581muroj": 7705,
  "\u2581naciojn": 7706,
  "\u2581noon": 7707,
  "\u2581notify": 7708,
  "\u2581obvious": 7709,
  "\u2581par": 7710,
  "\u2581pardon": 7711,
  "\u2581pensojn": 7712,
  "\u2581premi": 7713,
  "\u2581premu": 7714,
  "\u2581prosper": 7715,
  "\u2581separated": 7716,
  "\u2581sistemon": 7717,
  "\u2581telefonos": 7718,
  "\u2581ugly": 7719,
  "\u2581unhappy": 7720,
  "\u2581utter": 7721,
  "\u2581uzataj": 7722,
  "\u2581variable": 7723,
  "\u2581virgin": 7724,
  "12": 7725,
  "Are": 7726,
  "algra\u016d": 7727,
  "daj": 7728,
  "ekz": 7729,
  "eron": 7730,
  "ley": 7731,
  "mil": 7732,
  "prenis": 7733,
  "raj": 7734,
  "skribi": 7735,
  "tante": 7736,
  "\u2581Alex": 7737,
  "\u2581Ann": 7738,
  "\u2581Dosierujo": 7739,
  "\u2581Ebligi": 7740,
  "\u2581False": 7741,
  "\u2581Interface": 7742,
  "\u2581Klak": 7743,
  "\u2581Shut": 7744,
  "\u2581Store": 7745,
  "\u2581Think": 7746,
  "\u2581Whatever": 7747,
  "\u2581\\": 7748,
  "\u2581brown": 7749,
  "\u2581complex": 7750,
  "\u2581da\u016dras": 7751,
  "\u2581deeds": 7752,
  "\u2581dezerton": 7753,
  "\u2581directly": 7754,
  "\u2581dolaro": 7755,
  "\u2581ekonomio": 7756,
  "\u2581eksterlanden": 7757,
  "\u2581exceedingly": 7758,
  "\u2581fierce": 7759,
  "\u2581gardi": 7760,
  "\u2581goodbye": 7761,
  "\u2581gradoj": 7762,
  "\u2581im": 7763,
  "\u2581konstruas": 7764,
  "\u2581krono": 7765,
  "\u2581lavu": 7766,
  "\u2581magic": 7767,
  "\u2581major": 7768,
  "\u2581malluma": 7769,
  "\u2581managed": 7770,
  "\u2581mathematics": 7771,
  "\u2581memoru": 7772,
  "\u2581murdo": 7773,
  "\u2581pants": 7774,
  "\u2581pardonpetas": 7775,
  "\u2581points": 7776,
  "\u2581preach": 7777,
  "\u2581pripensi": 7778,
  "\u2581recognized": 7779,
  "\u2581render": 7780,
  "\u2581ridas": 7781,
  "\u2581ridinda": 7782,
  "\u2581rikolto": 7783,
  "\u2581skrib": 7784,
  "\u2581stilo": 7785,
  "\u2581successfully": 7786,
  "\u2581sworn": 7787,
  "\u2581taksion": 7788,
  "\u2581theater": 7789,
  "\u2581validas": 7790,
  "\u2581vizio": 7791,
  "ES": 7792,
  "Por": 7793,
  "ago": 7794,
  "are": 7795,
  "ated": 7796,
  "olfram": 7797,
  "rib": 7798,
  "\u25812001": 7799,
  "\u2581Alarm": 7800,
  "\u2581Apple": 7801,
  "\u2581Certificate": 7802,
  "\u2581History": 7803,
  "\u2581Jesse": 7804,
  "\u2581KB": 7805,
  "\u2581Nebat": 7806,
  "\u2581Sh": 7807,
  "\u2581Sinjoron": 7808,
  "\u2581Username": 7809,
  "\u2581alveni": 7810,
  "\u2581aparaton": 7811,
  "\u2581ar": 7812,
  "\u2581benu": 7813,
  "\u2581castle": 7814,
  "\u2581chess": 7815,
  "\u2581comment": 7816,
  "\u2581eblon": 7817,
  "\u2581elektro": 7818,
  "\u2581entute": 7819,
  "\u2581esprimi": 7820,
  "\u2581fools": 7821,
  "\u2581forprenis": 7822,
  "\u2581gentoj": 7823,
  "\u2581gxojas": 7824,
  "\u2581hispanan": 7825,
  "\u2581hodia\u016da": 7826,
  "\u2581illness": 7827,
  "\u2581kroniko": 7828,
  "\u2581kunsido": 7829,
  "\u2581langon": 7830,
  "\u2581lavas": 7831,
  "\u2581maljusteco": 7832,
  "\u2581mortigitaj": 7833,
  "\u2581obeas": 7834,
  "\u2581okulvitrojn": 7835,
  "\u2581perdas": 7836,
  "\u2581politika": 7837,
  "\u2581powerful": 7838,
  "\u2581preview": 7839,
  "\u2581properly": 7840,
  "\u2581properties": 7841,
  "\u2581retejo": 7842,
  "\u2581schedule": 7843,
  "\u2581sciigi": 7844,
  "\u2581sensitive": 7845,
  "\u2581senton": 7846,
  "\u2581sklavon": 7847,
  "\u2581songxo": 7848,
  "\u2581spell": 7849,
  "\u2581statuo": 7850,
  "\u2581testo": 7851,
  "\u2581thither": 7852,
  "\u2581tread": 7853,
  "\u2581upper": 7854,
  "\u2581useless": 7855,
  "\u2581ventego": 7856,
  "\u2581website": 7857,
  "\u2581weeping": 7858,
  "\u2581\u015dan\u011dos": 7859,
  "Estas": 7860,
  "dia": 7861,
  "formato": 7862,
  "ietnam": 7863,
  "itan": 7864,
  "lita": 7865,
  "ope": 7866,
  "ordi": 7867,
  "rado": 7868,
  "rd": 7869,
  "ts": 7870,
  "vin": 7871,
  "white": 7872,
  "year": 7873,
  "\u25812002": 7874,
  "\u2581Agordu": 7875,
  "\u2581Alpha": 7876,
  "\u2581Bible": 7877,
  "\u2581March": 7878,
  "\u2581OpenPGP": 7879,
  "\u2581Osaka": 7880,
  "\u2581Pol": 7881,
  "\u2581Redaktu": 7882,
  "\u2581Volume": 7883,
  "\u2581aktualan": 7884,
  "\u2581arrow": 7885,
  "\u2581artikolo": 7886,
  "\u2581bars": 7887,
  "\u2581bazo": 7888,
  "\u2581becoming": 7889,
  "\u2581bruon": 7890,
  "\u2581bucxis": 7891,
  "\u2581complain": 7892,
  "\u2581con": 7893,
  "\u2581cursed": 7894,
  "\u2581degrees": 7895,
  "\u2581deleted": 7896,
  "\u2581doings": 7897,
  "\u2581dumb": 7898,
  "\u2581edzi\u011di": 7899,
  "\u2581eighteen": 7900,
  "\u2581fidu": 7901,
  "\u2581filmoj": 7902,
  "\u2581fluas": 7903,
  "\u2581fre\u015da": 7904,
  "\u2581friendship": 7905,
  "\u2581golf": 7906,
  "\u2581ideoj": 7907,
  "\u2581kamparo": 7908,
  "\u2581ka\u016dzi": 7909,
  "\u2581konstruita": 7910,
  "\u2581kulpon": 7911,
  "\u2581kunvenon": 7912,
  "\u2581kvarcent": 7913,
  "\u2581lesson": 7914,
  "\u2581multiply": 7915,
  "\u2581necesa": 7916,
  "\u2581ostojn": 7917,
  "\u2581parameter": 7918,
  "\u2581plia": 7919,
  "\u2581rebuke": 7920,
  "\u2581replace": 7921,
  "\u2581revenigos": 7922,
  "\u2581royal": 7923,
  "\u2581sets": 7924,
  "\u2581situacion": 7925,
  "\u2581st": 7926,
  "\u2581stage": 7927,
  "\u2581startup": 7928,
  "\u2581stead": 7929,
  "\u2581sukcese": 7930,
  "\u2581tender": 7931,
  "\u2581uloj": 7932,
  "\u2581verkisto": 7933,
  "\u2581\u015dan\u011das": 7934,
  "adu": 7935,
  "kun": 7936,
  "kva": 7937,
  "log": 7938,
  "tie": 7939,
  "tt": 7940,
  "vado": 7941,
  "\u2581({0})": 7942,
  "\u2581Azariah": 7943,
  "\u2581Balak": 7944,
  "\u2581Browser": 7945,
  "\u2581Emily": 7946,
  "\u2581Gibea": 7947,
  "\u2581Joash": 7948,
  "\u2581Jordanon": 7949,
  "\u2581Kal": 7950,
  "\u2581Novjorko": 7951,
  "\u2581Repeat": 7952,
  "\u2581Split": 7953,
  "\u2581Style": 7954,
  "\u2581arguments": 7955,
  "\u2581beaten": 7956,
  "\u2581bedroom": 7957,
  "\u2581channel": 7958,
  "\u2581compass": 7959,
  "\u2581demandos": 7960,
  "\u2581depends": 7961,
  "\u2581dev": 7962,
  "\u2581encourage": 7963,
  "\u2581exceeding": 7964,
  "\u2581flue": 7965,
  "\u2581gajnos": 7966,
  "\u2581glacio": 7967,
  "\u2581graveda": 7968,
  "\u2581gxoju": 7969,
  "\u2581heal": 7970,
  "\u2581hontas": 7971,
  "\u2581iniquities": 7972,
  "\u2581juste": 7973,
  "\u2581kuko": 7974,
  "\u2581ludilo": 7975,
  "\u2581malbonas": 7976,
  "\u2581malfrua": 7977,
  "\u2581mal\u015dalti": 7978,
  "\u2581mourn": 7979,
  "\u2581necesejo": 7980,
  "\u2581oh": 7981,
  "\u2581olive": 7982,
  "\u2581policisto": 7983,
  "\u2581popup": 7984,
  "\u2581professor": 7985,
  "\u2581profetojn": 7986,
  "\u2581provoke": 7987,
  "\u2581punished": 7988,
  "\u2581redeem": 7989,
  "\u2581response": 7990,
  "\u2581rezultoj": 7991,
  "\u2581risen": 7992,
  "\u2581sciigo": 7993,
  "\u2581servos": 7994,
  "\u2581skatolon": 7995,
  "\u2581succeeded": 7996,
  "\u2581trankvile": 7997,
  "\u2581trumpets": 7998,
  "\u2581vesperman\u011don": 7999,
  "\u2581{@}": 8000,
  "\u2581\u0109emizon": 8001,
  "\u2581\u015dan\u011doj": 8002,
  "\u2581\u015datos": 8003,
  "PP": 8004,
  "ben": 8005,
  "help": 8006,
  "ice": 8007,
  "italy": 8008,
  "lando": 8009,
  "low": 8010,
  "nio": 8011,
  "\u2581Ai": 8012,
  "\u2581Ak": 8013,
  "\u2581Anjuta": 8014,
  "\u2581Available": 8015,
  "\u2581Header": 8016,
  "\u2581Quebec": 8017,
  "\u2581Shape": 8018,
  "\u2581Won": 8019,
  "\u2581appears": 8020,
  "\u2581arrows": 8021,
  "\u2581articles": 8022,
  "\u2581asertas": 8023,
  "\u2581atentas": 8024,
  "\u2581batalon": 8025,
  "\u2581beda\u016drinde": 8026,
  "\u2581beings": 8027,
  "\u2581bet": 8028,
  "\u2581blog": 8029,
  "\u2581bovo": 8030,
  "\u2581client": 8031,
  "\u2581convince": 8032,
  "\u2581defalis": 8033,
  "\u2581design": 8034,
  "\u2581elliti\u011dis": 8035,
  "\u2581evangelion": 8036,
  "\u2581foreigners": 8037,
  "\u2581fremdan": 8038,
  "\u2581hanging": 8039,
  "\u2581harp": 8040,
  "\u2581jar": 8041,
  "\u2581katoj": 8042,
  "\u2581kusxis": 8043,
  "\u2581lamp": 8044,
  "\u2581levos": 8045,
  "\u2581liveth": 8046,
  "\u2581malbela": 8047,
  "\u2581malsukceso": 8048,
  "\u2581mankos": 8049,
  "\u2581meters": 8050,
  "\u2581na\u011das": 8051,
  "\u2581nomita": 8052,
  "\u2581orange": 8053,
  "\u2581pas": 8054,
  "\u2581penso": 8055,
  "\u2581permissions": 8056,
  "\u2581semo": 8057,
  "\u2581sklavino": 8058,
  "\u2581talent": 8059,
  "\u2581thorns": 8060,
  "\u2581timon": 8061,
  "\u2581triono": 8062,
  "\u2581vasta": 8063,
  "\u2581vesperon": 8064,
  "\u2581voja\u011don": 8065,
  "\u2581wondered": 8066,
  "\u2581\u0109iutaga": 8067,
  "AS": 8068,
  "Ha": 8069,
  "IP": 8070,
  "ene": 8071,
  "od": 8072,
  "sko": 8073,
  "vendejo": 8074,
  "\u258128": 8075,
  "\u2581Averto": 8076,
  "\u2581Ignore": 8077,
  "\u2581Joasx": 8078,
  "\u2581Kan": 8079,
  "\u2581Konto": 8080,
  "\u2581Los": 8081,
  "\u2581Overwrite": 8082,
  "\u2581Philip": 8083,
  "\u2581Place": 8084,
  "\u2581Premu": 8085,
  "\u2581Tyre": 8086,
  "\u2581Work": 8087,
  "\u2581armed": 8088,
  "\u2581basic": 8089,
  "\u2581cedar": 8090,
  "\u2581convert": 8091,
  "\u2581delay": 8092,
  "\u2581doeth": 8093,
  "\u2581ekstera": 8094,
  "\u2581enable": 8095,
  "\u2581exact": 8096,
  "\u2581explanation": 8097,
  "\u2581forkondukis": 8098,
  "\u2581glorified": 8099,
  "\u2581gra": 8100,
  "\u2581grapes": 8101,
  "\u2581heroo": 8102,
  "\u2581hobby": 8103,
  "\u2581hop": 8104,
  "\u2581informon": 8105,
  "\u2581komandon": 8106,
  "\u2581loaded": 8107,
  "\u2581malnovajn": 8108,
  "\u2581malricxulo": 8109,
  "\u2581mapo": 8110,
  "\u2581meza": 8111,
  "\u2581mezuro": 8112,
  "\u2581minimuma": 8113,
  "\u2581petu": 8114,
  "\u2581pitched": 8115,
  "\u2581planko": 8116,
  "\u2581punishment": 8117,
  "\u2581rakontas": 8118,
  "\u2581reganto": 8119,
  "\u2581re\u011dino": 8120,
  "\u2581sek": 8121,
  "\u2581sekreta": 8122,
  "\u2581silly": 8123,
  "\u2581sopiras": 8124,
  "\u2581spades": 8125,
  "\u2581str": 8126,
  "\u2581superas": 8127,
  "\u2581supper": 8128,
  "\u2581surmetis": 8129,
  "\u2581televidilon": 8130,
  "\u2581transgressions": 8131,
  "\u2581usonanoj": 8132,
  "\u2581vantajxo": 8133,
  "\u2581\u015ciaj": 8134,
  "AL": 8135,
  "Add": 8136,
  "Ethiopia": 8137,
  "Nu": 8138,
  "Search": 8139,
  "maniere": 8140,
  "maniero": 8141,
  "\u2581Anglujo": 8142,
  "\u2581Anta\u016drigardo": 8143,
  "\u2581Empty": 8144,
  "\u2581Fuji": 8145,
  "\u2581Lasta": 8146,
  "\u2581Paper": 8147,
  "\u2581Playing": 8148,
  "\u2581SXehxem": 8149,
  "\u2581Street": 8150,
  "\u2581Versio": 8151,
  "\u2581aflikti": 8152,
  "\u2581artists": 8153,
  "\u2581assume": 8154,
  "\u2581bathroom": 8155,
  "\u2581besides": 8156,
  "\u2581cancel": 8157,
  "\u2581capable": 8158,
  "\u2581commands": 8159,
  "\u2581contract": 8160,
  "\u2581duration": 8161,
  "\u2581ease": 8162,
  "\u2581ebligita": 8163,
  "\u2581ekz": 8164,
  "\u2581favour": 8165,
  "\u2581fini\u011dos": 8166,
  "\u2581flour": 8167,
  "\u2581flugilojn": 8168,
  "\u2581forces": 8169,
  "\u2581gaja": 8170,
  "\u2581habit": 8171,
  "\u2581imagination": 8172,
  "\u2581jumped": 8173,
  "\u2581klopodas": 8174,
  "\u2581komenci\u011dos": 8175,
  "\u2581kosmo": 8176,
  "\u2581lauxta": 8177,
  "\u2581logxi": 8178,
  "\u2581longo": 8179,
  "\u2581malnovaj": 8180,
  "\u2581malrapida": 8181,
  "\u2581mortigas": 8182,
  "\u2581mystery": 8183,
  "\u2581norde": 8184,
  "\u2581nordo": 8185,
  "\u2581nova\u0135oj": 8186,
  "\u2581pale": 8187,
  "\u2581pasigas": 8188,
  "\u2581pekuloj": 8189,
  "\u2581pezon": 8190,
  "\u2581porch": 8191,
  "\u2581products": 8192,
  "\u2581provided": 8193,
  "\u2581recommend": 8194,
  "\u2581rejoiced": 8195,
  "\u2581reton": 8196,
  "\u2581rompi": 8197,
  "\u2581sagxulo": 8198,
  "\u2581silento": 8199,
  "\u2581stretch": 8200,
  "\u2581trash": 8201,
  "\u2581trian": 8202,
  "\u2581uzos": 8203,
  "\u2581voku": 8204,
  "EL": 8205,
  "New": 8206,
  "edrot": 8207,
  "gaj": 8208,
  "i\u011don": 8209,
  "kulo": 8210,
  "last": 8211,
  "nomon": 8212,
  "teksto": 8213,
  "unua": 8214,
  "wanadoo": 8215,
  "\u2581Ban\u015dion": 8216,
  "\u2581Bethlehem": 8217,
  "\u2581Diestel": 8218,
  "\u2581Jisxaj": 8219,
  "\u2581Johanon": 8220,
  "\u2581Komando": 8221,
  "\u2581Levigxu": 8222,
  "\u2581Monitor": 8223,
  "\u2581Programo": 8224,
  "\u2581Rapidu": 8225,
  "\u2581Too": 8226,
  "\u2581Zehxarja": 8227,
  "\u2581\\\\": 8228,
  "\u2581a\u016dtoj": 8229,
  "\u2581bowl": 8230,
  "\u2581celis": 8231,
  "\u2581chicken": 8232,
  "\u2581complicated": 8233,
  "\u2581creatures": 8234,
  "\u2581diman\u0109e": 8235,
  "\u2581eleven": 8236,
  "\u2581epoko": 8237,
  "\u2581external": 8238,
  "\u2581festeto": 8239,
  "\u2581freezing": 8240,
  "\u2581hunger": 8241,
  "\u2581introduce": 8242,
  "\u2581jail": 8243,
  "\u2581junulino": 8244,
  "\u2581largxo": 8245,
  "\u2581leader": 8246,
  "\u2581liberigi": 8247,
  "\u2581malaperos": 8248,
  "\u2581maximum": 8249,
  "\u2581notification": 8250,
  "\u2581obstina": 8251,
  "\u2581pacienco": 8252,
  "\u2581pot": 8253,
  "\u2581prophesied": 8254,
  "\u2581publiko": 8255,
  "\u2581sackcloth": 8256,
  "\u2581spiritual": 8257,
  "\u2581spite": 8258,
  "\u2581stomach": 8259,
  "\u2581suitcase": 8260,
  "\u2581surprizo": 8261,
  "\u2581swore": 8262,
  "\u2581tabelo": 8263,
  "\u2581tail": 8264,
  "\u2581televido": 8265,
  "\u2581vegetables": 8266,
  "\u2581vengeance": 8267,
  "\u2581vojojn": 8268,
  "\u2581volon": 8269,
  "\u2581\u015car\u011dante": 8270,
  "\u2581\u015dalti": 8271,
  "#": 8272,
  "1:": 8273,
  "Class": 8274,
  "Pri": 8275,
  "Vere": 8276,
  "Via": 8277,
  "ami": 8278,
  "ejoj": 8279,
  "ford": 8280,
  "formo": 8281,
  "ical": 8282,
  "mann": 8283,
  "sia": 8284,
  "sku": 8285,
  "\u0109ambro": 8286,
  "\u2581Andreo": 8287,
  "\u2581Bur": 8288,
  "\u2581Eblas": 8289,
  "\u2581Hispanio": 8290,
  "\u2581Info": 8291,
  "\u2581Jehoram": 8292,
  "\u2581Konkeranto": 8293,
  "\u2581Old": 8294,
  "\u2581Profile": 8295,
  "\u2581Ret": 8296,
  "\u2581Year": 8297,
  "\u2581Ze": 8298,
  "\u2581abide": 8299,
  "\u2581aktuala": 8300,
  "\u2581aldonu": 8301,
  "\u2581aplika\u0135oj": 8302,
  "\u2581atenta": 8303,
  "\u2581atonement": 8304,
  "\u2581auxdi": 8305,
  "\u2581backup": 8306,
  "\u2581botelo": 8307,
  "\u2581complaining": 8308,
  "\u2581concerned": 8309,
  "\u2581conditions": 8310,
  "\u2581dan\u011dere": 8311,
  "\u2581distress": 8312,
  "\u2581economy": 8313,
  "\u2581ekzemplo": 8314,
  "\u2581excuse": 8315,
  "\u2581filename": 8316,
  "\u2581fini\u011das": 8317,
  "\u2581flankon": 8318,
  "\u2581flugo": 8319,
  "\u2581forgiven": 8320,
  "\u2581gardas": 8321,
  "\u2581herooj": 8322,
  "\u2581infero": 8323,
  "\u2581intense": 8324,
  "\u2581invitation": 8325,
  "\u2581kunvenis": 8326,
  "\u2581kutimo": 8327,
  "\u2581laboru": 8328,
  "\u2581lessons": 8329,
  "\u2581loose": 8330,
  "\u2581mala": 8331,
  "\u2581mielo": 8332,
  "\u2581mortigitoj": 8333,
  "\u2581politics": 8334,
  "\u2581portos": 8335,
  "\u2581posedanto": 8336,
  "\u2581purple": 8337,
  "\u2581query": 8338,
  "\u2581reiru": 8339,
  "\u2581repair": 8340,
  "\u2581revido": 8341,
  "\u2581rocks": 8342,
  "\u2581rotaci": 8343,
  "\u2581rude": 8344,
  "\u2581sakon": 8345,
  "\u2581sekrete": 8346,
  "\u2581sekvaj": 8347,
  "\u2581similan": 8348,
  "\u2581subskribi": 8349,
  "\u2581tax": 8350,
  "\u2581treege": 8351,
  "\u2581upward": 8352,
  "\u2581vazon": 8353,
  "\u2581vid": 8354,
  "\u2581\u015dtato": 8355,
  "Country": 8356,
  "DVD": 8357,
  "dy": 8358,
  "i\u011dinta": 8359,
  "kvara": 8360,
  "landa": 8361,
  "lto": 8362,
  "rak": 8363,
  "republic": 8364,
  "spekt": 8365,
  "stu": 8366,
  "ult": 8367,
  "\u2581Amon": 8368,
  "\u2581Anjuto": 8369,
  "\u2581Asaf": 8370,
  "\u2581Bay": 8371,
  "\u2581Blanka": 8372,
  "\u2581Damo": 8373,
  "\u2581Dume": 8374,
  "\u2581Ekron": 8375,
  "\u2581Forward": 8376,
  "\u2581Italio": 8377,
  "\u2581Jan": 8378,
  "\u2581Login": 8379,
  "\u2581Mol": 8380,
  "\u2581Multe": 8381,
  "\u2581Pan": 8382,
  "\u2581Peace": 8383,
  "\u2581Ph": 8384,
  "\u2581Podcast": 8385,
  "\u2581Rigardi": 8386,
  "\u2581Through": 8387,
  "\u2581Warning": 8388,
  "\u2581aliris": 8389,
  "\u2581appropriate": 8390,
  "\u2581belly": 8391,
  "\u2581bileton": 8392,
  "\u2581bongusta": 8393,
  "\u2581communication": 8394,
  "\u2581confused": 8395,
  "\u2581dosier": 8396,
  "\u2581ekstermu": 8397,
  "\u2581ektimis": 8398,
  "\u2581extra": 8399,
  "\u2581faligis": 8400,
  "\u2581farunoferon": 8401,
  "\u2581ferioj": 8402,
  "\u2581fumas": 8403,
  "\u2581gitaron": 8404,
  "\u2581keeping": 8405,
  "\u2581konsciis": 8406,
  "\u2581leciono": 8407,
  "\u2581legado": 8408,
  "\u2581levas": 8409,
  "\u2581negative": 8410,
  "\u2581nomos": 8411,
  "\u2581oceano": 8412,
  "\u2581parable": 8413,
  "\u2581parolon": 8414,
  "\u2581passport": 8415,
  "\u2581peton": 8416,
  "\u2581printempo": 8417,
  "\u2581pripensas": 8418,
  "\u2581rang": 8419,
  "\u2581respektas": 8420,
  "\u2581serpento": 8421,
  "\u2581services": 8422,
  "\u2581sudden": 8423,
  "\u2581survive": 8424,
  "\u2581theory": 8425,
  "\u2581threescore": 8426,
  "\u2581traduko": 8427,
  "\u2581trairis": 8428,
  "\u2581vest": 8429,
  "\u2581virto": 8430,
  "\u2581walks": 8431,
  "\u2581weary": 8432,
  "\u2581wheel": 8433,
  "Not": 8434,
  "ari": 8435,
  "din": 8436,
  "dua": 8437,
  "kojn": 8438,
  "logo": 8439,
  "nia": 8440,
  "pel": 8441,
  "sono": 8442,
  "sub": 8443,
  "type": 8444,
  "\u2581(%1)": 8445,
  "\u2581CPU": 8446,
  "\u2581Da\u016drigi": 8447,
  "\u2581Diagram": 8448,
  "\u2581Em": 8449,
  "\u2581Filtrilo": 8450,
  "\u2581Gibeah": 8451,
  "\u2581Grid": 8452,
  "\u2581HTTP": 8453,
  "\u2581Modifi": 8454,
  "\u2581Publika": 8455,
  "\u2581Real": 8456,
  "\u2581Resource": 8457,
  "\u2581Zo": 8458,
  "\u2581ajna": 8459,
  "\u2581akvoj": 8460,
  "\u2581animojn": 8461,
  "\u2581applied": 8462,
  "\u2581argue": 8463,
  "\u2581attachment": 8464,
  "\u2581belajn": 8465,
  "\u2581captured": 8466,
  "\u2581comfortable": 8467,
  "\u2581damage": 8468,
  "\u2581disappeared": 8469,
  "\u2581dokumenta": 8470,
  "\u2581dokumentojn": 8471,
  "\u2581effort": 8472,
  "\u2581egale": 8473,
  "\u2581eksterlande": 8474,
  "\u2581elektitajn": 8475,
  "\u2581eskapi": 8476,
  "\u2581fari\u011dos": 8477,
  "\u2581fig": 8478,
  "\u2581forlasas": 8479,
  "\u2581gladness": 8480,
  "\u2581hall": 8481,
  "\u2581involved": 8482,
  "\u2581jugxas": 8483,
  "\u2581kadro": 8484,
  "\u2581kancero": 8485,
  "\u2581kar": 8486,
  "\u2581kaverno": 8487,
  "\u2581knees": 8488,
  "\u2581komerca": 8489,
  "\u2581lernanto": 8490,
  "\u2581liniojn": 8491,
  "\u2581malgxojo": 8492,
  "\u2581medio": 8493,
  "\u2581operations": 8494,
  "\u2581pestilence": 8495,
  "\u2581placed": 8496,
  "\u2581poem": 8497,
  "\u2581posteno": 8498,
  "\u2581princino": 8499,
  "\u2581programaro": 8500,
  "\u2581provo": 8501,
  "\u2581redakti": 8502,
  "\u2581regxojn": 8503,
  "\u2581related": 8504,
  "\u2581sagxon": 8505,
  "\u2581shared": 8506,
  "\u2581studies": 8507,
  "\u2581synagogue": 8508,
  "\u2581tagmezo": 8509,
  "\u2581timema": 8510,
  "\u2581tools": 8511,
  "\u2581treated": 8512,
  "\u2581venigu": 8513,
  "\u2581vineyards": 8514,
  "\u2581\u00e6i": 8515,
  "\u2581\u011dardenon": 8516,
  "\u2581\u015dajnigis": 8517,
  "Per": 8518,
  "Prenu": 8519,
  "Query": 8520,
  "Video": 8521,
  "ajxon": 8522,
  "cis": 8523,
  "esto": 8524,
  "ft": 8525,
  "ini": 8526,
  "la\u016d": 8527,
  "like": 8528,
  "town": 8529,
  "\u2581\"{0}\"": 8530,
  "\u2581-%": 8531,
  "\u258132": 8532,
  "\u2581Abimelehx": 8533,
  "\u2581Aparato": 8534,
  "\u2581Azarja": 8535,
  "\u2581Brasero": 8536,
  "\u2581Bru": 8537,
  "\u2581Central": 8538,
  "\u2581Death": 8539,
  "\u2581Dur": 8540,
  "\u2581Eks": 8541,
  "\u2581Fuck": 8542,
  "\u2581Gloru": 8543,
  "\u2581Herod": 8544,
  "\u2581I\u015dan": 8545,
  "\u2581Kolor": 8546,
  "\u2581Ram": 8547,
  "\u2581Resta": 8548,
  "\u2581Second": 8549,
  "\u2581Sud": 8550,
  "\u2581Tar": 8551,
  "\u2581Until": 8552,
  "\u2581absence": 8553,
  "\u2581alloga": 8554,
  "\u2581arbojn": 8555,
  "\u2581aro": 8556,
  "\u2581ashes": 8557,
  "\u2581average": 8558,
  "\u2581brook": 8559,
  "\u2581brutojn": 8560,
  "\u2581cave": 8561,
  "\u2581determine": 8562,
  "\u2581diman\u0109o": 8563,
  "\u2581dreamed": 8564,
  "\u2581ekploris": 8565,
  "\u2581election": 8566,
  "\u2581elementoj": 8567,
  "\u2581entries": 8568,
  "\u2581en\u015daltita": 8569,
  "\u2581frenezas": 8570,
  "\u2581iPod": 8571,
  "\u2581kantu": 8572,
  "\u2581koramikinon": 8573,
  "\u2581kusxas": 8574,
  "\u2581lib": 8575,
  "\u2581memoriga": 8576,
  "\u2581militis": 8577,
  "\u2581moduso": 8578,
  "\u2581nazon": 8579,
  "\u2581punos": 8580,
  "\u2581ra": 8581,
  "\u2581rakontu": 8582,
  "\u2581reap": 8583,
  "\u2581reference": 8584,
  "\u2581rekonas": 8585,
  "\u2581searching": 8586,
  "\u2581snare": 8587,
  "\u2581sor\u0109istino": 8588,
  "\u2581stairs": 8589,
  "\u2581traveling": 8590,
  "\u2581trifoje": 8591,
  "\u2581veki": 8592,
  "\u2581wrap": 8593,
  "16": 8594,
  "And": 8595,
  "Image": 8596,
  "Indian": 8597,
  "dev": 8598,
  "dojn": 8599,
  "grandeco": 8600,
  "isma": 8601,
  "let": 8602,
  "space": 8603,
  "tos": 8604,
  "\u015f": 8605,
  "\u25811/": 8606,
  "\u2581600": 8607,
  "\u2581Actions": 8608,
  "\u2581Aliaj": 8609,
  "\u2581Align": 8610,
  "\u2581Betty": 8611,
  "\u2581Bon": 8612,
  "\u2581Egyptian": 8613,
  "\u2581Exit": 8614,
  "\u2581Fal": 8615,
  "\u2581Fono": 8616,
  "\u2581Hawaii": 8617,
  "\u2581Horizontala": 8618,
  "\u2581Ishmael": 8619,
  "\u2581Know": 8620,
  "\u2581Kopirajto": 8621,
  "\u2581MS": 8622,
  "\u2581Mon": 8623,
  "\u2581Refresh": 8624,
  "\u2581Saint": 8625,
  "\u2581Setup": 8626,
  "\u2581Steffen": 8627,
  "\u2581Unfortunately": 8628,
  "\u2581Ur": 8629,
  "\u2581afterward": 8630,
  "\u2581akcidenton": 8631,
  "\u2581charged": 8632,
  "\u2581climate": 8633,
  "\u2581cups": 8634,
  "\u2581da\u016drigis": 8635,
  "\u2581demand": 8636,
  "\u2581demetis": 8637,
  "\u2581egg": 8638,
  "\u2581entrepreno": 8639,
  "\u2581export": 8640,
  "\u2581finds": 8641,
  "\u2581forigu": 8642,
  "\u2581goat": 8643,
  "\u2581grandecon": 8644,
  "\u2581gustas": 8645,
  "\u2581handsome": 8646,
  "\u2581havantaj": 8647,
  "\u2581heredajxo": 8648,
  "\u2581influence": 8649,
  "\u2581instruction": 8650,
  "\u2581intence": 8651,
  "\u2581justified": 8652,
  "\u2581kliento": 8653,
  "\u2581kod": 8654,
  "\u2581krimoj": 8655,
  "\u2581ktp": 8656,
  "\u2581labortabla": 8657,
  "\u2581legu": 8658,
  "\u2581ligita": 8659,
  "\u2581marbordo": 8660,
  "\u2581monaton": 8661,
  "\u2581multiplied": 8662,
  "\u2581orelo": 8663,
  "\u2581packages": 8664,
  "\u2581piktogramoj": 8665,
  "\u2581placo": 8666,
  "\u2581planojn": 8667,
  "\u2581postulis": 8668,
  "\u2581rained": 8669,
  "\u2581rajtoj": 8670,
  "\u2581rapidis": 8671,
  "\u2581romano": 8672,
  "\u2581ru": 8673,
  "\u2581sa": 8674,
  "\u2581sanktejon": 8675,
  "\u2581signifo": 8676,
  "\u2581sinjoron": 8677,
  "\u2581smaller": 8678,
  "\u2581stud": 8679,
  "\u2581supermarket": 8680,
  "\u2581thrust": 8681,
  "\u2581toilet": 8682,
  "\u2581uzebla": 8683,
  "\u2581vendredo": 8684,
  "\u2581wanna": 8685,
  "AN": 8686,
  "IS": 8687,
  "TO": 8688,
  "buk": 8689,
  "cy": 8690,
  "eroj": 8691,
  "fik": 8692,
  "ping": 8693,
  "spiri": 8694,
  "\u015de": 8695,
  "\u2581Alport": 8696,
  "\u2581Amalek": 8697,
  "\u2581Canaanites": 8698,
  "\u2581Gaj": 8699,
  "\u2581HXa": 8700,
  "\u2581IMAP": 8701,
  "\u2581Isaiah": 8702,
  "\u2581Kiki": 8703,
  "\u2581Marko": 8704,
  "\u2581Mat": 8705,
  "\u2581Nathan": 8706,
  "\u2581Nuna": 8707,
  "\u2581Query": 8708,
  "\u2581Such": 8709,
  "\u2581Uzita": 8710,
  "\u2581afable": 8711,
  "\u2581agojn": 8712,
  "\u2581atestilo": 8713,
  "\u2581avizi": 8714,
  "\u2581beard": 8715,
  "\u2581biggest": 8716,
  "\u2581bruna": 8717,
  "\u2581bu\u015do": 8718,
  "\u2581damn": 8719,
  "\u2581deceive": 8720,
  "\u2581falu": 8721,
  "\u2581fashion": 8722,
  "\u2581flood": 8723,
  "\u2581forno": 8724,
  "\u2581handmaid": 8725,
  "\u2581hoped": 8726,
  "\u2581independent": 8727,
  "\u2581instant": 8728,
  "\u2581kapabla": 8729,
  "\u2581kazo": 8730,
  "\u2581keruboj": 8731,
  "\u2581konstanta": 8732,
  "\u2581kreas": 8733,
  "\u2581lonely": 8734,
  "\u2581mapon": 8735,
  "\u2581mesa\u011d": 8736,
  "\u2581mizera": 8737,
  "\u2581movado": 8738,
  "\u2581nokta": 8739,
  "\u2581obei": 8740,
  "\u2581objekton": 8741,
  "\u2581official": 8742,
  "\u2581palm": 8743,
  "\u2581paroloj": 8744,
  "\u2581pastrojn": 8745,
  "\u2581pereas": 8746,
  "\u2581pluvas": 8747,
  "\u2581pop": 8748,
  "\u2581postenon": 8749,
  "\u2581premas": 8750,
  "\u2581premion": 8751,
  "\u2581promesojn": 8752,
  "\u2581puraj": 8753,
  "\u2581purigis": 8754,
  "\u2581reg": 8755,
  "\u2581relevigxo": 8756,
  "\u2581resurrection": 8757,
  "\u2581ripeti": 8758,
  "\u2581sandwich": 8759,
  "\u2581savas": 8760,
  "\u2581scene": 8761,
  "\u2581semajnfino": 8762,
  "\u2581sincere": 8763,
  "\u2581skribisto": 8764,
  "\u2581sow": 8765,
  "\u2581subteno": 8766,
  "\u2581swallow": 8767,
  "\u2581transport": 8768,
  "\u2581vidpunkto": 8769,
  "\u2581vizagxaltere": 8770,
  "\u2581wherefore": 8771,
  "Kon": 8772,
  "US": 8773,
  "car": 8774,
  "esi": 8775,
  "fino": 8776,
  "glu": 8777,
  "irante": 8778,
  "japan": 8779,
  "led": 8780,
  "mark": 8781,
  "much": 8782,
  "ntis": 8783,
  "pol": 8784,
  "re\u011dimo": 8785,
  "tal": 8786,
  "uch": 8787,
  "urkey": 8788,
  "\u2581%1%2": 8789,
  "\u25811.": 8790,
  "\u2581Drive": 8791,
  "\u2581Fiaskis": 8792,
  "\u2581Foundation": 8793,
[...]
